<unk>	0
<s>	0
</s>	0
▁၊	-3.49161
▁။	-3.51572
▁ကို	-3.55036
▁	-3.89662
▁သည်	-3.93734
▁က	-3.97998
▁၏	-4.10294
▁တွင်	-4.22354
များ	-4.3703
▁နှင့်	-4.4592
သော	-4.87052
▁ရန်	-4.88307
▁များ	-4.94756
▁ဟု	-4.96278
▁မှ	-4.98575
▁ပြီး	-5.00984
▁တစ်ခု	-5.01639
သည်	-5.14472
▁သူ	-5.18628
▁အတွက်	-5.22461
▁"	-5.23297
ခဲ့သည်	-5.2864
▁မှာ	-5.30836
▁“	-5.33165
ခြင်း	-5.42885
▁”	-5.48476
▁တစ်	-5.54805
မှု	-5.6063
▁ရှိ	-5.66369
▁သော	-5.78845
▁သူတို့	-5.86043
▁သို့	-5.88144
▁တို့	-5.92293
▁နှစ်	-5.9335
▁အဆိုပါ	-6.01362
▁နိုင်ငံ	-6.01982
▁ရဲ့	-6.04659
▁မ	-6.10686
▁(	-6.13537
▁ခု	-6.15387
▁ဖြစ်	-6.18232
▁ဖြင့်	-6.19608
-	-6.21605
▁)	-6.21824
▁ခုနှစ်	-6.24678
▁အမေရိကန်	-6.25838
▁ထို	-6.27003
▁လို့	-6.27417
▁အား	-6.28826
▁ဖြစ်သည်	-6.32872
စ်	-6.33618
▁၌	-6.36893
ပါသည်	-6.38657
▁အဖြစ်	-6.38932
▁၎င်း	-6.40063
▁လ	-6.40331
▁လည်း	-6.41414
▁ဒီ	-6.43114
▁ပြောခဲ့သည်	-6.44134
▁ပြီးနောက်	-6.45718
▁ဟာ	-6.48179
▁နှင့်အတူ	-6.48185
၍	-6.49798
▁အစိုးရ	-6.49985
▁အ	-6.52753
▁၄င်း	-6.52776
▁အတွင်း	-6.53196
▁လူ	-6.57588
▁ကြောင့်	-6.60292
ော	-6.63415
ပါတယ်	-6.63542
တယ်	-6.64137
▁သည့်	-6.64682
▁ဖို့	-6.68177
.	-6.68198
▁သော်လည်း	-6.68795
သည့်	-6.68839
▁သူမ	-6.72301
▁ရက်	-6.73439
▁ကျွန်တော်	-6.73916
▁အပေါ်	-6.75753
▁နေရာ	-6.77334
▁နေ့	-6.7748
▁အဖွဲ့	-6.79948
▁ခဲ့	-6.80672
ကို	-6.8085
တွေ	-6.815
့	-6.81917
▁ပြော	-6.82485
▁ရ	-6.84005
)	-6.84888
▁တစ်ဦး	-6.84989
တွင်	-6.85015
▁အခြား	-6.85648
▁အသင်း	-6.87615
▁ပြည်နယ်	-6.8762
▁တစ်ယောက်	-6.87648
▁သို့မဟုတ်	-6.88427
▁ဦး	-6.90265
▁အရ	-6.94479
▁ယောက်	-6.9481
▁ပြောကြားခဲ့သည်	-6.97146
▁နဲ့	-6.97288
▁ကြောင်း	-6.98507
ာ	-6.99364
▁အားလုံး	-7.00595
(	-7.01085
ကြောင်း	-7.02987
▁သမ္မတ	-7.03214
▁သူ့	-7.0376
း	-7.03987
ရေး	-7.05266
▁မြို့	-7.06231
သူ	-7.06265
▁ကျွန်တော်တို့	-7.06993
ပြီး	-7.09587
▁သတင်း	-7.10492
န်	-7.12572
တဲ့	-7.14149
▁အချိန်	-7.14739
လိမ့်မည်	-7.16163
▁တွေ	-7.1708
▁ပေါ်	-7.20573
▁သူ၏	-7.22512
ခဲ့ပါသည်	-7.25066
▁ဥပဒေ	-7.25141
က	-7.25614
▁နောက်ဆုံး	-7.26288
▁ထက်	-7.26698
ရာ	-7.28108
▁နာရီ	-7.28614
ခဲ့	-7.29518
ရန်	-7.30773
ဆိုင်ရာ	-7.30964
ထားသော	-7.32209
▁ဤ	-7.32576
▁ဒေါ်လာ	-7.33296
င်	-7.33308
သောကြောင့်	-7.33742
▁ဒုတိယ	-7.34252
▁ပါတီ	-7.34361
▁စတင်	-7.35004
▁လျှင်	-7.36424
▁ကဲ့သို့	-7.36425
▁လေယာဉ်	-7.36876
▁အခြေအနေ	-7.37107
▁အသစ်	-7.38019
▁ရဲ	-7.38331
▁ယခု	-7.3863
▁ကျော်	-7.38699
▁-	-7.39356
▁ဒေသ	-7.39912
▁သုံး	-7.40657
▁အမျိုးသား	-7.40679
▁တဲ့	-7.42579
ခဲ့သော	-7.42608
▁တ	-7.42816
စွာ	-7.42817
▁သောအခါ	-7.44829
▁ပြုလုပ်	-7.4571
အားဖြင့်	-7.4577
လ	-7.46155
ခဲ့ကြသည်	-7.47027
▁အဖွဲ့အစည်း	-7.47158
▁ကုမ္ပဏီ	-7.47837
တာ	-7.47967
၏	-7.48901
▁၂	-7.49243
▁ခန့်	-7.50301
▁ပြိုင်ပွဲ	-7.50457
▁တောင်	-7.50681
▁ဝန်ကြီး	-7.50859
ခဲ့တယ်	-7.5143
▁ကျွန်ုပ်	-7.52037
▁အစီအစဉ်	-7.52087
▁နှင့်	-7.52253
▁အဓိက	-7.52437
▁ပထမဆုံး	-7.53259
▁မရှိ	-7.54126
▁ခေါင်းဆောင်	-7.54261
▁နောက်	-7.54387
▁ပြန်လည်	-7.54485
▁သန်း	-7.54537
▁ကျွန်ုပ်တို့	-7.54685
▁လိမ့်မည်	-7.5474
်	-7.55296
▁မှု	-7.56256
▁တိုက်ခိုက်မှု	-7.56279
က်	-7.57737
▁အလွန်	-7.57841
▁သာ	-7.57949
ရာခိုင်နှုန်း	-7.58626
▁ထဲ	-7.58844
▁ခြင်း	-7.58906
▁ယနေ့	-7.59232
▁၁	-7.59346
▁ဆက်လက်	-7.59712
▁နောက်ထပ်	-7.59921
▁ဌာန	-7.59981
▁နိုင်	-7.60179
▁စီးပွားရေး	-7.60404
▁အချို့	-7.60424
ဝင်	-7.60512
▁နယူး	-7.6052
နေသော	-7.60532
▁ရွေးကောက်ပွဲ	-7.60634
မှာ	-7.60719
▁အီရတ်	-7.60961
▁အသက်	-7.61647
▁လက်ရှိ	-7.62128
▁ဒါ	-7.62621
ကတည်းက	-7.63144
,	-7.64038
▁အထိ	-7.64577
▁အစ္စရေး	-7.64755
▁ဆိုင်ရာ	-7.6477
လ်	-7.65364
သူများ	-7.65771
▁ပါ	-7.65774
▁သို့သော်	-7.65959
ပွဲ	-7.66636
▁အနည်းဆုံး	-7.67166
မှုများ	-7.67216
▁များစွာ	-7.67421
▁ဖြစ်ခဲ့သည်	-7.67532
▁မြောက်	-7.67804
▁၃	-7.67961
▁ပေး	-7.68171
▁ဖြစ်သော	-7.68561
▁မြို့တော်	-7.69155
တ်	-7.6966
▁ရှိသည်	-7.69712
▁နေ	-7.69732
ချက်	-7.70989
▁နိုင်ငံတကာ	-7.71021
ပါ	-7.71897
▁ကြာ	-7.71931
▁အဆင့်	-7.72018
နေ့	-7.7203
▁ပထမ	-7.72808
▁လုံခြုံရေး	-7.73348
▁ပြီးတော့	-7.73352
▁အဆိုအရ	-7.73649
▁ရေ	-7.74118
▁မိနစ်	-7.75164
▁တရားရုံး	-7.75626
▁ပါဝင်	-7.75836
▁ကမ္ဘာ့	-7.76664
▁ပေါ်တွင်	-7.7804
▁ရရှိ	-7.78061
▁ဆန့်ကျင်	-7.78628
▁အဖွဲ့ဝင်	-7.78649
ပိုင်း	-7.7889
ရှိ	-7.7908
▁မစ္စတာ	-7.79697
ကြီး	-7.80312
▁အကြောင်း	-7.80353
▁မဟုတ်	-7.80471
▁သူတို့၏	-7.8108
▁အုပ်စု	-7.81613
▁၄	-7.8166
▁လုပ်ဆောင်	-7.81995
▁အစောပိုင်း	-7.82659
▁ဖော်ပြခဲ့သည်	-7.82837
▁ပွဲ	-7.83407
▁၅	-7.83501
▁ပြည်ထောင်စု	-7.83551
▁ပိုမို	-7.83637
▁ပြင်သစ်	-7.83956
မည်	-7.84142
▁စနစ်	-7.84851
▁တရားဝင်	-7.85159
▁ပို	-7.85392
▁စ	-7.85482
င်း	-7.85715
▁အပါအ	-7.8614
▁အလုပ်	-7.86188
ို	-7.86707
▁ကမ္ဘာ	-7.87304
▁မည်သည့်	-7.8814
▁အရာရှိ	-7.88447
▁ဥရောပ	-7.90934
▁သ	-7.90985
ပဲ	-7.91045
▁အများစု	-7.91108
ကြသည်	-7.91228
▁ဆုံးဖြတ်ချက်	-7.91596
▁စဉ်	-7.91623
▁အနေဖြင့်	-7.91759
▁သတင်းစာ	-7.92366
▁ယခင်	-7.9342
မ်	-7.93665
▁လာ	-7.93711
▁တရုတ်	-7.94615
▁အနည်းငယ်	-7.94669
▁ကျောင်း	-7.94916
▁လေး	-7.95106
▁ထိ	-7.95531
▁အကြား	-7.95657
▁၁၀	-7.95803
▁လှုပ်ရှားမှု	-7.95977
ီ	-7.96699
▁ပ	-7.97134
▁သြစတြေးလျ	-7.97296
▁အိမ်	-7.97315
▁ဗြိတိန်	-7.97726
▁ရောဂါ	-7.97766
▁အစီရင်ခံစာ	-7.97767
▁ခဲ့သည်	-7.98277
▁အနီး	-7.98622
▁နိုင်ငံရေး	-7.98775
ဘူး	-7.99445
▁ငါး	-7.99689
▁ဖော်ပြ	-7.99864
▁:	-8.00105
▁၆	-8.00397
▁ကျန်းမာရေး	-8.00498
▁စစ်တပ်	-8.00987
▁အမျိုးသမီး	-8.01016
အဖွဲ့	-8.0125
▁ဝန်ကြီးချုပ်	-8.01641
▁စီ	-8.01871
▁အောက်	-8.02049
▁ဖြစ်ခဲ့	-8.02498
▁လမ်း	-8.02524
▁နောက်ပိုင်း	-8.02862
ကာ	-8.02894
▁မဲ	-8.03137
▁မိသားစု	-8.03309
▁လုံး	-8.03752
▁လိုအပ်	-8.0381
▁ရုရှား	-8.03863
▁ကား	-8.03893
▁တက္ကသိုလ်	-8.0449
▁အသုံးပြု	-8.04529
▁၂၀	-8.04546
▁အီရန်	-8.05489
ရေးဆိုခွင့်ရှိသူ	-8.05635
▁အရာ	-8.05746
▁နယ်မြေ	-8.05787
▁ကြိမ်	-8.05837
ခဲ့ပါတယ်	-8.06177
▁ကလေး	-8.06629
▁အများအပြား	-8.0678
▁ထဲမှ	-8.06826
နေ	-8.0685
၀၀၀	-8.07072
▁ဆိုတာ	-8.07157
▁လုပ်ငန်း	-8.07266
နိုင်ငံ	-8.07651
ဒ်	-8.07689
▁ဩစတြေးလျ	-8.07866
▁လုပ်	-8.08057
▁လူမျိုး	-8.08632
▁ကာ	-8.09645
▁ကြား	-8.09848
▁ဆေးရုံ	-8.09919
▁မိုင်	-8.10104
▁ဆီ	-8.10475
▁ထား	-8.10917
▁အခြေခံ	-8.11067
ယ်	-8.11587
▁ဆို	-8.12045
▁၈	-8.12068
ပြည်ထောင်စု	-8.12438
ား	-8.12549
▁ရလဒ်	-8.13215
▁ည	-8.13467
▁အလုပ်သမား	-8.13609
▁ကနေဒါ	-8.13855
▁သင်္ဘော	-8.14091
▁ဖြစ်လာ	-8.1421
့်	-8.15007
န်း	-8.15021
▁ပြောသည်	-8.1516
▁အရေအတွက်	-8.15626
▁ဦးဆောင်	-8.16584
▁ဘောလုံး	-8.16832
▁အခွင့်အရေး	-8.17553
တို့	-8.178
▁ဂျွန်	-8.17946
▁ကစားပွဲ	-8.17977
မြောက်	-8.184
ဘဲ	-8.18634
▁အကြိမ်	-8.18665
▁မှတ်တမ်း	-8.18878
▁ကိစ္စ	-8.19114
▁၁၅	-8.1913
ေ	-8.19339
▁ပြောခဲ့	-8.19635
▁ကာလ	-8.2027
▁ဝန်ဆောင်မှု	-8.20343
▁သို့သော်လည်း	-8.20459
▁ကိုယ်စားလှယ်	-8.20596
▁ဘာ	-8.20713
▁ထိုအရာ	-8.21035
▁နီးပါး	-8.21117
▁ယုံကြည်	-8.2115
ဖို့	-8.21162
▁ပတ်သက်	-8.21303
▁မနေ့	-8.21537
▁သွား	-8.217
နိုင်	-8.2176
▁ကုလသမဂ္ဂ	-8.22407
စီ	-8.22421
▁ပေါက်ကွဲမှု	-8.22842
▁လွန်ခဲ့	-8.23167
▁ရဲတပ်ဖွဲ့	-8.23203
ရဲ့	-8.23231
▁အေ	-8.2403
မှ	-8.24138
▁တာ	-8.24692
▁ကာကွယ်	-8.24706
▁မုန်တိုင်း	-8.2481
ဒီ	-8.24822
▁၇	-8.24945
▁ပိုင်း	-8.24961
၂	-8.25401
▁လမ်းကြောင်း	-8.25577
▁ရေနံ	-8.25712
နှင့်ဆိုင်သော	-8.26257
ပ်	-8.263
ကြီးမားသော	-8.26835
▁စစ်	-8.27003
ဖြင့်	-8.27917
▁၁၉	-8.28237
▁အရှေ့	-8.2834
▁ယင်း	-8.28957
နေသည်	-8.29267
▁အပြင်	-8.2983
▁အဲဒီ	-8.29907
အောင်	-8.29976
▁ဂိုး	-8.30162
ဆုံး	-8.30329
▁ပြောကြား	-8.30491
၅	-8.30706
▁မျှော်လင့်	-8.30746
▁လန်ဒန်	-8.30932
ရ	-8.31744
▁ကီလိုမီတာ	-8.32475
ကြောင့်	-8.32977
▁မီဒီယာ	-8.33175
▁အထူး	-8.33221
▁နည်းပညာ	-8.33348
ည်	-8.33348
▁ကူညီ	-8.33682
▁န	-8.34053
▁နှစ်ခု	-8.34089
▁ဂျပန်	-8.34698
▁မှတ်	-8.34894
ပါဘူး	-8.34921
ရာတွင်	-8.35126
▁အရေးပေါ်	-8.35185
▁ပါလီမန်	-8.35241
▁ရှ	-8.35453
▁ရှိခဲ့သည်	-8.35454
▁အစိတ်အပိုင်း	-8.35469
▁အရာရှိများ	-8.35735
▁အနောက်	-8.3582
▁သေဆုံး	-8.35977
▁၁၁	-8.36187
၁	-8.36284
▁ရာ	-8.36303
▁၃၀	-8.36381
▁သေဆုံးမှု	-8.36612
▁ကျောင်းသား	-8.36896
တီ	-8.3703
▁ပတ်ဝန်းကျင်	-8.37145
▁ဝန်ထမ်း	-8.37314
▁ပတ်	-8.37568
▁လူများ	-8.37588
▁၁၂	-8.37686
▁မူဝါဒ	-8.38106
▁ပုံစံ	-8.38226
▁ဘက်	-8.38302
▁နိုင်ငံသား	-8.38708
နေရာ	-8.38911
▁ပမာဏ	-8.38939
တော့	-8.39338
▁လက်နက်	-8.3938
▁ဖြစ်တယ်	-8.3977
ချုပ်	-8.39895
▁သေဆုံးခဲ့သည်	-8.40313
လျှင်	-8.4044
ပြောဆိုခဲ့သည်	-8.40756
▁ပြသ	-8.40827
ဲ့	-8.40924
ခံခဲ့ရသည်	-8.40981
ူ	-8.41007
▁အဆုံးသတ်	-8.41011
▁ကိုယ်ပိုင်	-8.411
▁ရုံး	-8.41166
▁ပို၍	-8.41521
▁အရွယ်	-8.41707
▁နည်းလမ်း	-8.41723
ဲ	-8.42089
▁တစ်ရပ်	-8.42095
▁ရှိနေ	-8.42214
▁ရှာဖွေ	-8.42252
▁ကျွန်း	-8.42342
▁အပိုင်း	-8.42403
လိမ့်မယ်	-8.42462
▁ဆု	-8.42479
▁လေ	-8.42589
▁အိန္ဒိယ	-8.42773
▁ပုံမှန်	-8.43237
▁လေကြောင်း	-8.43305
▁တာဝန်	-8.43449
▁အကူအညီ	-8.4353
▁တိုင်းပြည်	-8.43607
▁ပေါင်း	-8.43801
▁အားကစား	-8.43847
▁ကာကွယ်ရေး	-8.43861
▁ပြောင်းလဲမှု	-8.44204
▁သင်	-8.44308
▁လွန်ခဲ့သ	-8.44945
▁၅၀	-8.4513
▁အင်တာနက်	-8.45523
▁အက်	-8.45731
စဉ်	-8.45991
▁အမှန်တကယ်	-8.4617
▁ပြ	-8.46175
▁ရှိသော	-8.46183
▁ယူ	-8.46243
▁ပင်လယ်	-8.46253
▁ရှင်းလင်း	-8.46259
▁ကောင်စီ	-8.46459
စေ	-8.46602
▁မတိုင်ခင်	-8.46916
▁ကြာသပတေး	-8.47017
▁အယ်	-8.4708
▁ပွဲစဉ်	-8.47096
▁ဖြစ်သည့်	-8.47134
▁ကြေငြာချက်	-8.47228
▁ပါကစ္စတန်	-8.47548
▁ဟောင်း	-8.47644
▁ထပ်မံ	-8.47742
▁သကဲ့သို့	-8.47976
▁စွမ်းအင်	-8.47987
၄	-8.48094
▁တပ်ဖွဲ့	-8.48484
ဆန်	-8.48506
▁လက်ခံ	-8.48589
▁၎င်းတို့	-8.48625
▁ဖြစ်စေ	-8.48648
လာ	-8.4865
▁နှုန်း	-8.48939
▁တိုက်ခိုက်	-8.48962
▁မနက်	-8.49066
▁၉	-8.49081
▁အခိုင်အမာ	-8.49314
▁ဆုံး	-8.49616
▁သောကြာနေ့	-8.49697
▁တနင်္လာ	-8.49855
▁ခေါ်	-8.49955
▁ဟ	-8.4998
▁ထိန်းသိမ်း	-8.49997
▁ပြဿနာ	-8.5028
%	-8.50562
▁ဖြစ်ရပ်	-8.50951
▁တိုင်း	-8.5104
▁ကစား	-8.51077
မ	-8.51282
▁ငွေကြေး	-8.51288
▁စကော့တလန်	-8.51483
ဖြစ်သည်	-8.51854
▁--	-8.51936
▁အမှတ်	-8.52112
▁ဆောင်ရွက်	-8.52206
▁ထို့နောက်	-8.52402
▁အိုဘားမား	-8.52495
▁စာရင်း	-8.53257
▁အဆို	-8.53364
▁ပါလက်စတိုင်း	-8.53374
▁ကော်မတီ	-8.53378
▁၁၈	-8.53614
▁အစည်းအဝေး	-8.53725
▁ထဲတွင်	-8.53819
▁တော့	-8.53976
▁အင်္ဂလန်	-8.54228
▁ရက်နေ့	-8.54257
▁အဖြစ်အပျက်	-8.54352
▁ယာဉ်	-8.54568
▁ပြောဆို	-8.54782
▁လုပ်ဆောင်ချက်	-8.55007
▁ပြန်	-8.55079
အသင်း	-8.55117
▁တရားသူကြီး	-8.5525
▁ပူးပေါင်း	-8.55509
▁လွှတ်တော်	-8.55543
▁ခရိုင်	-8.55586
▁ကြိုးစား	-8.55968
ထား	-8.56071
▁ခွင့်ပြု	-8.56079
▁နိုဝင်ဘာ	-8.56157
▁ဖ	-8.56209
▁၁၄	-8.5662
▁ပြောင်းလဲ	-8.56983
▁နံနက်	-8.57114
မီ	-8.57246
▁ရှိခဲ့	-8.57323
သို့	-8.57344
▁မီး	-8.5744
▁ပစ္စည်း	-8.57483
▁အတည်ပြု	-8.57577
▁ကြ	-8.57761
▁ဒေသခံ	-8.57883
▁ငွေ	-8.58019
နာ	-8.58151
▁တပ်	-8.58166
▁အတိုင်း	-8.58314
▁ခြောက်	-8.58715
ထဲသို့	-8.58742
▁အာကာသ	-8.58759
လေး	-8.58884
▁ဆွေးနွေး	-8.59054
လုပ်ငန်း	-8.59104
▁တတိယ	-8.59136
▁နှစ်ဦး	-8.59148
▁ရှေ့နေ	-8.59194
▁ဖြစ်ကြောင်း	-8.59259
ဟာ	-8.59276
▁ဆိုတာကို	-8.59438
အပြည်ပြည်ဆိုင်ရာ	-8.59536
▁စစ်ဆေး	-8.59543
:	-8.59569
ဌာန	-8.59589
▁ဆ	-8.59802
ပေါင်း	-8.59885
▁စေ	-8.59993
ခဲ့ရသည်	-8.59997
▁သစ်	-8.60094
▁ထောက်ပံ့	-8.60135
ခ်	-8.60242
လည်း	-8.60285
▁စီး	-8.61017
▁စစ်သား	-8.61215
၀	-8.61261
မြို့	-8.61429
▁စုံစမ်းစစ်ဆေး	-8.61565
▁လောက်	-8.61573
နှစ်	-8.61638
▁ကြေငြာခဲ့သည်	-8.61684
▁ဖြစ်ပွား	-8.61822
ဖြစ်	-8.61929
▁၂၅	-8.62041
▁စုစုပေါင်း	-8.62068
▁ဒါပေမယ့်	-8.62076
▁လေကြောင်းလိုင်း	-8.621
▁မတိုင်မီ	-8.62142
▁သာလျှင်	-8.62251
ဒါ	-8.62285
▁အကောင်းဆုံး	-8.62365
▁စာ	-8.62465
▁ဆုံးဖြတ်	-8.6263
▁ကျင်းပ	-8.62787
▁စီမံကိန်း	-8.62994
▁အထွေထွေ	-8.63092
▁သေဆုံးခဲ့	-8.63308
▁ဗြိတိသျှ	-8.64062
ကြ	-8.64413
▁ပြင်းထန်သော	-8.64534
▁သိ	-8.64534
▁ကစားသမား	-8.6496
▁အာ	-8.65014
▁အန္တရာယ်	-8.651
▁ဆီသို့	-8.65219
▁သဘောတူညီချက်	-8.65249
▁အစ	-8.6531
▁ရောက်ရှိ	-8.65457
အရ	-8.65697
▁ထောက်ခံ	-8.66188
ရှိသော	-8.66204
နိုင်သည်	-8.66228
▁ဒေးဗစ်	-8.66267
စာ	-8.66603
ဖြစ်သော	-8.66714
▁ဇီလန်	-8.67093
▁ကိုယ်တိုင်	-8.67109
▁အာဖရိက	-8.67157
▁စက်တင်ဘာ	-8.67306
အတူ	-8.67373
▁ဗဟို	-8.6746
ဦး	-8.67474
▁စစ်ပွဲ	-8.67593
▁အဆောက်အဦး	-8.67604
▁ချက်	-8.67892
▁၂၀၀၆	-8.68117
▁မဆို	-8.68184
တို	-8.68187
▁မီတာ	-8.68229
▁စင်တာ	-8.68448
▁ပေမယ့်	-8.68531
▁ပေ	-8.68653
▁ဒ	-8.68669
▁ဘဲ	-8.68702
▁ဈေးကွက်	-8.6896
▁တစ်စီး	-8.6966
၆	-8.69695
▁၁၆	-8.69831
▁နှင့်ပတ်သက်	-8.69861
▁အယ်လ်	-8.69953
▁ရာသီဥတု	-8.70433
▁လက်	-8.7046
▁ဘီဘီစီ	-8.70552
▁အေဂျင်စီ	-8.70614
▁အောင်	-8.70671
▁ပြုလုပ်ခဲ့	-8.71025
သာ	-8.71492
▁နယူးဇီလန်	-8.71538
တန်	-8.71556
▁၂၀၀၇	-8.71649
▁ဧရိယာ	-8.71747
▁မြောက်ပိုင်း	-8.7188
▁ရထား	-8.71901
▁တိုက်ရိုက်	-8.71977
စောင်	-8.72017
▁ငါ	-8.72072
▁သူမ၏	-8.72072
▁ရာသီ	-8.72192
▁လေ့လာမှု	-8.72246
▁မည့်	-8.72275
ဆို	-8.72582
၈	-8.7279
▁၂၀၀၅	-8.73005
▁အများဆုံး	-8.7304
▁ယှဉ်ပြိုင်	-8.73235
▁သတင်းအချက်အလက်	-8.73358
▁သက်သေ	-8.73435
▁ငြင်းဆို	-8.73496
▁ကျ	-8.73688
▁၁၃	-8.7386
▁အကြီးအကဲ	-8.74016
▁ဒါဟာ	-8.74046
▁ဖလား	-8.74051
▁သတင်းထောက်	-8.74054
▁၂၄	-8.74403
ပြောကြားခဲ့ပါသည်	-8.7446
▁ဘဏ်	-8.74641
၃	-8.74737
▁ပုံ	-8.7499
▁ချက်ချင်း	-8.75229
▁လို	-8.75313
ဖ်	-8.75432
▁အကြမ်းဖက်မှု	-8.75504
▁ဘ	-8.75506
▁ပါဝင်သော	-8.75722
▁တခြား	-8.758
▁ရရှိခဲ့သည်	-8.75931
▁အချက်	-8.75946
▁စခန်း	-8.75993
မယ်	-8.75996
▁သား	-8.7607
▁အမှု	-8.76173
▁အောက်တိုဘာ	-8.76222
▁ရုပ်မြင်သံကြား	-8.7636
ပေး	-8.76376
▁ဖြစ်ပွားခဲ့သည်	-8.76537
▁အုပ်ချုပ်ရေး	-8.76739
▁နိုင်ငံခြားရေး	-8.7679
▁အတွင်းရေးမှူး	-8.76937
▁ရုပ်ရှင်	-8.77009
▁အခြားသော	-8.77271
▁စက်ရုံ	-8.77364
▁ဘီ	-8.77387
▁ဒေါက်တာ	-8.774
▁ငြိမ်းချမ်းရေး	-8.77487
▁လူထု	-8.77808
▁ဂ	-8.7784
▁ဘယ်လို	-8.77853
လို့	-8.77925
▁ဗုံး	-8.77929
▁တိုးမြှင့်	-8.77959
ရီ	-8.78005
▁သုတေသန	-8.78045
▁တည်ရှိ	-8.78231
▁အစီရင်ခံ	-8.78297
လိုက်	-8.78349
▁ထံ	-8.78447
▁ကယ်ဆယ်ရေး	-8.78539
▁ခန့်မှန်းခြေ	-8.78596
▁ဖြစ်ပွားခဲ့	-8.7873
▁အခွန်	-8.78782
▁လေဆိပ်	-8.78782
▁မတ်	-8.78879
▁အမ်	-8.79045
မည့်	-8.7907
လိုက်သည်	-8.79419
▁မိုက်ကယ်	-8.79786
▁ပြုလုပ်ခဲ့သည်	-8.79939
လုံး	-8.80028
▁ညီလာခံ	-8.80068
▁ခရီးသည်	-8.80084
▁ဆိုသည်	-8.80167
ခန်း	-8.80175
▁ပဲ	-8.8024
▁ထင်	-8.80312
▁ဖမ်းဆီး	-8.80376
▁အထူးသဖြင	-8.80468
▁ဒဏ်ရာ	-8.80603
▁ထုတ်ပြန်ချက်	-8.80783
▁အမြင့်ဆုံး	-8.81043
▁၂၀၀၈	-8.81054
▁ထောင်	-8.81055
▁လုံးဝ	-8.8111
▁ချန်ပီယံ	-8.8126
▁ကိရိယာ	-8.81269
▁ထံမှ	-8.81297
▁ဘုရှ်	-8.81303
▁ပြပွဲ	-8.81322
▁မူလ	-8.81818
ရက်	-8.82114
▁အကြီးဆုံး	-8.82254
▁ဘီလီယံ	-8.82283
▁ပါဝင်သည်	-8.82365
▁စုံစမ်း	-8.82487
▁နေစဉ်	-8.82587
▁မတော်တဆမှု	-8.8267
▁လာမည့်	-8.82677
▁ဝေဖန်	-8.82707
▁အောင်မြင်	-8.83265
▁အောင်မြင်မှု	-8.83268
ပေးခဲ့သည်	-8.83282
▁စတင်ခဲ့	-8.8329
၉	-8.83461
နှင့်	-8.83479
▁ဝန်းကျင်	-8.83563
▁အကြံပေး	-8.83735
▁ဝင်ရောက်	-8.83839
ွန်	-8.83987
▁မက်	-8.84049
▁စိတ်	-8.8412
ဌ	-8.84346
▁၂၀၀၄	-8.84415
ပင်	-8.84463
▁စနေနေ့	-8.84809
▁မတ်လ	-8.84837
ရမည်	-8.84917
▁ပြည်သူ့	-8.84971
▁ဟူ	-8.85084
▁ပညာရေး	-8.85101
▁တွေ့ရှိ	-8.85142
ေး	-8.85215
▁လူဦးရေ	-8.86078
▁အနိုင်ရ	-8.861
▁မဟုတ်ပါ	-8.86359
ိုင်အောင်	-8.86588
▁အို	-8.86726
လီ	-8.86969
▁ကျွန်တော့်	-8.8699
▁...	-8.87111
▁အကြမ်းဖက်	-8.87258
▁အာဏာ	-8.87617
▁အချက်အလက်	-8.87748
အား	-8.87821
▁အနက်	-8.8819
▁နေထိုင်	-8.88303
▁သတ်မှတ်	-8.88454
▁သတိပေး	-8.88526
က်စ်	-8.88636
▁ဒီဇင်ဘာ	-8.8866
▁ငလျင်	-8.88668
▁ဖေဖော်ဝါရီ	-8.8869
▁အင်ဒိုနီးရှား	-8.8869
▁စပိန်	-8.88691
▁ဟိုတယ်	-8.88693
▁ဥက္က	-8.88729
စေရန်	-8.88811
▁အဖွဲ့ဝင်များ	-8.89107
▁ဖော်ပြချက်	-8.89132
ဘီ	-8.89146
▁ချုပ်	-8.89407
▁ထိခိုက်	-8.89426
▁ဘဏ္ဍာရေး	-8.89467
▁ဆယ်	-8.89564
▁ရောက်	-8.89723
▁ပြောကြားခဲ့	-8.8973
▁သီးခြား	-8.89906
▁တိုင်	-8.89925
▁အစားထိုး	-8.89941
▁ဗွီဒီယို	-8.89942
▁အနာဂတ်	-8.90024
▁ဒါရိုက်တာ	-8.9009
▁ဈေးနှုန်း	-8.90129
▁လျက်	-8.90451
▁ပြည်တွင်း	-8.90572
▁သူ့ကို	-8.90633
▁စံတော်ချိန်	-8.90694
▁၄င်းတို့	-8.90902
▁ပေါ်မှာ	-8.90937
▁ခြိမ်းခြောက်မှု	-8.91038
▁ပျက်စီး	-8.91127
▁အီတလီ	-8.91207
စေခဲ့သည်	-8.91334
မာ	-8.91451
▁အခမ်းအနား	-8.91573
▁ရည်ရွယ်ချက်	-8.91688
▁စာအုပ်	-8.91801
▁အတောအတွင်း	-8.91892
ဘက်	-8.92023
▁အပတ်	-8.92064
မဟုတ်	-8.92165
▁ချ	-8.92319
▁အမျိုးသမီးများ	-8.92498
▁ဒီမိုကရက်တစ်	-8.92501
▁သေနတ်	-8.92585
▁လိုင်း	-8.92679
▁``	-8.92704
▁ကယ်လီဖိုးနီးယား	-8.92714
▁တရားမဝင်	-8.92714
▁ညနေ	-8.92761
ခဲ့သည့်	-8.92805
ပုံ	-8.92879
▁သေချာ	-8.92927
▁ဆက်သွယ်ရေး	-8.92942
▁ဖြစ်နိုင်	-8.93
▁ဆက်သွယ်	-8.93077
▁၁၇	-8.93263
▁အချို့သော	-8.93269
▁ဒါပေမ	-8.93383
▁ထွက်ခွာ	-8.93832
▁သိပ္ပံ	-8.93932
▁ဧပြီ	-8.941
▁အတိုက်အခံ	-8.94103
▁စက်	-8.94129
့အပြင်	-8.94131
▁အင်္ဂါနေ့	-8.94175
▁ဂျက်	-8.942
▁လုပ်ငန်းစဉ်	-8.94329
သမား	-8.94354
▁ထုတ်ပြန်ခဲ့သည်	-8.9459
သွား	-8.94642
▁ဖြေရှင်း	-8.94666
▁ရွေးချယ်	-8.9472
▁ထုတ်ပြန်	-8.94764
ထဲမှာ	-8.94885
▁ယူအက်စ်	-8.95203
▁အင်အား	-8.9523
▁အနေနဲ့	-8.95657
▁ရာထူး	-8.9568
▁ထိန်းချုပ်	-8.95797
▁ကြေငြာ	-8.95901
▁စမ်းသပ်မှု	-8.95923
▁မည်	-8.96008
▁ခရီးစဉ်	-8.96028
့်	-8.96103
▁ဆေး	-8.96179
▁တူညီသော	-8.96216
▁မျှ	-8.96223
▁ဆာ	-8.96419
ဝ	-8.96717
▁အမြဲတမ်း	-8.96938
▁ကမ်းရိုးတန်း	-8.97017
▁ထည့်သွင်း	-8.97018
▁ဖွဲ့စည်း	-8.97105
▁ချိန်	-8.97217
ခုနှစ်	-8.9726
▁စာချုပ်	-8.97348
▁နှစ်ယောက်	-8.97403
ယောက်	-8.97485
▁ခန့်မှန်း	-8.97587
▁အကြောင်းအရာ	-8.97643
▁ဖယ်ရှား	-8.97643
▁၂၀၀	-8.97716
▁သတင်းဌာန	-8.97772
▁အလုပ်လုပ်	-8.98173
တိုက်	-8.98238
▁ရန်ပုံငွေ	-8.98333
▁အမြင်	-8.98393
▁အတူတကွ	-8.98447
▁လူ့	-8.98539
▁အာဏာပိုင်	-8.98873
▁အကြာ	-8.98893
▁တယ်	-8.98975
ပေ	-8.99035
နီ	-8.99048
လို	-8.99278
▁အပြီး	-8.9928
▁အထက်	-8.99385
▁နာမည်	-8.99557
▁လူတွေ	-8.99671
ချိန်	-8.99687
▁၁၀၀	-8.99755
ယူ	-8.99767
▁၂၀၁၀	-8.99875
▁မရှိပါ	-8.99894
▁သောကြာ	-8.9999
▁စတင်ခဲ့သည်	-9.00124
▁ရပ်တန့်	-9.00213
▁တည်ဆောက်	-9.0032
▁စောင့်ကြည့်	-9.00542
▁အများ	-9.0063
▁ဒီနေ့	-9.0071
လေ	-9.00712
လဲ	-9.00717
▁အသေးစိတ်	-9.00765
▁ကိုရီးယား	-9.00819
▁အမေရိက	-9.0091
ထားသည်	-9.0095
▁ဆိုင်	-9.01019
▁ခရစ်ယာန်	-9.01023
▁သင့်	-9.01042
▁ကြော်ငြာ	-9.01104
▁အခြေအနေများ	-9.01138
▁ရေး	-9.01466
▁ပင်	-9.01476
▁ရပ်	-9.01618
▁အိုင်	-9.01644
▁တစ်ဝက်	-9.0168
သွားခဲ့သည်	-9.01718
▁တိုးတက်	-9.01734
▁ကတော့	-9.0175
▁ဖော်ပြခဲ့	-9.01955
▁ရင်ဆိုင်	-9.02092
▁အမည်	-9.02311
▁ခရီး	-9.0238
▁တနင်္ဂနွေ	-9.02817
▁နည်း	-9.02886
▁ဂျော်ဂျီယာ	-9.02894
▁ကုန်ကျစရိတ်	-9.02978
▁တစ်လျှောက်	-9.02993
▁နိုင်ငံခြား	-9.03383
▁ဝန်ကြီးဌာန	-9.03494
▁ချိုးဖောက်	-9.03586
▁ပြည်သူ	-9.03599
မျှ	-9.03623
▁အခန်း	-9.03631
▁ဆန်	-9.03875
▁အာဏာပိုင်များ	-9.03927
▁ပီတာ	-9.0401
▁အမိန့်	-9.04168
▁ဇန်နဝါရီ	-9.04339
▁၂၂	-9.04374
▁နျူကလီးယား	-9.04403
▁ဆီးရီးယား	-9.04413
▁ရေဒီယို	-9.04439
▁မကြာသေးမီ	-9.04587
▁လျှပ်စစ်	-9.04654
▁လေ့လာ	-9.04675
▁ရည်ရွယ်	-9.04719
▁စည်းမျဉ်း	-9.04745
▁သေ	-9.04822
▁သတိပေးချက်	-9.05041
▁အကျိုးသက်ရောက်	-9.05088
▁တောင်းဆို	-9.05111
▁စဉ်းစား	-9.05118
▁ထိုနေရာ	-9.0518
▁ထုတ်လုပ်	-9.05615
▁ဦးတည်	-9.05773
▁လူငယ်	-9.05787
▁သမိုင်း	-9.05802
▁လီ	-9.05857
▁သဘောတူ	-9.05936
▁ဂါဇာ	-9.05962
▁၂၁	-9.06029
▁အဲ့ဒီ	-9.06039
▁ဒုံးကျည်	-9.06083
▁ဘာသာရေး	-9.0632
▁ပြုပြင်	-9.06509
▁၄၀	-9.06548
ီး	-9.06596
▁ပေါင်	-9.06701
▁မြေပြင်	-9.0676
▁၎င်း၏	-9.06805
▁၀	-9.06814
ိုင်း	-9.06887
တိုင်း	-9.07022
ပီ	-9.07065
▁အလုပ်သမားများ	-9.07172
ရင်း	-9.07273
▁မေးခွန်း	-9.07518
▁အမျိုးအစား	-9.0757
ဲ့သည်	-9.07586
▁သီတင်းပတ်	-9.07588
▁ရဟတ်ယာဉ်	-9.0759
ု	-9.07641
▁အပြုအမူ	-9.07669
▁အချက်အလက်များ	-9.07778
▁ဘေး	-9.07977
၇	-9.08112
လား	-9.08134
▁ကြေညာ	-9.08406
▁၂၇	-9.08584
▁စလုံး	-9.08855
▁ဂျ	-9.08952
ဒေသ	-9.09057
▁ရေတပ်	-9.09079
▁နယ်စပ်	-9.09165
▁ဟာရီကိန်း	-9.09165
▁ကွင်း	-9.09255
▁တင်	-9.09341
▁ဘယ်	-9.09597
▁ကွန်ပျူတာ	-9.09655
▁ထုတ်ဖော်	-9.09702
▁ထဲက	-9.09934
▁သက်ရောက်မှု	-9.10049
▁ဖြစ်သူ	-9.10112
▁လျှော့ချ	-9.1027
▁ခ	-9.10319
▁လျှို့ဝှက်	-9.10551
စ	-9.10591
ကျောင်း	-9.10674
▁တူရကီ	-9.10706
▁ယူကေ	-9.10805
▁လိုအပ်ချက်	-9.1083
▁အလားတူ	-9.10838
အ	-9.10886
ံ	-9.10901
▁အမြောက်အမ	-9.1096
▁ပြင်ဆင်	-9.11221
▁ပြောခဲ့ပါတယ်	-9.11409
▁သီချင်း	-9.11422
▁စကား	-9.11536
ည့်	-9.11583
နို	-9.11656
▁တိုးတက်မှု	-9.11772
▁သေဆုံးသူ	-9.11989
▁ဂျော့	-9.11991
▁ကြိုးစားမှု	-9.12116
▁နေရာများ	-9.12233
▁မကြာသေးမီက	-9.12295
▁ဂျာမနီ	-9.12467
▁အကယ်၍	-9.12476
▁ဖော်ပြထား	-9.12477
▁လက်ထောက်	-9.12513
▁ကြေညာချက်	-9.12541
▁အွန်လိုင်း	-9.12595
▁ခုနစ်	-9.12763
▁တောင်းဆိုချက်	-9.12989
▁မိန့်ခွန်း	-9.13165
▁တွေ့ရှိခဲ့သည်	-9.13211
▁ဝင်	-9.13353
ဖြင့်	-9.13361
▁ဖြစ်ပြီး	-9.13439
▁အများပြည်သူ	-9.13527
ြင်း	-9.13551
▁ကြိုးပမ်းမှု	-9.13655
ပေါင်းများစွာ	-9.13762
▁ဖော်ထုတ်	-9.13827
▁ဖြစ်လိမ့်မည်	-9.13849
▁အင်္ဂလိပ်	-9.1416
▁ဝါရှင်တန်	-9.14205
▁မန်နေဂျာ	-9.14208
▁ဘေးအန္တရာယ်	-9.14211
ပြီးနောက်	-9.14251
▁အရင်းအမြစ်	-9.14294
▁မြင်	-9.14342
▁ဗုဒ္ဓဟူးနေ	-9.14443
▁ဖြတ်	-9.14458
▁ပြိုင်ဘက်	-9.14472
တဆင့်	-9.14576
ခဲ့ပြီး	-9.14629
▁တချို့	-9.14699
▁ကုသမှု	-9.14704
▁ရှာဖွေတွေ့ရှိ	-9.14891
▁ဆေးဝါး	-9.15018
ပြိုင်ပွဲ	-9.15022
▁အစား	-9.15138
▁အခြေစိုက်	-9.15157
▁အနိုင်	-9.15347
▁ကောင်း	-9.15435
▁ဘဝ	-9.1546
ချ်	-9.15518
▁အာရပ်	-9.15546
▁ဖြစ်နေ	-9.158
▁အမျိုးမျိုး	-9.15934
▁စာရွက်စာတမ်း	-9.15934
▁ဥက္ကဋ္ဌ	-9.16061
ပြည်နယ်	-9.1612
▁ကွန်ယက်	-9.16145
▁ကမ်းခြေ	-9.16204
▁လှုပ်ရှား	-9.16234
▁ဖန်တီး	-9.16277
▁ဝ	-9.16369
▁အိုလံပစ်	-9.16383
▁မြေ	-9.16461
▁ထုတ်လုပ်မှု	-9.16512
▁ပြီးခဲ့သည့်	-9.16656
ရယ်	-9.16699
▁ထိန်းချုပ်မှု	-9.16708
▁လက်မှတ်	-9.16818
နှုန်း	-9.16915
▁ရယူ	-9.17036
▁ပိုပြီး	-9.1709
▁အကျိုးဆက်	-9.17141
▁စမ်းသပ်	-9.1728
ကြောင့်	-9.17492
▁ပထမဦးဆုံး	-9.17643
▁ထိန်းသိမ်းထား	-9.1767
▁သက်တမ်း	-9.17789
▁လေယာဉ်မှူး	-9.178
▁သဘောတူညီမှု	-9.17882
▁နိုင်ငံတော်	-9.17909
▁မီးလောင်မှု	-9.17977
▁ရဲများ	-9.18179
▁ထောက်ပံ့ပေး	-9.18482
▁ကုန်	-9.18556
▁ချမှတ်	-9.18756
▁စနေ	-9.19006
▁ဖြစ်ပေါ်	-9.19095
▁အစီရင်ခံစာများ	-9.19127
▁ပီ	-9.19134
▁ဖြစ်စဉ်	-9.19136
▁လှေ	-9.19152
▁တင်ပြခဲ့သည်	-9.19173
လျက်	-9.19204
ခွင့်	-9.1924
သား	-9.19253
▁လွတ်လပ်သော	-9.19591
လူမျိုး	-9.19612
▁ခံ	-9.19676
▁လုပ်ဆောင်မှု	-9.19692
▁ကလင်တန်	-9.19763
▁လက်နက်များ	-9.199
▁အငြင်းပွားမှု	-9.2001
▁လူနာ	-9.20055
▁သလို	-9.20389
▁မဲပေး	-9.20412
▁ဆုံးရှုံးမှု	-9.20626
▁ယူနိုက်တက်	-9.20884
▁၈၀	-9.20939
▁ဖော်ပြထားသည်	-9.20993
▁နံပါတ်	-9.21111
အုပ်ချုပ်ရေးမှူး	-9.2122
▁ဖွဲ့စည်းပုံ	-9.21315
▁လိုအပ်သည်	-9.21388
▁မည်သူ	-9.21409
▁တွေ့ဆုံ	-9.21486
▁အရင်	-9.21524
▁အာမခံ	-9.21629
▁အဆုံး	-9.21742
▁တပ်ဖွဲ့များ	-9.21753
ယ်စားလှယ်လောင်း	-9.21772
နိုင်သော	-9.21814
▁ခြိမ်းခြောက်	-9.21914
▁သမဂ္ဂ	-9.21963
▁တို	-9.22027
▁ဗီဒီယို	-9.2209
ရောဂါ	-9.22219
၌	-9.22315
ရသည်	-9.22339
▁ထုတ်လွှင့်	-9.22475
▁စီစဉ်	-9.22506
စင်	-9.22756
▁ကလေးများ	-9.22838
▁ကဏ္ဍ	-9.22862
▁မကြာမီ	-9.22995
▁နွေရာသီ	-9.23094
▁အပူချိန်	-9.23128
ချက်များ	-9.23185
▁စစ်ဆင်ရေး	-9.23188
▁၂၃	-9.23299
ခဲ့ပါ	-9.23349
▁ရွှေ့ပြောင်း	-9.23498
▁ဂီတ	-9.23521
▁အန်	-9.23556
▁အဆောက်အအုံ	-9.23557
▁သိပ္ပံပညာရှင်	-9.23566
▁တွင်း	-9.23848
▁ပါဝင်ခဲ့သည်	-9.23878
▁လဲ	-9.23954
▁မေ	-9.23985
▁တိုက်ပွဲ	-9.24018
▁တကယ်	-9.24055
▁တစ်လုံး	-9.24077
မတ်	-9.24178
▁တားဆီး	-9.24185
▁ဂျေ	-9.24189
▁ရောင်းချ	-9.24379
▁ရရှိခဲ့	-9.24433
မ်း	-9.24752
▁ရှေ့	-9.24763
▁ပညာရှင်	-9.24784
င့်	-9.24878
▁သုံးစွဲ	-9.24906
▁ပြစ်မှု	-9.24932
▁အသေခံ	-9.24935
▁တန်ဖိုး	-9.2508
▁အစီအစဥ်	-9.25093
▁တနင်္ဂနွေနေ့	-9.25135
▁တင်ပြ	-9.25171
▁အနောက်ဘက်	-9.25173
ဆင်	-9.25268
▁အသီးသီး	-9.25314
▁ဆွေးနွေးပွဲ	-9.2545
သည့်	-9.25642
ရုံး	-9.25712
▁ဒီမိုကရေစီ	-9.25786
▁မင်း	-9.25797
အတွင်း	-9.25855
▁ဆဲ	-9.25902
▁ထိုင်း	-9.26105
▁လျော့ချ	-9.26246
▁အသံ	-9.26332
▁မေး	-9.26527
▁ပိတ်	-9.26583
▁ဇူလိုင်	-9.26839
▁သိသိသာသာ	-9.26952
▁လူပေါင်း	-9.26997
▁ကျဆင်း	-9.27062
▁လိုက်	-9.27072
▁သဘာဝ	-9.27117
▁ဘုရားကျောင်း	-9.27223
▁ဆောင်းပါး	-9.2729
▁ဆန္ဒ	-9.27386
▁ပြောကြားချက်	-9.27489
▁အမှုဆောင်	-9.27615
▁ပိုင်ရှင်	-9.2808
▁ကြိုတင်	-9.28148
▁ဆက်	-9.2818
▁လူသိများ	-9.28197
▁ပုဂ္ဂိုလ်	-9.28276
▁မြစ်	-9.28337
▁ပြု	-9.28483
▁သေး	-9.28654
▁ရုတ်တရက်	-9.28823
▁သူငယ်ချင်း	-9.28867
▁ဖက်ဒရယ်	-9.28886
▁ဆရာဝန်	-9.29069
၊	-9.29157
ဂိုး	-9.2937
▁ဖုန်း	-9.29374
▁တူ	-9.29566
▁စိန့်	-9.29637
▁ပျက်စီးမှု	-9.29637
ယာ	-9.29659
▁ပစ်	-9.29694
▁ပျံသန်း	-9.29796
အတွက်	-9.29826
▁ရှစ်	-9.29858
▁ပစ်ခတ်မှု	-9.30069
▁ကြိုးပမ်း	-9.30165
▁ကိုးကား	-9.30275
▁ပစ္စည်းများ	-9.30299
▁ပေါက်ကွဲ	-9.30358
▁ကော်မရှင်	-9.30399
ပြောကြားခဲ့သည်	-9.30527
▁နားလည်	-9.30674
▁အာရှ	-9.30857
▁ဘရာဇီး	-9.30869
▁ယူတီစီ	-9.30918
စနစ်	-9.31005
▁အရပ်သား	-9.31123
အောက်တွင်	-9.31183
▁ပြင်းထန်	-9.31191
▁အကြောင်းပြချက်	-9.31426
▁ရွာ	-9.31527
▁ထင်ရှား	-9.31584
▁ဂျီ	-9.31598
▁တွေ့	-9.31675
▁လေယာဥ်	-9.3191
လန်	-9.31914
▁ထုတ်	-9.32005
▁ဝက်	-9.32128
စီး	-9.32142
▁အခု	-9.32205
▁၂၉	-9.32406
များစွာ	-9.32431
သ	-9.3253
ခဲ့တဲ့	-9.32535
▁ဆိုသော	-9.32588
မန်း	-9.3272
▁အနေအထား	-9.3279
▁၂၀၀၃	-9.32929
▁မွတ်စလင်	-9.32948
▁ဇနီး	-9.32956
▁အများကြီး	-9.32963
▁၂၀၀၀	-9.32995
▁ယာယီ	-9.32996
▁ဒေသတွင်း	-9.33
▁ကိုလည်း	-9.33004
▁လူသတ်မှု	-9.33022
▁ဂရင်း	-9.3307
▁ဖြစ်လာသည်	-9.3308
▁နေအိမ်	-9.33212
▁ကြေညာခဲ့	-9.33232
ကီ	-9.3344
▁၄၅	-9.33515
▁မြောက်ဘက်	-9.33578
နိုင်ပါသည်	-9.33724
▁ရေခဲ	-9.34072
▁ရမှတ်	-9.34135
▁တိုက်	-9.34361
ချီ	-9.34363
▁ဘာသာ	-9.34461
▁မီ	-9.34509
▁ရှိတယ်	-9.34516
▁အတူ	-9.34542
အေ	-9.34576
မန်	-9.34592
▁အကြံပြု	-9.34841
▁လိုက်နာ	-9.34858
▁ကုမ္ပဏီများ	-9.34922
▁အာဖဂန်နစ္စတန်	-9.3499
▁ဩစတေးလျ	-9.34996
▁မူပိုင်ခွင့်	-9.3501
▁ဆက်ဆံရေး	-9.35164
▁မိုဟာမက်	-9.35202
▁စက္ကန့်	-9.35257
▁တွေ့ရှိခဲ့	-9.35412
▁အခက်အခဲ	-9.35475
▁ပေမဲ့	-9.35487
ရှ်	-9.35517
ပြီ	-9.35569
▁ပြင်ပ	-9.35596
▁၆၀	-9.35705
▁ကန်	-9.35716
ပါလိမ့်မည်	-9.35754
▁လက်ခံရရှိ	-9.35999
▁နေထိုင်သူ	-9.35999
တ	-9.36421
ဘီစီ	-9.36474
▁အနိုင်ရခဲ့သည်	-9.36565
ဟု	-9.36644
▁အတည်ပြုခဲ့သည်	-9.36726
▁ထိခိုက်မှု	-9.36749
ဖက်	-9.36851
ီးယား	-9.36936
▁ဆက်စပ်	-9.37115
▁ဆူနာမီ	-9.37117
▁ဩဂုတ်	-9.3712
▁စွပ်စွဲ	-9.37194
▁အပြင်ဘက်	-9.372
▁နယူးယောက်	-9.37269
▁မျိုး	-9.37291
▁ဒီဂရီ	-9.37333
▁ထောက်ခံသူ	-9.37337
▁လူသား	-9.37337
▁နှင့်ပတ်သတ်	-9.37563
▁လုပ်ငန်းများ	-9.37568
▁တိရစ္ဆာန်	-9.37587
▁လွတ်မြောက်	-9.37626
ကောင်းသော	-9.37748
▁စွဲချက်	-9.3777
▁သံသယရှိသူ	-9.37774
▁တရားစွဲဆိုမှု	-9.37862
၃၀	-9.37923
▁ပြောကြားသည်	-9.38035
▁စွမ်းရည်	-9.38078
▁ကြည့်	-9.38133
▁ယူဆ	-9.3827
▁အီး	-9.38282
▁မရှိခဲ့	-9.38367
▁လက္ခဏာ	-9.38546
▁ဉီး	-9.38554
▁အသုံးပြုခြင်း	-9.38605
ဇ်	-9.38681
▁နှိုင်းယှဉ်	-9.38682
▁ခေတ်	-9.38797
▁စစ်ရေး	-9.38896
▁ကိုယ်စားပြု	-9.38942
▁မတော်တဆ	-9.38962
▁ပျမ်းမျှ	-9.39011
▁အိတ်	-9.39171
▁အသိအမှတ်ပြု	-9.39186
▁ရိုက်	-9.39247
နိုင်တယ်	-9.3925
▁ကိုလံဘီယာ	-9.3929
▁ရက်သတ္တပတ်	-9.39295
ပ	-9.39355
▁အိမ်ဖြူတော်	-9.39398
▁ကောင်းစွာ	-9.39416
▁ပစ်ခတ်	-9.39544
▁ထွက်	-9.39699
ကောင်း	-9.39765
▁အပို	-9.39789
▁ခရီးသွား	-9.39903
▁မိုး	-9.39956
စရာ	-9.39997
▁ထပ်	-9.40022
လိမ့်မည်	-9.4022
▁ခက်ခဲ	-9.40301
ဆိုင်သော	-9.40431
▁ပေးခဲ့	-9.40553
ကား	-9.40859
▁ရလဒ်များ	-9.40951
▁အလောင်း	-9.4101
စုံစမ်းစစ်ဆေးမှု	-9.41063
ရှင်	-9.41077
▁နှစ်ပေါင်း	-9.411
ယား	-9.41136
▁အရေးကြီး	-9.41209
▁ယူအက်	-9.41294
ပတ်	-9.4132
ခံခဲ့ရ	-9.41478
▁အဲဒါ	-9.41488
▁ဆယ်ကျော်သက်	-9.41512
▁နာဆာ	-9.41523
▁ဂျာမန်	-9.41524
▁အိုင်ယာလန်	-9.41543
▁မကြာခဏ	-9.41564
▁ထောက်ပံ့မှု	-9.41567
▁ကြီး	-9.41607
▁တစ်စင်း	-9.41643
▁တစ်ကြိမ်	-9.41727
▁တာလီဘန်	-9.41739
▁လိမ်လည်	-9.41867
▁စာမျက်နှာ	-9.41904
▁တုန့်ပြန်	-9.42022
▁ကြီးမား	-9.4205
▁တစ်ချို့	-9.42074
▁မှတ်တမ်းတင်	-9.42086
တော်တော်များများ	-9.42114
▁၂၆	-9.42178
▁ပိုင်ဆိုင်	-9.4227
▁တော	-9.42324
▁ဖျက်သိမ်း	-9.42494
▁ဆိုရင်	-9.42649
▁ဖြစ်နိုင်သည်	-9.42722
ဝက်	-9.42798
ဘာ	-9.42945
▁အသုံးပြုမှု	-9.43037
▁တန်	-9.43091
▁သတ္တုတွင်း	-9.43264
▁ပေးခဲ့သည်	-9.43391
▁ဗုဒ္ဓဟူး	-9.43414
▁ဘုရင်	-9.43455
တစ်ခု	-9.43487
စက်	-9.43514
▁တွန်းအားပေး	-9.43543
▁ပို့	-9.43679
▁အနုပညာ	-9.43717
▁ရိုမေးနီးယား	-9.43787
▁ခင်ဗျား	-9.43788
▁ကျွန်မ	-9.43818
▁အရည်အချင်း	-9.43832
▁သမုဒ္ဒရာ	-9.43872
▁ဇန်နဝါရီလ	-9.4388
▁ဖြစ်ကြသည်	-9.43881
▁အကြီးမားဆုံး	-9.43894
▁နည်းပြ	-9.43908
▁ထုတ်ကုန်	-9.43921
ပုဂ္ဂိုလ်	-9.43928
သော်လည်း	-9.43961
▁စုဆောင်း	-9.44409
▁အထောက်အပံ့	-9.44515
▁ခင်	-9.44615
▁ဒီဇိုင်း	-9.44617
ိန်း	-9.44637
▁ညှိနှိုင်း	-9.44693
▁ရွှေ	-9.44848
ကာလ	-9.45043
တစ်ဆင့်	-9.45375
▁ဟုတ်	-9.45567
▁ထင်မြင်ချက်	-9.45621
▁တာဝန်ရှိသူ	-9.45689
▁ကနေ	-9.45743
▁ဖော်ပြသည်	-9.45756
ိ	-9.45804
▁လူမှု	-9.46013
▁ပြသခဲ့	-9.46089
▁မိန်းကလေး	-9.46163
▁အစားအစာ	-9.46168
▁အဖွဲ့အစည်းများ	-9.46176
▁ထိုကဲ့သို့	-9.46177
▁ထိပ်တန်း	-9.46226
▁ဤအရာ	-9.4625
▁အဆိုပြုချက်	-9.4627
▁အရေးပါ	-9.46405
▁အနှံ့	-9.46595
▁အထောက်အထား	-9.46657
▁အရမ်း	-9.46673
ထားသည့်	-9.4685
▁တရားစွဲ	-9.46861
▁တိုက်တွန်း	-9.46891
▁သံသယ	-9.46996
ရသော	-9.47068
▁ဘေးကင်း	-9.47073
နဲ့	-9.4722
လာခဲ့သည်	-9.47307
▁တစ်ခုလုံး	-9.47338
▁ကန့်ကွက်	-9.47392
▁အထက်လွှတ်တော်	-9.47553
▁ဂျိမ်း	-9.47556
▁တောင်းဆိုခဲ့သည်	-9.47728
▁မီးရထား	-9.47749
ဆီ	-9.47986
▁သေးငယ်	-9.48044
▁အမတ်	-9.48088
▁ဆက်တိုက်	-9.48089
▁ဓာတ်	-9.48124
ခဲ့ကြောင်း	-9.48246
သင့်သည်	-9.48257
▁အရာများ	-9.48403
▁သြဂုတ်	-9.48493
▁၂၀ဝ၈	-9.48501
▁လက်မှတ်ရေးထိုး	-9.48522
▁ဇွန်လ	-9.48525
▁ဘတ်စ်ကား	-9.48575
▁နယ်ပယ်	-9.4858
▁ပါမောက္ခ	-9.48607
ျား	-9.48615
▁ယုံကြည်မှု	-9.48656
▁မင်းသား	-9.48692
▁တစ်ဖွဲ့	-9.48727
▁ထ	-9.48793
▁၂၀၁၂	-9.48863
▁ကိစ္စရပ်	-9.48876
သားများ	-9.48902
▁ဖြစ်ပေါ်လာ	-9.48952
▁အမြင့်	-9.49008
▁ကင်ဆာ	-9.49107
▁ခွေး	-9.49235
▁အသုံးပြုသူများ	-9.49479
ပေးခြင်း	-9.49484
▁အကြီးအကျယ်	-9.49545
▁မျက်မြင်သက်သေ	-9.49568
▁အီ	-9.4957
▁အမှုထမ်း	-9.49603
▁ဖခင်	-9.49658
▁သယ်ဆောင်	-9.49878
▁ကျန်	-9.4994
ခံ	-9.49991
▁ကလပ်	-9.50023
▁တခု	-9.50151
ဟန်	-9.50166
▁အက်စ်	-9.50195
▁အမ	-9.50339
ခဲ့ကြ	-9.50349
▁ထားရှိ	-9.50391
▁ယူရို	-9.50479
စလုံး	-9.50504
▁ဝယ်ယူ	-9.5053
▁၃၅	-9.50555
▁သူတို့ကို	-9.50577
ြား	-9.50635
အတိုင်း	-9.50699
▁တွေ့ဆုံမေးမြန်း	-9.50844
▁အမှား	-9.50873
▁မိုက်ခရိုဆော့	-9.50924
▁ချီကာဂို	-9.50931
▁ဆစ်ဒနီ	-9.50931
▁မိခင်	-9.50935
▁ထိုင်ဝမ်	-9.50957
▁ငယ်	-9.51001
▁မြို့တော်ဝန်	-9.51004
▁ဝင်ငွေ	-9.51148
▁ဒါမှ	-9.51155
▁နောက်ဆက်တွဲ	-9.51176
▁ထွက်ပေါ်လာ	-9.51235
ော့	-9.51281
▁ခံစားရ	-9.51353
▁ဖင်လန်	-9.51516
▁တောင်ဘက်	-9.51518
▁အခွင့်အလမ်း	-9.51562
တစ်	-9.51648
▁တက်	-9.51868
ခွဲ	-9.5189
ဝ၀ဝ	-9.52005
▁ဘ၀	-9.52009
▁ခရစ်	-9.52022
▁ဆုံးရှုံး	-9.52103
▁သတင်းများ	-9.52119
▁နယ်နိမိတ်	-9.5217
▁သွေး	-9.52256
▁၁၉၉	-9.52374
ဝါ	-9.52375
▁အစီရင်ခံခဲ့သည်	-9.52383
နေကြသည်	-9.52444
လိုင်း	-9.52541
▁လုပ်ပိုင်ခွင့်	-9.52853
▁ရင်	-9.52946
တော်	-9.53102
ကိုယ်တိုင်	-9.53111
ထက်လွှတ်တော်အမတ်	-9.53188
▁တရား	-9.5324
▁တော်ဝင်	-9.53412
တန်း	-9.53418
▁ဆိပ်ကမ်း	-9.53431
▁အင်တာဗျူး	-9.53431
▁အကျဉ်းထောင်	-9.53431
▁တွဲဖက်	-9.53433
▁နှစ်ခုစလုံး	-9.53449
▁.	-9.53542
▁သြစတေးလျ	-9.53679
▁လောင်စာ	-9.53742
▁၃၁	-9.53888
တင်	-9.53914
▁မေလ	-9.5396
သင့်	-9.54016
နိုင်လိမ့်မည်	-9.54039
▁တိုနီ	-9.54118
▁ကျင်းပခဲ့	-9.54247
မဆို	-9.54249
▁ဂုဏ်ပြု	-9.54332
တိုင်	-9.54419
▁ကျော်ကြား	-9.54566
▁ရည်မှန်းချက်	-9.54607
မြင့်မားသော	-9.54849
▁အသစ်များ	-9.54865
▁အကွာ	-9.54871
ဆက်	-9.54945
▁သရုပ်ဆောင်	-9.55103
ချ	-9.55131
▁ဖြစ်စေသည်	-9.55262
▁မှတ်ချက်	-9.55478
ကန်	-9.55515
▁မဟာမိတ်	-9.55524
▁ရောဘတ်	-9.5554
▁ခုခံ	-9.55724
▁အီဂျစ်	-9.55806
▁ဂြိုလ်	-9.55871
▁ပန်းခြံ	-9.55995
▁ဖီဂျီ	-9.56008
▁ပိုလန်	-9.56045
▁ဖောက်သည်	-9.56071
▁အင်္ဂါ	-9.56081
ညွှန်ကြားရေးမှူး	-9.56084
▁ရိုင်ယန်	-9.56094
▁စွာ	-9.56121
▁တုပ်ကွေး	-9.56148
▁ကုန်သွယ်မှု	-9.56175
▁မီးသတ်သမား	-9.56182
▁၂၀၀၉	-9.56193
▁ကလည်း	-9.56206
▁ဟူစိန်	-9.56208
▁ဒုံးပျံ	-9.56253
▁ဘရောင်း	-9.56323
▁ပြည်ထဲရေး	-9.56359
▁ကင်မရာ	-9.56377
▁သုံးစွဲသူ	-9.56416
▁စမစ်	-9.56589
▁ဗ	-9.56749
▁အရည်အသွေး	-9.5688
▁ကောင်	-9.57003
▁စိတ်ဝင်စားမှု	-9.57102
▁အတွေ့အကြုံ	-9.57138
▁လက်နက်ကိုင်	-9.57144
▁တည်း	-9.57165
ခံရ	-9.57234
▁အဝေး	-9.57257
စေသည်	-9.57327
မျိုး	-9.57396
▁၂၈	-9.57413
လင်း	-9.5747
▁ဂြိုလ်တု	-9.57532
▁မြင့်တက်	-9.57545
▁အခါ	-9.57553
ပြင်	-9.57628
▁အစ္စလာမ်	-9.57633
ဒန်	-9.57868
မရှိ	-9.57872
▁ဆက်လက်လုပ်ဆောင်	-9.58026
နိုင်ခဲ့သည်	-9.58196
▁ပူးတွဲ	-9.58232
▁မေးမြန်း	-9.58259
▁ပြုလုပ်ခြင်း	-9.5834
ငွေ	-9.58379
▁ငြင်းဆိုခဲ့	-9.58414
▁စစ်ဆေးမှု	-9.58519
▁မရ	-9.5859
▁ပါဝင်ခဲ့	-9.58604
▁ပုဂ္ဂလိက	-9.58624
▁စတုတ္ထ	-9.58626
▁ဝီကီပီးဒီးယား	-9.58629
▁အပြည့်အဝ	-9.58634
▁လစ်ဘရယ်	-9.58635
▁တပ်မတော်	-9.58675
▁အမေရိကန်ဒေါ်လာ	-9.587
▁အလံ	-9.58704
▁ပြင်းထန်စွာ	-9.58741
▁သာမန်	-9.58815
▁ပုံနှိပ်	-9.58824
▁ဂိမ်း	-9.58831
▁ရှာ	-9.58863
▁ဒေသများ	-9.58875
▁အက်ဖ်	-9.58881
▁ပွဲတော်	-9.58949
▁အပျက်အစီး	-9.58955
▁စံချိန်	-9.59004
▁ဇွန်	-9.59034
▁ပေါလ်	-9.59046
▁စိုက်ပျိုးရေး	-9.5907
▁ပဋိပက္ခ	-9.59143
▁ပြဿနာများ	-9.59154
▁ထုတ်ဝေ	-9.59236
▁လက်မ	-9.59491
နက်	-9.59501
▁လစာ	-9.59536
▁အခိုင်အမာဆို	-9.59545
▁အာဖဂန်	-9.59601
▁ဖြစ်ပွားမှု	-9.59626
▁စာတမ်း	-9.59645
▁အနိုင်ရရှိ	-9.59682
▁တက်ရောက်	-9.59735
ဒို	-9.59869
တိုက်ခိုက်မှု	-9.59951
▁ပိုင်ဆိုင်မှု	-9.59952
▁တုံ့ပြန်	-9.60062
▁ကဒ်	-9.60104
ိုက်	-9.6013
▁ရာဇဝတ်မှု	-9.60471
▁ဖြစ်ပါ	-9.60514
▁ပြစ်ဒဏ်	-9.60596
▁၁၀ဝ	-9.60658
▁ဆောင်ရွက်မှု	-9.60682
▁ချိုးဖောက်မှု	-9.60729
▁အကျိုး	-9.60786
▁စကားပြော	-9.60819
▁အနီးအနား	-9.6093
▁တီ	-9.60964
▁တစ်နေ့	-9.60966
▁ပျံ့နှံ့	-9.60982
▁မီးသတ်	-9.61051
▁အမြဲ	-9.61097
▁တစ်ခုတည်း	-9.6112
▁ကျူးကျော်	-9.61193
ရို	-9.61301
▁အလွန်အမင်း	-9.61329
▁ဗိုလ်ချုပ်	-9.61453
▁တောင်းဆိုမှု	-9.61485
▁တိုးချဲ့	-9.61487
▁၁၉၈	-9.61508
▁လူ့အခွင့်အရေး	-9.61586
▁အစောင့်	-9.61606
လန်း	-9.61635
▁ဆောက်လုပ်ရေး	-9.61641
▁ဘူး	-9.61711
▁များပြားသော	-9.61724
▁ပေးပို့	-9.61835
▁ယခင်က	-9.61883
လုပ်ဖော်ကိုင်ဖက်	-9.61884
▁လုပ်ဆောင်ခဲ့	-9.61914
▁ခွင့်ပြုချက်	-9.61958
▁အရေးကြီးသော	-9.61978
ဆဲ	-9.62006
▁ဘီပီ	-9.62135
▁သမီး	-9.62146
ဆိုသော်	-9.62291
ရှိတဲ့	-9.62312
▁ဖွင့်	-9.62348
နေခြင်း	-9.62454
▁ရေးသား	-9.62565
▁မြင့်မား	-9.62593
▁မျက်နှာ	-9.62617
▁ကောင်းမွန်	-9.62671
▁အပူ	-9.62672
တည်း	-9.62742
▁ကူးစက်	-9.62833
နေသည့်	-9.6316
ကြမ်း	-9.63168
ဆု	-9.63249
▁ဖျော်ဖြေ	-9.63259
▁ပြန်လာ	-9.6326
ဲလ်	-9.63267
▁သဘောထား	-9.63316
▁စည်းကမ်း	-9.63344
▁ဖွံ့ဖြိုး	-9.63372
▁ရှာဖွေရေး	-9.63456
▁ထိန်းသိမ်းရေး	-9.63459
ခြင်းများ	-9.63651
▁ဝီကီသတင်း	-9.63748
ည	-9.63759
▁စိုးရိမ်	-9.63767
ရစ်	-9.63928
ျက်	-9.63947
▁ဘယ်တော့မှ	-9.64111
▁ဝက်ဘ်ဆိုက်	-9.64171
▁ထိပ်ဆုံး	-9.64177
▁ပြည်သူလူထု	-9.64185
▁ဆိုက်	-9.64213
▁သုံးဦး	-9.6425
▁စာနယ်ဇင်းသမား	-9.64377
လောက်	-9.64394
▁ထုတ်ပြန်ခဲ့	-9.64416
ဝမ်း	-9.6453
▁နေ့စဉ်	-9.64537
▁ထုတ်လုပ်သူ	-9.6454
▁တံတား	-9.64575
▁အလယ်ပိုင်း	-9.64584
အရွယ်	-9.64646
▁ရိုက်ချက်	-9.6466
▁မြှင့်တင်	-9.64918
▁သူများ	-9.64946
▁ကိုး	-9.64967
▁ကောင်းမွန်သော	-9.64974
▁စွပ်စွဲချက်များ	-9.65096
▁တံဆိပ်	-9.65102
▁လွှတ်တင်	-9.65295
ခ	-9.65334
▁မျှော်လင့်ထား	-9.65429
သုံး	-9.65477
လာသော	-9.6551
▁ဘယ်သူ	-9.65682
န	-9.65836
▁လုံခြုံမှု	-9.6587
ပါတီ	-9.65902
▁ကန့်သတ်ချက်	-9.66001
▁ဂရိ	-9.66019
▁ဘတ်	-9.66043
ခဲ့ခြင်း	-9.66087
▁အသုံးပြုခဲ့	-9.66162
▁အိမ်များ	-9.66194
▁အရပ်	-9.66235
▁တင်သွင်း	-9.66236
▁ဖျက်ဆီး	-9.66255
▁ပတ်သတ်	-9.66357
ိတ်	-9.66413
▁ဖြစ်တဲ့	-9.66495
ခု	-9.66645
▁တီးဝိုင်း	-9.66964
▁ကန့်သတ်	-9.66969
▁ယခုအခါ	-9.66975
စခန်း	-9.67026
▁သတင်းစာဆရာ	-9.67051
▁၂၀၁၁	-9.67056
▁အခမဲ့	-9.6706
▁ရှင်းပြ	-9.6706
▁လှုံ့ဆော်	-9.67171
▁ဗိုင်းရပ်စ်	-9.67245
▁ဝယ်	-9.67295
▁ယ	-9.67352
ထားခဲ့သည်	-9.67416
▁လုံလောက်သော	-9.6745
▁သေနတ်သမား	-9.67483
▁အငြင်းပွားဖွယ်	-9.67485
▁သီးသန့်	-9.67487
▁ချင်	-9.67589
▁အသတ်ခံခဲ့ရ	-9.67696
▁၁၉၆	-9.67698
▁ပြိုင်	-9.67772
▁အလယ်	-9.67808
▁ရော့	-9.67818
▁ရှင်	-9.67959
▁ရှိသည့်	-9.67998
▁လမ်းမ	-9.68182
သစ်	-9.68223
းယား	-9.68284
▁သေဆုံးခြင်း	-9.68437
▁စဥ်	-9.68454
▁အစွန်းရောက်	-9.68549
▁ဖြစ်နိုင်သော	-9.68637
▁ရပ်ဆိုင်း	-9.68771
ထန်	-9.68875
▁အဲ	-9.68921
တစ်စိတ်တစ်ပိုင်း	-9.69013
မရှိသော	-9.69082
▁ကျွမ်းကျင်သူ	-9.69195
စာရင်း	-9.6922
▁မူ	-9.69298
▁၇၀	-9.69388
▁စည်းရုံး	-9.69738
▁ဆယ်စုနှစ်	-9.69748
▁ရှုံးနိမ့်	-9.69757
▁ကိန်းဂဏန်း	-9.69905
▁ဆူဒန်	-9.69911
▁ဘယ်လောက်	-9.69913
▁လျင်မြန်စွာ	-9.69919
▁ပိတ်ဆို့	-9.69994
ရေးရာ	-9.70008
▁အကြောင်းရင်း	-9.70058
ငယ်	-9.70119
▁မျှော်လင့်ချက်	-9.70121
▁ပျောက်ဆုံးနေ	-9.70166
▁အကြောင်းအရင်း	-9.70202
▁တက်ကြွ	-9.70207
▁ကွန်ရက်	-9.70209
▁ထိခိုက်ဒဏ်ရာရ	-9.70268
▁ဒီလို	-9.70272
▁ကော်ပိုရေးရှင်း	-9.70294
▁ဗလီ	-9.70365
▁နှလုံး	-9.70453
ကျ	-9.70524
▁ဖြစ်ရပ်များ	-9.7054
စုံ	-9.70543
▁ဘေးကင်းလုံခြုံ	-9.70604
▁ဆင်းသက်	-9.70623
▁အက်ပဲ	-9.70641
မျှသာ	-9.70644
▁အကျဉ်းသား	-9.70668
▁အင်	-9.70673
▁တစ်ပတ်	-9.70692
▁ဇာတ်လမ်း	-9.70766
▁အပြစ်	-9.70811
။	-9.70812
▁၃၃	-9.70862
လျက်ရှိ	-9.70978
▁တားမြစ်	-9.71037
မိ	-9.7114
▁ထောက်ခံမှု	-9.71211
မှူး	-9.71227
▁ရောက်ရှိလာ	-9.71316
▁ခန္ဓာကိုယ်	-9.71322
ပြီးပြီ	-9.71599
▁အကြွေး	-9.71617
▁ရွေးချယ်မှု	-9.71627
ဆ	-9.71821
▁စောင်	-9.71899
▁ပြောဆိုခဲ့	-9.71947
တပ်	-9.72068
▁စွပ်စွဲချက်	-9.72093
▁အပြင်းအထန်	-9.72129
▁ပြည်သူများ	-9.72241
ခင်	-9.72269
▁ပစ်မှတ်	-9.72275
ိုင်	-9.72276
▁ရင်း	-9.72343
ရမ်	-9.72396
▁တာဝန်ထမ်းဆောင်	-9.72489
▁သမား	-9.72548
▁အလားအလာ	-9.72611
▁ဝိုင်	-9.72641
▁ကျင်းပခဲ့သည်	-9.72858
▁မိုက်	-9.7287
▁တည်နေရာ	-9.72945
▁ဘတ်ဂျက်	-9.72958
▁ဆော့ဖ်ဝဲ	-9.72978
▁ထံသို့	-9.72991
▁ပြောခွင့်ရ	-9.72995
▁ပြင်းအား	-9.73004
▁၂၀ဝ၅	-9.73016
အမ်	-9.73056
▁နှစ်ပတ်လည်	-9.73088
▁မြို့ပြ	-9.73097
ပြတိုက်	-9.73238
▁ကျွမ်းကျင်	-9.73335
▁မစ္စ	-9.73385
မီတာ	-9.7346
▁ကျော်လွန်	-9.73547
နယ်	-9.73574
▁အုပ်ချုပ်မှု	-9.73591
▁တုံ့ပြန်မှု	-9.73592
▁သက်ဆိုင်	-9.7373
▁မှန်ကန်	-9.73753
▁လက်ခံရရှိခဲ့	-9.7377
ဗာ	-9.73781
▁အိမ်ရှင်	-9.73789
▁တီဗွီ	-9.73849
▁လက်တွေ့	-9.74081
▁ရွေးကောက်	-9.74097
မယ့်	-9.74138
နိုင်ငံသား	-9.74266
▁အထက်တန်း	-9.74274
ပေါ်	-9.74414
▁လုပ်သား	-9.74459
▁တိုက်ခတ်	-9.74503
▁ရှောင်ရှား	-9.74545
▁ရောက်ရှိခဲ့သည်	-9.74574
▁အခင်းဖြစ်ပွားရာ	-9.74647
ဖွယ်	-9.74655
▁အီးယူ	-9.74679
ဇာ	-9.74684
▁အကြမ်းဖက်သမား	-9.74878
တွန်	-9.74902
အချိန်	-9.74925
ဂျီ	-9.74985
ရက်နေ့	-9.75056
▁အင်ဂျင်	-9.75392
▁အနေ	-9.75405
သွားသည်	-9.75444
▁စတော့	-9.75524
ချင်	-9.75575
▁တည်ထောင်	-9.75652
စု	-9.75782
▁တာဝန်ရှိ	-9.75812
▁သင်တန်း	-9.75934
▁ဇင်ဘာဘွေ	-9.7606
▁ပုံရိပ်	-9.76061
▁ဖိလစ်ပိုင်	-9.76063
▁အဘယ်ကြောင့်	-9.76068
▁ပင်လယ်အော်	-9.76069
▁မီးတောင်	-9.76076
▁ဓာတ်ပုံ	-9.76076
▁သစ်ပင်	-9.76083
တာဝန်ရှိသူများ	-9.76091
▁ယေဘုယျ	-9.76126
▁၂၀ဝ၆	-9.76136
▁စျေးနှုန်း	-9.76197
▁အကျပ်အတည်း	-9.76204
▁ဒီမိုကရက်	-9.76247
▁အလို့ငှ	-9.76287
▁ဖက်	-9.76317
▁မျိုးစိတ်	-9.76343
▁သင်း	-9.76348
▁ကာဗွန်	-9.76486
ရပ်	-9.76652
ူး	-9.76719
▁တရားဥပဒေ	-9.76745
▁မိဘများ	-9.7676
▁အမျိုးသားရေး	-9.77009
▁သုံးသပ်	-9.77163
▁ဓာတ်ငွေ့	-9.77219
▁ခန့်မှန်းချက်	-9.77242
▁အမှန်	-9.77299
▁လိုင်စင်	-9.77332
▁အပြစ်တင်	-9.77352
့စ်	-9.77396
▁အဖွဲ့များ	-9.7752
တ်ဒ်	-9.77616
▁ဂူဂဲ	-9.77698
▁ကတိ	-9.77753
နည်း	-9.77876
▁ကယ်ဆယ်	-9.77905
▁မရှိခဲ့ပါ	-9.77963
ခံရသော	-9.78034
▁လေထု	-9.78047
လက်	-9.78061
▁တိုးလာ	-9.78109
▁ပတ်လည်	-9.78478
▁အဖြေ	-9.78641
▁တရားစွဲဆို	-9.78648
▁ရေးရာ	-9.7868
▁ဂျူး	-9.78701
▁လုံး၀	-9.78737
▁တရုတ်နိုင်ငံ	-9.78939
တူ	-9.7899
▁ဆရာ	-9.79033
▁ကွန်ဂရက်	-9.79047
ါ	-9.79237
▁စာရေးဆရာ	-9.79239
▁ဇ	-9.7926
▁အကြီးတန်း	-9.79288
▁အက်ဥပဒေ	-9.79296
တွင်း	-9.7933
▁နိုင်ငံရေးသမား	-9.79339
▁၁၉၉၀	-9.79344
▁တဖြည်းဖြည်း	-9.79351
▁ဆွစ်ဇာလန်	-9.79356
▁ဘုတ်အဖွဲ့	-9.79454
▁အကောင်း	-9.79481
▁နှစ်ခုလုံး	-9.79511
▁သစ်တော	-9.7956
▁မဟုတ်ဘူး	-9.79607
▁တောင်းပန်	-9.79703
▁လွှတ်တော်အမတ်	-9.79754
▁ခြေလှမ်း	-9.79773
▁ဝမ်း	-9.79776
▁ဦးစီး	-9.79793
ရင်	-9.79822
▁ရစ်	-9.79987
▁ဘင်	-9.80019
လုပ်	-9.80063
▁အကောင်အထည်ဖော်	-9.80082
ပစ်	-9.8014
ဝုဒ်	-9.80178
▁ဝေး	-9.8021
ဖန်	-9.80227
▁ပြီးဆုံး	-9.80257
▁ကုသ	-9.80343
▁ရှာဖွေမှု	-9.80364
▁၁၉၇	-9.80412
▁လူမှုရေး	-9.80447
▁စီမံ	-9.80465
▁အတိုင်းအတာ	-9.80558
▁ဖြတ်တောက်	-9.80583
▁မြင့်	-9.80649
ဆာ	-9.80838
▁ရေကူး	-9.80979
▁အသုံးပြုသူ	-9.80981
▁ထိုသို့	-9.81009
▁စတား	-9.81018
ပုံစံ	-9.81121
သမားများ	-9.81126
▁အဆင့်အတန်း	-9.81155
▁စေလွှတ်	-9.81223
ရောင်	-9.81234
▁ယဉ်ကျေးမှု	-9.81283
အို	-9.81294
အက်စ်	-9.81359
▁ဆန္ဒပြမှု	-9.81376
▁ခေါင်းစဉ်	-9.81506
▁အလုပ်အကိုင်	-9.81693
▁ပြည့်	-9.81712
▁ဖိအား	-9.81757
▁ဗင်	-9.81826
▁ဆဲလ်	-9.81905
▁လုပ်ရပ်	-9.81926
▁ကျော်ဖြတ်	-9.81974
▁မျက်နှာပြင်	-9.82069
▁အသံလွှင့်	-9.82123
▁အောက်မှာ	-9.82163
▁စု	-9.82209
▁ပို့ဆောင်	-9.82331
▁မေးခွန်းများ	-9.82347
▁ဂျာနယ်	-9.82359
▁ဖွဲ့	-9.82462
▁ဖြစ်နိုင်ချေ	-9.82552
▁ရုံ	-9.82618
▁အသေးစား	-9.8262
▁သက်သေအထောက်အထား	-9.82621
▁မော်စကို	-9.82625
▁အရာဝတ္ထု	-9.82628
တည်းက	-9.82629
▁ဝက်ဆိုက်	-9.82641
▁လောလောဆယ်	-9.8266
▁ကောင်လေး	-9.82676
ဂါ	-9.82713
▁ခံယူ	-9.82721
▁၂၀ဝ၇	-9.82772
▁ဆန္ဒပြပွဲ	-9.82775
▁ကျနော်တို့	-9.8278
ဝီ	-9.82804
ောင်း	-9.82827
▁အသိပေး	-9.82852
▁ဖိုရမ်	-9.82871
▁ဂျက်ဆ	-9.82893
▁တိုက်ခိုက်ခဲ့	-9.83017
▁လူတိုင်း	-9.83039
▁နိုင်သည်	-9.8316
▁ရှယ်ယာ	-9.8333
▁ဖွင့်လှစ်	-9.83404
▁ရည်ညွှန်း	-9.83474
▁သက်သေပြ	-9.83539
▁ပြောဆိုချက်	-9.8355
▁အားထုတ်မှု	-9.836
့ကြောင့်	-9.837
▁သတင်းထုတ်ပြန်	-9.83813
▁ကောလိပ်	-9.83883
▁သိရှိ	-9.83884
ောင်	-9.83893
▁မောင်းနှင်	-9.83903
▁ဆိုးရွား	-9.83919
▁ပြိုကျ	-9.8394
▁ကြားနာ	-9.83958
▁ဝန်ခံ	-9.83969
လမ်း	-9.84408
▁ပိတ်ထား	-9.84436
စား	-9.84512
▁အဆက်အသွယ်	-9.84564
▁နေတိုး	-9.84629
▁ရောက်ရှိခဲ့	-9.8464
ရမည့်	-9.84677
▁ရှိနေသည်	-9.84693
တို့၏	-9.84796
▁သက်သေခံ	-9.84834
▁ခေါင်းဆောင်များ	-9.84974
ဂျက်	-9.84978
ခွေ	-9.84983
▁ရင်းနှီး	-9.8501
▁ပေါင်းစပ်	-9.85021
▁စစ်သွေးကြွ	-9.85102
▁အရေးယူ	-9.85162
▁ပြောင်းရွှေ့	-9.85211
▁အနိုင်ရခဲ့	-9.85402
▁ပေါ	-9.85483
▁ပါဝင်မှု	-9.85503
▁ဆက်သွယ်မှု	-9.85707
▁၉၀	-9.85771
▁အမည်မသိ	-9.85938
▁ကြိုးစားခဲ့	-9.86054
ရှစ်	-9.86059
၀၀	-9.86063
▁သဘာ၀	-9.86067
▁ကြာသာပတေး	-9.86068
▁လတ်တလော	-9.86068
▁ဦးနှောက်	-9.8607
▁အိုင်ဖုန်း	-9.86081
▁မိုက်ခရိုဆော့ဖ်	-9.86083
▁အာရုံကြော	-9.86129
▁ဥပဒေမူကြမ်း	-9.86136
န့်	-9.86157
ပေါက်	-9.86175
▁သိသာ	-9.86205
▁သုံးယောက်	-9.86209
▁ပစိဖိတ်	-9.86234
▁တရားခံ	-9.8625
ဒ	-9.86251
▁တာဝန်ယူ	-9.86259
▁မာတင်	-9.86279
▁မသိ	-9.86324
▁တစ်စုံတစ်ရာ	-9.86344
▁လာရောက်	-9.86408
▁စစ်တမ်း	-9.86415
▁မူကြမ်း	-9.86436
▁ဆိုတဲ့	-9.86499
▁စင်	-9.86538
▁အယူအဆ	-9.866
▁မိန်းမ	-9.866
င်းပြင်းထန်	-9.86658
▁စီမံခန့်ခွဲမှု	-9.8679
▁ယူအန်	-9.86839
▁ဒေသဆိုင်ရာ	-9.8684
▁ယာဉ်မောင်း	-9.86904
▁ဒုက္ခသည်များ	-9.87032
▁ဖိုင်	-9.87124
▁အားပေး	-9.87171
▁ရုပ်သံ	-9.87224
▁အိတ်ချ်	-9.87353
▁နှင်း	-9.87381
▁၁၅၀	-9.87497
▁သတ်မှတ်ထားသော	-9.87569
▁ဖမ်း	-9.87572
▁မျှော်လင့်ခဲ့	-9.87607
▁သတ်	-9.87627
▁မှတ်တမ်းများ	-9.877
တစ်ယောက်	-9.87773
▁၄၈	-9.87938
▁ကိုင်တွယ်	-9.87998
အားလုံး	-9.88059
▁ဗြိတိန်နိုင်ငံ	-9.88084
ကွန်	-9.88203
▁မြေအောက်	-9.88211
ရိုက်	-9.8823
▁ဆွေးနွေးမှု	-9.88245
▁ဖရန့်	-9.8826
▁ထပ်လောင်း	-9.88371
▁ခေါ်ဆောင်သွား	-9.88448
ကောင်	-9.88451
ခဲ့ဘူး	-9.88541
▁လည်ပတ်	-9.88576
▁နောက်ကွယ်	-9.88635
▁နည်းလမ်းများ	-9.88733
ဂန်	-9.88823
▁ပြီ	-9.88855
▁ဒုက္ခသည်	-9.88983
▁ဒက်	-9.89001
ရုံ	-9.89095
ကိန်း	-9.89125
နိုင်မည်	-9.89168
နေတယ်	-9.89172
▁အကြောင်းအရာများ	-9.89219
ီလီယံ	-9.8923
▁ရှေ့ဆက်	-9.89242
ယ်လ်	-9.89357
ဆိုခဲ့သည်	-9.89533
▁အောင်ပွဲ	-9.8959
▁ခွဲ	-9.89594
▁အလေးထား	-9.89621
▁ဘော	-9.89629
▁လူ့အဖွဲ့အစည်း	-9.89651
▁အတန်း	-9.89694
▁နျူးကလီးယား	-9.89714
▁လူသိရှင်ကြား	-9.89714
▁ဘာကြောင့်	-9.89773
▁ဓါတ်ငွေ့	-9.89778
▁လော့စ်	-9.89841
▁စက်မှုလုပ်ငန်း	-9.89869
ခြင်းဖြစ်သည်	-9.89884
▁ဆန့်ကျင်ဘက်	-9.8989
▁လျော့နည်း	-9.89902
▁ဗိုလ်မှူး	-9.89938
ပြီးတော့	-9.89983
၅၀	-9.90041
▁ဖြစ်လာခဲ့	-9.90067
ဝပ်	-9.90112
▁ပိုင်	-9.9013
▁တစ်မျိုး	-9.90162
▁တွမ်	-9.90177
ဟောင်း	-9.90187
▁တွေ့ရ	-9.90209
▁ရှိလိမ့်မည်	-9.9022
တက်	-9.90241
▁ထမ်းဆောင်	-9.90266
▁မဖြစ်နိုင်	-9.90326
ကိစ္စ	-9.9033
▁တစ်နှစ်	-9.90366
▁သေချာစေ	-9.90491
▁ဘီး	-9.90497
▁လုပ်ခဲ့	-9.90672
▁အုပ်ချုပ်သူ	-9.9086
▁စင်း	-9.90893
ဆောင်ရွက်	-9.909
ဘော	-9.91071
▁မရှိခြင်း	-9.91091
▁လုံခြုံ	-9.91187
▁ပါတီများ	-9.91225
▁ကြိုးစားနေ	-9.91378
▁အသက်ရှင်	-9.91445
▁အာရုံစိုက်	-9.91473
နိုင်သည့်	-9.91539
▁ထူးခြား	-9.91583
ဂို	-9.91675
▁အော့	-9.91688
ကျသော	-9.91692
▁ဈေး	-9.91793
▁အပြောင်းအလဲ	-9.92089
▁နီးကပ်	-9.92225
▁အဆင်သင့်	-9.92261
လွတ်လပ်ရေး	-9.92263
▁ရင်ဆိုင်နေရ	-9.92303
▁ရို	-9.92303
▁စုံစမ်းမှု	-9.9238
မှတ်	-9.92439
▁ဖေါ်ပြ	-9.92534
▁သူက	-9.92639
များကို	-9.92764
စံတော်ချိန်	-9.92767
▁ဖြတ်ကျော်	-9.92822
ထိ	-9.92894
ောက်	-9.92905
▁ငြိမ်းချမ်း	-9.92917
▁စျေးကွက်	-9.92919
▁အကျိုးအမြတ်	-9.93007
နီးယား	-9.93093
▁ဗိုလ်လုပွဲ	-9.93105
ဘတ်	-9.9311
▁ဟော	-9.93248
▁သူပုန်	-9.9326
▁ပေးအပ်	-9.93263
စွာသော	-9.93307
▁နေ့လည်	-9.93308
▁သတင်းပို့	-9.9331
လာခြင်း	-9.93311
▁ဥပမာ	-9.93343
▁ခြေထောက်	-9.93345
▁ထောင်ဒဏ်	-9.93346
▁ဆေးပညာ	-9.93347
▁ငါးဖမ်း	-9.93364
▁ကောင်တီ	-9.93377
▁အရှေ့ဘက်	-9.93408
▁အင်ဂျင်နီယာ	-9.93421
▁အမြန်နှုန်း	-9.93421
▁အကောင့်	-9.93461
▁အယူခံ	-9.9347
▁ရှေ့နေချုပ်	-9.93489
▁ကာကွယ်ဆေး	-9.9349
▁တေးဂီတ	-9.93506
▁ဧည့်သည်	-9.93583
▁အရှိန်	-9.93607
ို့	-9.93664
▁အော်	-9.9368
▁ပစ်မှတ်ထား	-9.93689
▁ဟန့်တား	-9.93752
ပေါင်	-9.93784
▁ပေါ်မှ	-9.93812
▁အသုံးပြုခဲ့သည်	-9.93814
▁ဟို	-9.9389
▁တလျှောက်	-9.94026
အဆင့်	-9.9403
▁သလား	-9.94112
▁အယောက်	-9.94148
▁ရောင်း	-9.94172
နွန်	-9.942
▁လွှဲပြောင်း	-9.94221
▁ဒဏ်ရာရ	-9.94287
▁ရရှိနိုင်	-9.94369
▁သုံးခု	-9.94398
▁ဆန့်ကျင်သော	-9.94407
▁တင်ပြချက်	-9.94466
▁လုပ်ဆောင်နေ	-9.9452
▁ခေါင်း	-9.94553
အစိုးရ	-9.94554
▁လိင်	-9.94556
▁စစ်သွေးကြွများ	-9.94565
▁စုံစမ်းရေး	-9.94567
▁တိုက်ခိုက်ခြင်း	-9.94578
▁ကွဲပြား	-9.94607
နီဇ	-9.94608
▁လျော့ကျ	-9.94658
▁တိုး	-9.94753
ထားတဲ့	-9.94842
▁ပျံသန်းမှု	-9.95072
▁အပြန်အလှန်	-9.95131
ဒေါ့ကွန်း	-9.95164
နယ်မြေ	-9.95255
▁အတည်ပြုခဲ့	-9.95298
▁၅၀၀	-9.95383
ဆေး	-9.95414
▁နေဆဲ	-9.95447
ဟ	-9.95455
▁ပေးဆောင်	-9.95734
▁အမြတ်	-9.95942
▁ထွက်သွား	-9.9596
မှန်	-9.96003
▁၇၅	-9.96009
▁၄၂	-9.96031
▁ဖမ်းဆီးခဲ့သည်	-9.96076
▁ကျူးလွန်	-9.96192
▁ဖြတ်သန်း	-9.96359
▁၃၈	-9.96393
ကမ္ဘာလုံးဆိုင်ရာ	-9.96492
ခဲ့ရ	-9.96516
ဘ	-9.96579
▁သတ်မှတ်ချက်	-9.96739
▁စာနယ်ဇင်း	-9.96814
▁စိတ်ကူး	-9.96824
▁စီမံခန့်ခွဲ	-9.9703
▁ဆောင်ရွက်ခဲ့သည်	-9.97097
▁ဖြစ်ကြ	-9.97128
▁သံတမန်	-9.97142
▁ဖြစ်နိုင်ခြေ	-9.97189
▁ပိုက်ဆံ	-9.97189
▁ဘဂ္ဂဒက်	-9.97192
▁အွန်တာရီယို	-9.97192
▁ဆေးဘက်ဆိုင်ရာ	-9.97198
▁ယူဆောင်	-9.97217
နိုင်ငံများ	-9.97226
▁လေ့ကျင့်ရေး	-9.97231
▁မူးယစ်ဆေးဝါး	-9.97269
▁အဆင့်မြင့်	-9.97288
▁ရပ်ကွက်	-9.97297
▁စီရင်ချက်	-9.97339
▁စီးရီး	-9.97352
▁အနီရောင်	-9.97367
▁ဒဏ်ငွေ	-9.9741
▁ထောင်ပေါင်း	-9.97501
▁ရေရှည်	-9.97535
သူတွေ	-9.97539
▁ညွန့်ပေါင်း	-9.97558
▁ပိုင်နက်	-9.97563
▁တည်းဖြတ်မှု	-9.97589
မဲ့	-9.97627
▁ဝီကီ	-9.9763
▁မစ်ရှင်	-9.97698
းဒါး	-9.97793
▁လွှမ်းမိုးမှု	-9.97827
▁စစ်ဘက်	-9.97854
အဖွဲ့အစည်း	-9.97858
ေသာ	-9.97881
ရှား	-9.97894
ဗ်	-9.97937
▁ပယ်ဖျက်	-9.98001
▁လုပ်ဆောင်ခဲ့သည်	-9.98023
ိုး	-9.98034
▁ချောင်း	-9.98122
၂၅	-9.98184
▁ဌာနချုပ်	-9.98227
▁ငါတို့	-9.98254
▁တယ်လီဖုန်း	-9.98353
▁အကြောင်းကြား	-9.98386
ပ်စ်	-9.98495
ရိုး	-9.98523
▁ကွန်ဆာဗေးတစ်	-9.98575
▁ရမည်	-9.98633
▁သေဒဏ်	-9.98701
▁အလုပ်လုပ်နေ	-9.98759
▁ရစ်ချက်	-9.98834
▁ထွက်ပြေး	-9.98893
▁ဆောင်ရွက်ချက်	-9.98937
▁သပိတ်မှောက်	-9.98996
▁တွေ့ခဲ့	-9.99047
▁၃၂	-9.99222
▁ဆင်	-9.99248
▁ခံစား	-9.99303
▁ချိတ်ဆက်	-9.99443
▁စက်မှု	-9.99591
▁ချင်း	-9.9976
စေခဲ့	-9.998
ပိုင်းဆိုင်ရာ	-9.99824
စုံစမ်းစစ်ဆေးရေး	-9.99857
ယို	-9.99996
▁ပြည်ပ	-10.0002
စေသော	-10.0004
▁ပညာ	-10.0006
ထဲ	-10.0012
▁ဂျပန်နိုင်ငံ	-10.0018
▁တရားလို	-10.0024
▁ဆန္ဒပြ	-10.0024
▁စက	-10.0031
နှင့်	-10.0031
ပေးခဲ့	-10.0034
▁နောက်ကျ	-10.0038
ကွက်	-10.0043
ဆောင်ရွက်မှု	-10.0048
▁ကိုက်ညီ	-10.0055
နေခဲ့	-10.0073
▁မိ	-10.0074
▁တို့က	-10.0075
▁ဓါတ်ပုံ	-10.0081
▁အငြင်းပွား	-10.0088
အကြောင်း	-10.0094
▁နယ်	-10.0116
▁ကင်ညာ	-10.0119
▁ဖလော်ရီဒါ	-10.0119
▁တွစ်တာ	-10.012
▁ထို့ပြင်	-10.012
▁၂၀ဝ၃	-10.0121
▁၁၉၉၉	-10.0122
▁မိတ်ဆွေ	-10.0126
▁မိုးလေဝသ	-10.0126
▁သွင်း	-10.0126
▁အကွာအဝေး	-10.0127
▁အခန်းကဏ္ဍ	-10.0127
▁လူမျိုးများ	-10.0127
▁ရုံးခန်း	-10.0132
▁မို	-10.0133
▁အောင်မြင်စွာ	-10.0133
တောင်	-10.0134
▁မီးတောက်	-10.0135
▁ပင်မ	-10.0135
▁အရှေ့ပိုင်း	-10.0136
▁ရိုးရှင်း	-10.0136
▁အန္တရာယ်ရှိသော	-10.014
▁အသုံးစရိတ်	-10.0147
▁ကြေးနန်း	-10.0148
▁ကမ္ဘာကြီး	-10.0148
▁စီမံချက်	-10.0155
▁ကုန်သွယ်ရေး	-10.0156
▁ရှေးဟောင်း	-10.0162
သော်ငြားလည်း	-10.0168
▁ဂရေး	-10.017
▁လိမ့်မယ်	-10.0172
▁ကုန်ပစ္စည်း	-10.0174
▁နှစ်ဖက်	-10.018
▁စီစဉ်ထား	-10.0192
မိနစ်	-10.0196
▁အဆိုပြု	-10.0207
လုပ်ငန်းများ	-10.022
▁၂၀၀၁	-10.0223
▁၂၀ဝ၄	-10.0227
အစီအစဉ်	-10.0261
▁ရှည်	-10.0262
▁အသင်းတော်	-10.0263
ကိုယ်စားလှယ်များ	-10.0266
▁ဖြည့်စွက်	-10.0269
▁ပျောက်ဆုံး	-10.0272
▁မြင့်တက်လာ	-10.0279
ကြိမ်	-10.0288
မင်း	-10.0302
▁ကျေနပ်	-10.0305
င်းရှင်းလင်းလင်း	-10.0317
မုန်တိုင်း	-10.0319
ပစ္စည်းများ	-10.0328
▁ကုန်ကျ	-10.033
လာသည်	-10.0334
အခြေအနေ	-10.0342
▁ရှာဖွေခြင်း	-10.0364
ထ်	-10.0365
▁လော့	-10.0382
အစား	-10.0394
▁ရပ်တည်	-10.0395
▁ချီတက်	-10.0416
▁ဝတ်ဆင်	-10.043
▁နိုင်ခဲ့	-10.044
ပါပဲ	-10.0447
▁ဆုံးဖြတ်ခဲ့	-10.0451
▁တူညီ	-10.0456
▁ဝမ်းနည်း	-10.0458
▁ခန်း	-10.0463
▁ဟော့	-10.048
▁အရိုး	-10.0481
▁ရှိခဲ့တယ်	-10.0484
နှစ်အရွယ်	-10.0484
ဗွီ	-10.0495
▁ရခဲ့	-10.0504
▁လား	-10.0508
▁မူရင်း	-10.0509
▁ခေါ်ဆို	-10.0511
ဝေး	-10.0531
▁ပိတ်ဆို့မှု	-10.0532
▁မျိုးဆက်	-10.0534
▁အမှတ်အသား	-10.0534
▁ဂျာမဏီ	-10.0536
▁မန်ချက်စတာ	-10.0536
▁မြေငလျင်	-10.0536
▁ဗစ်တိုးရီးယား	-10.0536
▁မက်ဆီကို	-10.0539
▁မဂ္ဂဇင်း	-10.0544
▁သံအမတ်	-10.0544
▁ဗားရှင်း	-10.0544
▁အန်ဒရူး	-10.0544
▁အီးမေးလ်	-10.0545
▁ယှဉ်ပြိုင်မှု	-10.0546
ဒမ်	-10.0548
▁ရာပေါင်းများစွာ	-10.0549
▁သောင်းကျန်းသူ	-10.0549
▁ဝီကီနယူးစ်	-10.055
▁ကန့်ကွက်မှု	-10.0551
▁ကနဦး	-10.0555
▁အောက်လွှတ်တော်	-10.0555
ခဲ့ပြီးပြီ	-10.0555
ရား	-10.0563
▁အသိုင်းအဝိုင်း	-10.0564
▁တရားရုံးချုပ်	-10.0567
▁ဒေသခံများ	-10.057
▁နှုန်းထား	-10.0572
▁နှောင်းပိုင်း	-10.0575
▁အားကစားပွဲ	-10.0582
▁မရှိဘူး	-10.0592
ဦးဆောင်မှု	-10.0606
▁ဒီနေရာ	-10.0615
▁နေ့ရက်	-10.0618
ဂ	-10.0626
▁သယ်ယူပို့ဆောင်	-10.0628
▁သေစေ	-10.0629
▁သိပ္ပံပညာ	-10.0634
▁ရွေ့လျား	-10.0643
▁သာမ	-10.0643
▁ထိခိုက်ဒဏ်ရာ	-10.066
▁နှုတ်ထွက်	-10.0667
▁တည်ထောင်သူ	-10.0675
သွားခဲ့	-10.0677
▁အခိုင်အမာပြော	-10.068
အခြေစိုက်	-10.0713
▁ပြေးဆွဲ	-10.0716
▁ဝေဖန်မှု	-10.0739
▁အသုံးချ	-10.0759
▁မာ	-10.0763
▁ဖာရ	-10.0776
▁မူတည်	-10.0787
▁နည်းပါး	-10.0797
▁ဆင့်	-10.0805
▁နံရံ	-10.0812
▁ခံစားခဲ့ရ	-10.0815
မရှိပါ	-10.0822
▁ကြယ်	-10.0831
▁ပေါ့	-10.0843
ဟီ	-10.0846
▁လင်	-10.0861
မို	-10.0875
▁လမ်းများ	-10.0876
စတန်	-10.0883
▁ပြိုင်ပွဲများ	-10.0884
▁ဒဏ်ရာရခဲ့	-10.089
▁အလီ	-10.089
့ရဲ့	-10.0895
▁အပန်းဖြေ	-10.0896
▁ဆန့်ကျင်မှု	-10.0905
ဆန့်ကျင်လျက်	-10.0906
▁၅၅	-10.0906
▁သတ်မှတ်ထား	-10.0923
▁အုပ်ချုပ်	-10.0927
ယ်ယူပို့ဆောင်ရေး	-10.093
အခိုင်အမာပြောဆို	-10.0937
▁အောင်နိုင်	-10.094
အီး	-10.0949
▁ပန်	-10.0959
▁လုပ်ကိုင်	-10.097
▁အာဂျင်တီးနား	-10.097
▁ကျောက်မီးသွေး	-10.097
▁နယ်သာလန်	-10.097
▁သဘာဝပတ်ဝန်းကျင်	-10.0971
▁အောက်ခြေ	-10.0971
▁စကားလုံး	-10.0974
▁ဆွီဒင်	-10.0979
▁၁၉၈၀	-10.0979
▁လှည့်	-10.0985
▁တံခါး	-10.0987
နား	-10.0989
▁မြင်ကွင်း	-10.0994
▁အပြည့်	-10.0996
▁၄၄	-10.0999
▁ဦးရေ	-10.1
▁စင်တီ	-10.1001
▁တားမြစ်ချက်	-10.1003
▁အတိုး	-10.1003
▁တော်လှန်ရေး	-10.1004
▁ဘွဲ့	-10.1008
အန်	-10.1009
နေခဲ့သည်	-10.101
ဇီ	-10.1011
▁ဘားရက်	-10.1014
▁အမျိုးသားများ	-10.1021
▁ရော့ခ်	-10.1023
▁ဂျိုး	-10.1024
▁လိုချင်	-10.1025
▁ကျန်ရှိသော	-10.1029
▁စွဲချက်တင်	-10.1043
ာမက	-10.1058
ပိုင်	-10.1061
▁ခွင့်	-10.1064
လွန်	-10.1064
▁ကျန်ရှိ	-10.1064
▁ညွှန်ပြ	-10.1066
▁များပြား	-10.1068
▁ပေးထား	-10.107
▁သယ်	-10.1071
၁၀	-10.1075
▁ရှားပါး	-10.1075
ရှ	-10.1075
▁အမ်ပီ	-10.1097
▁မျှော်မှန်း	-10.1099
ကတော့	-10.1105
▁ဖုံးကွယ်	-10.1125
▁နေသည်	-10.1131
▁အခြားသူများ	-10.1132
▁၄၀၀	-10.1135
မက်စ်	-10.1136
ခြင်းခံရသည်	-10.1137
ိင်ပိုင်းဆိုင်ရာ	-10.1139
းရှင်း	-10.1149
▁စတာလင်	-10.1152
▁ဘော့	-10.1154
▁ချန်	-10.1162
မှူ	-10.1163
▁သိသာထင်ရှား	-10.1172
▁နှောင့်နှေး	-10.1173
ပြု	-10.1179
▁တပ်ဆင်	-10.1181
▁တစ်ခုခု	-10.1184
▁ကြိုးစားအားထုတ်	-10.1192
▁စုပေါင်း	-10.1197
▁ပစ်လွှတ်	-10.1199
▁စီအီးအ	-10.1211
ုံး	-10.1214
▁အိပ်	-10.1224
ဝင်များ	-10.1232
▁ဆိုင်းငံ့ထား	-10.1234
▁သွားခဲ့သည်	-10.1238
▁ပြောဆိုသည်	-10.1242
တ်စ်	-10.1246
▁၃၆	-10.126
▁ကိစ္စများ	-10.1277
ိုဗာ	-10.128
▁လွှတ်ပေး	-10.1282
ရှိသည်	-10.1285
တောင်မှ	-10.1287
▁၃၀၀	-10.129
သန်း	-10.1295
▁သံသယရှိ	-10.13
ဆိုင်	-10.1307
▁အတွင်းဝန်	-10.1308
▁မီလီ	-10.1311
▁ကြေငြာခဲ့	-10.1311
▁အလ	-10.1316
▁စပ	-10.1317
▁ထွက်လာ	-10.1321
ပါပြီ	-10.1328
▁ပြသနာ	-10.133
▁ကြသည်	-10.1332
▁ပြေးလမ်း	-10.1332
▁ဘရက်	-10.1344
ချာ	-10.1349
▁ကေ	-10.1354
▁ဆန္ဒရှိ	-10.1355
▁အမည်ရှိ	-10.1356
ရှင်း	-10.1359
▁နှစ်သက်	-10.1368
▁ကွန်	-10.1373
လျှက်ရှိ	-10.1377
▁စတ	-10.1383
▁သာလွန်	-10.1384
၂၀	-10.1392
လျှက်	-10.1394
ကစားသမား	-10.1398
▁ကိတ်	-10.1407
▁မဟာ	-10.1412
▁ဖြန့်ဝေ	-10.1414
ဗီလီ	-10.142
▁တိုင်းမ်	-10.1424
▁ရှုထောင့်	-10.1425
▁ပြတင်းပေါက်	-10.1425
▁ဂျော်ဒန်	-10.1425
▁စတီဗင်	-10.1425
▁ဂျာနယ်လစ်	-10.1425
▁ဘူတာရုံ	-10.1425
▁ဆိုင်မွန်	-10.1426
▁တစ်ရက်	-10.1432
▁စားနပ်ရိက္ခာ	-10.1434
▁ဆော်ဒီ	-10.1434
▁ဘုရား	-10.1437
▁မဲရုံ	-10.1437
▁ပျက်ကွက်	-10.1437
▁ချစ်	-10.144
▁မာရီ	-10.1442
▁မီးလောင်	-10.1444
▁မီးခိုး	-10.1445
▁အားကစားကွင်း	-10.1447
▁အိမ်တော်	-10.1448
▁ငါ့	-10.1448
▁ဥရောပသမဂ္ဂ	-10.1453
▁ချေးငွေ	-10.1456
▁စောစော	-10.1457
▁သံသယဖြစ်ဖွယ်	-10.1458
▁လွတ်လပ်ခွင့်	-10.1459
▁ရို့စ်	-10.1473
ေးရှင်း	-10.1474
ဘင်	-10.1479
▁ပျက်ကျမှု	-10.1481
ရှိသူ	-10.1485
သမ္မတ	-10.1485
▁ကင်း	-10.1491
▁ကျရောက်	-10.1492
▁မပါဘဲ	-10.1496
▁ဂျာ	-10.1499
▁တိုက်တွန်းခဲ့	-10.1501
▁သဘောတူစာချုပ်	-10.1511
▁တရားမျှတမှု	-10.1512
▁တိုက်မိ	-10.1516
▁တစ်စု	-10.1522
▁လုပ်ဆောင်နိုင်	-10.1528
ရိန်း	-10.1529
▁ကိုယ်	-10.1532
▁အလွတ်	-10.1532
▁ပို့ဆောင်ရေး	-10.1536
▁ယူကရိန်း	-10.1543
▁ရည်ရွယ်ထား	-10.1547
▁စရာ	-10.155
▁လူးဝစ်	-10.1551
▁ဆွစ်	-10.1556
▁ဘေ	-10.1563
▁ဖြစ်ပေါ်စေ	-10.1566
ယာဉ်	-10.1568
▁၃၄	-10.1573
▁ဆန့်ကျင်ရေး	-10.1578
▁ဖောက်ခွဲ	-10.1588
▁သောမတ်	-10.1592
▁တိကျ	-10.1596
▁ခံစားနေရ	-10.1601
အိုင်အေ	-10.1602
▁ဖတ်	-10.1603
ရှည်	-10.1605
▁ညှင်းပန်း	-10.1629
ှ	-10.1631
အရာ	-10.1633
▁လွတ်လပ်စွာ	-10.1637
▁သေဆုံးသွား	-10.1637
အနေဖြင့်	-10.1642
အဖြစ်	-10.1646
▁စွဲချက်များ	-10.1656
ုတ်	-10.1662
▁ဗုံးကြဲ	-10.1668
▁ပေါ်ထွက်လာ	-10.168
မှာပါ	-10.1682
▁ပြောခဲ့ပါ	-10.1693
▁၂၀ဝ	-10.1694
▁ပြန်လည်သုံးသပ်	-10.1697
▁ရှိနေခဲ့	-10.1709
မိုင်	-10.1711
ွေ့	-10.1714
▁သင်္ဘောသား	-10.1716
စစ်	-10.1716
▁ကိုယ်စား	-10.1729
▁ကျဆင်းမှု	-10.174
▁ကယ်တင်	-10.1755
▁ရေကြောင်း	-10.1756
ဘဏ်	-10.1756
▁ယုံကြည်ခဲ့သည်	-10.1774
▁ဂျီအမ်	-10.1775
▁ဒီစီ	-10.1782
ပွား	-10.1782
၄၀	-10.1786
▁ဒါဇင်	-10.1787
▁ပရိုဂရမ်	-10.1807
▁သတိပြုမိ	-10.1815
▁မောင်း	-10.1817
▁ဆိုသည့်	-10.1825
▁စည်း	-10.1829
▁မှားယွင်း	-10.1832
▁ဂိတ်	-10.1838
▁ချေပ	-10.184
ပါး	-10.1842
▁ပေါင်းစည်း	-10.1855
▁တည်ထောင်ခဲ့	-10.1855
တတ်သော	-10.1863
▁နို	-10.1871
▁ခေါ်ခဲ့	-10.1877
ပစ္စည်း	-10.1878
▁ဆိုဒ်	-10.1879
စေခြင်း	-10.1883
▁ကျနော်	-10.1888
▁စုစည်း	-10.1889
▁ဗီဇ	-10.1894
▁၄၆	-10.1897
ဆိုက်	-10.1897
▁ဒဗလျူ	-10.1898
▁ကုန်တင်	-10.19
▁ကျူးဘား	-10.1901
▁ပေါ်တူဂီ	-10.1901
▁အိမ်နီးချင်း	-10.1901
▁ရူပဗေဒ	-10.1901
▁ဟောင်ကောင်	-10.1901
▁ရင်းမြစ်	-10.1902
▁ဝီလီယမ်	-10.1902
▁ဟေတီ	-10.1903
▁၁၉၉၇	-10.1904
▁အတိအကျ	-10.1906
▁လောင်စာဆီ	-10.1906
▁ရာစု	-10.1908
▁ကစားကွင်း	-10.1908
▁ကုမ္မဏီ	-10.1909
▁ဘူမိဗေဒ	-10.191
▁အခြေစိုက်စခန်း	-10.1912
▁ရှိခြင်း	-10.1913
▁ကြက်ခြေနီ	-10.1913
▁ဦးစားပေး	-10.1914
လာလိမ့်မည်	-10.1916
▁ဦးခေါင်း	-10.1916
▁ဇူလိုင်လ	-10.1917
သွားသော	-10.1918
▁ရလာဒ်	-10.1919
▁သံရုံး	-10.192
▁အသက်အရွယ်	-10.1921
▁အပြီးသတ်	-10.1921
▁အဒမ်	-10.1921
▁လွှဲပြောင်းပေး	-10.1924
▁အဖေ	-10.1925
▁ဗုံးပေါက်ကွဲမှု	-10.1926
▁အနုပညာရှင်	-10.1928
▁မရှိသော	-10.193
▁အားကစားသမား	-10.1931
▁ဋ္ဌာန	-10.1937
▁ခွဲစိတ်	-10.1938
▁ကျေးဇူးတင်	-10.1941
▁တစ်ဦးချင်းစီ	-10.1944
▁ငြင်းဆန်	-10.1946
ရခြင်း	-10.1946
▁ခိုင်မာသော	-10.1946
▁ရှိမရှိ	-10.195
▁ပျက်ကွက်မှု	-10.1953
▁တရားစွဲဆိုခြင်း	-10.1956
▁ဆိုးရွားသော	-10.1961
▁ထောက်လှမ်းရေး	-10.1963
▁လွတ်လပ်မှု	-10.1963
▁ပရော	-10.1965
▁သတ်ဖြတ်	-10.1965
▁ထူးခြားသော	-10.1967
▁ပို့စ်	-10.1968
▁တိကျသော	-10.1971
▁စီရင်စု	-10.1975
▁အတွင်းမှာ	-10.1977
▁စစ်မှန်	-10.1979
▁ဖိနပ်	-10.1989
ွဲ	-10.2
▁စောင့်ရှောက်မှု	-10.2004
▁သုံးသပ်ချက်	-10.2007
ဘွတ်ရှ်	-10.2012
▁တပ်သား	-10.2015
ပြ	-10.2016
▁ဆင်း	-10.2022
▁ဝင်းဒို	-10.2031
▁အစိုးရအဖွဲ့	-10.2037
ကြတယ်	-10.2041
▁ကယ်ရီ	-10.2045
▁ထုတ်ပေး	-10.2046
ပိုး	-10.2051
▁လွဲ	-10.2053
▁ရခဲ့သည်	-10.2067
▁ခရစ်စ	-10.2073
ယ	-10.2077
▁တရားမျှတ	-10.2078
▁လုံလောက်	-10.208
▁တုန့်ပြန်မှု	-10.2085
▁အန်နာ	-10.209
▁ဂရိတ်	-10.2095
ာရာ	-10.2095
▁ဖိအားပေး	-10.211
▁ဘလဲ	-10.211
▁၅၁	-10.2122
▁ဗုံးခွဲ	-10.2124
▁အခွင့်အရေးများ	-10.2128
▁ကျော	-10.215
▁အင်တာ	-10.2153
▁၅၂	-10.2155
▁တတ်နိုင်	-10.2156
▁ဝေလ	-10.2162
▁ဖော်	-10.2164
လမ်းကြောင်း	-10.217
▁နော်ဝေ	-10.2176
▁သတင်းပေးပို့	-10.218
▁ဆောင်ရွက်ခဲ့	-10.2193
▁စိတ်ဝင်စား	-10.2199
▁ဒန်	-10.22
▁နစ်မြုပ်	-10.2216
▁တစ်ဦးတည်း	-10.2221
▁ပါဝင်သူ	-10.2245
▁အမေ	-10.2251
ဖီး	-10.2253
သတင်း	-10.2255
▁နိုင်ခဲ့သည်	-10.2264
▁စိတ်ပိုင်း	-10.2266
▁ဆန္ဒမဲ	-10.2271
ဆောင်	-10.2272
▁ဆွဲ	-10.2281
သွားမည်	-10.229
▁တစ်ပွဲ	-10.2293
ရလိမ့်မည်	-10.2296
▁အားနည်း	-10.2299
▁အဘူ	-10.2308
▁မစ်	-10.2316
▁ဂိုးသွင်း	-10.2324
▁ရှိကြ	-10.2337
▁သံ	-10.2339
▁အကာအကွယ်	-10.2346
▁အလင်း	-10.2349
▁အလုပ်လက်မဲ့	-10.2354
▁အသုံးပြုသော	-10.2357
ပြော	-10.2359
▁စကော့	-10.2365
▁ရေးသားခဲ့သည်	-10.237
ဖြစ်ခဲ့သည်	-10.2376
▁သင့်တော်	-10.238
▁စတန်	-10.2386
▁အကြို	-10.2392
▁ပဉ္စမ	-10.2401
▁ဓားစာခံ	-10.2401
▁နမူနာ	-10.2401
▁မြန်မာ	-10.2401
▁ဖီဖာ	-10.2402
▁ဝက်ဆိုဒ်	-10.2402
▁မဲလ်ဘုန်း	-10.2402
▁တက္ကဆက်	-10.2402
▁ခံရ	-10.2403
▁လေ့လာသူ	-10.2404
▁စျေး	-10.2405
သူတို့	-10.2406
▁အနီးကပ်	-10.2407
▁ပဲရစ်	-10.2407
▁ပွဲဦးထွက်	-10.2411
▁အရွယ်အစား	-10.2411
▁အလင်းရောင်	-10.2411
ချင်းစီ	-10.2412
▁လန်ဒန်မြို့	-10.2413
▁ဝန်ခံခဲ့	-10.2413
▁တစ်ဖက်	-10.2414
▁လေးဦး	-10.2417
ကြီးမားတဲ့	-10.2418
▁ဓာတ်ရထား	-10.2422
▁အဲ့ဒါ	-10.2426
▁ခရုစ်	-10.2427
▁နိုင်ငံပိုင်	-10.2428
▁ရိုက်တာ	-10.243
▁ကောင်းမွန်စွာ	-10.2431
ထုတ်	-10.2431
ဘယ်	-10.2432
▁ကြီးထွားလာ	-10.2434
▁နောက်လိုက်	-10.2436
▁ခန့်အပ်	-10.2441
▁အာရုံစိုက်မှု	-10.2443
▁စဉ်အတွင်း	-10.2445
▁အစပိုင်း	-10.2446
▁လမ်းမကြီး	-10.2446
▁ဒဏ်	-10.2448
▁နှစ်ဆယ်	-10.2451
▁တစ်ခါ	-10.2453
▁စပ်လျဉ်း	-10.2455
▁စစ်ဆေးခြင်း	-10.2455
▁ထောက်ခံချက်	-10.2456
းနီးယား	-10.2457
ကျိုးသက်ရောက်မှု	-10.246
▁အသက်ရှင်ကျန်ရစ်	-10.2464
ခေါင်းဆောင်	-10.2472
မောင်း	-10.2477
▁ဆောင်းရာသီ	-10.2478
▁မေးမြန်းခဲ့သည်	-10.2481
ရာသီ	-10.2481
▁ခရစ်ကတ်	-10.2487
ကြလိမ့်မည်	-10.2487
▁တိုးတက်လာ	-10.2493
▁ကူညီပေး	-10.2494
▁မတရား	-10.2495
▁ဖြစ်စေခဲ့	-10.2496
▁နိုင်ငံခြားသား	-10.2502
▁ပြတ်တောက်မှု	-10.2502
▁ကြိုးစားခဲ့သည်	-10.2503
▁ကြည့်ရှု	-10.2505
▁တဲ့အခါ	-10.2506
ုပ်ပိုင်းဆိုင်ရာ	-10.2509
ဂွန်	-10.2511
အက်	-10.2511
▁နစ်	-10.2535
▁ထုတ်ဖော်ပြောဆို	-10.254
▁ဒေါ့	-10.2541
▁ထုတ်လွှတ်	-10.2542
▁ကမ်းလှမ်း	-10.2549
▁လောင်း	-10.2562
▁မှစ	-10.2583
ခံရခြင်း	-10.2588
ပို	-10.2603
▁အောက်ပါ	-10.2608
▁ဒယ်	-10.2617
လောင်း	-10.2617
၁၅	-10.2619
ုံ	-10.2621
▁အတော်	-10.2629
အယ်	-10.2634
▁သုံးစွဲသူများ	-10.2644
▁၂ဝဝ	-10.2644
▁ပြေး	-10.2645
▁အက်ဒ	-10.2651
ရွေးကောက်ပွဲ	-10.2655
ဖြစ်ပွားခဲ့သော	-10.2656
▁တစ်စုံတစ်	-10.2656
▁တောင်းဆိုခဲ့	-10.2659
▁ဖန်တီးမှု	-10.266
ကြည့်	-10.2662
အိုး	-10.2664
လစ်	-10.267
▁ရောင်	-10.2675
ထွက်	-10.2688
▁ခိုးယူ	-10.2694
▁အကဲဖြတ်	-10.2695
စိတ်	-10.2724
▁ထုတ်ပယ်	-10.2729
▁ထုတ်လွှင့်ခဲ့	-10.2734
▁အသတ်ခံရ	-10.2735
▁လဲလှယ်	-10.2739
▁ဆိုး	-10.2741
▁ဆုံးဖြတ်ချက်ချ	-10.2742
▁စီစဉ်ခဲ့သည်	-10.2744
▁လိင်တူ	-10.2751
▁ပေးခြင်း	-10.2754
▁မျှဝေ	-10.2756
အိုင်	-10.277
▁လိမ့်	-10.2782
မား	-10.2787
ပြား	-10.2789
ရတ်	-10.279
ဘေး	-10.2807
▁ထိရောက်	-10.281
▁မိဘ	-10.282
င်တန်	-10.2825
▁ပရိသတ်	-10.2825
ချင်း	-10.2833
ရွန်	-10.284
▁အိန္ဒိယနိုင်ငံ	-10.2857
▁ပယ်ချခဲ့	-10.2857
▁ရက်စွဲ	-10.2859
▁မေးခဲ့	-10.286
▁ရော	-10.2866
▁လွတ်ငြိမ်း	-10.2871
▁နေထိုင်သော	-10.2874
▁တင်ပြခဲ့	-10.2875
▁စော	-10.2883
▁လေးစား	-10.2893
▁ပေါ်ပေါက်လာ	-10.2894
ဖ	-10.29
▁ပြောင်း	-10.2902
▁ကျေးလက်	-10.2907
▁တောင်ပို	-10.2909
▁ဝီကီနယူး	-10.291
▁မွန်းလွဲ	-10.2927
▁အတွေးအခေါ်	-10.2927
▁ဗာဂျီးနီးယား	-10.2927
▁ဝက်ဝံ	-10.2928
▁အမှန်တရား	-10.2928
▁အနိမ့်ဆုံး	-10.2928
▁ဟွန်ဒါ	-10.2928
▁ရေကာတာ	-10.2928
▁နိုင်ဂျီးရီးယား	-10.2929
▁အတ္တလန်တ	-10.293
▁၁၉၉၁	-10.2933
▁လောင်ကျွမ်း	-10.2935
▁ဒဏ်ရာများ	-10.2937
▁ဆံပင်	-10.2937
▁ဂြိုဟ်တု	-10.2938
▁သီအိုရီ	-10.2938
▁ရှေ့နေများ	-10.2938
▁မဲဆန္ဒနယ်	-10.2938
ုပ်ရဟန်းမင်းကြီး	-10.2938
▁ဝီကီလိခ်	-10.2938
▁ကြားဖြတ်	-10.2938
▁ကုန်တင်ကား	-10.294
ပြုလုပ်	-10.2943
▁နာကျင်မှု	-10.2944
▁သန့်ရှင်း	-10.2945
▁ပိတ်ပင်	-10.2946
▁သွားခဲ့	-10.295
▁ဆောက်လုပ်	-10.2952
▁အပိုင်းအစ	-10.2952
▁တီထွင်	-10.2953
ခံရသည်	-10.2956
ပုံအခြေခံဥပဒေ	-10.2958
▁နှင့်စပ်လျဉ်း	-10.2959
▁ပါဝါ	-10.296
ရေ	-10.2962
▁မည်သူမ	-10.2962
▁နွား	-10.2963
လုနီးပါး	-10.2964
▁ရောဂါပိုး	-10.2965
▁ဆောက်	-10.2969
်ဘီ	-10.2969
▁အနေနှင့်	-10.2974
ဝါး	-10.2975
▁အပြည့်အ	-10.2978
▁ဝင်ရိုးစွန်း	-10.2979
▁ခွင့်ပြုခဲ့	-10.2981
▁ခံခဲ့ရ	-10.2982
▁ဒဏ်ရာရရှိခဲ့	-10.2984
တတ်	-10.2987
▁လိပ်စာ	-10.2989
▁စေ့စပ်	-10.2991
▁တရားစီရင်ရေး	-10.2992
ဟိုက်	-10.2992
ဘ်	-10.2994
▁တိုက်ခိုက်သူ	-10.2994
▁စီအန်အန်	-10.2997
▁ပြောရေးဆိုခွင့်	-10.2997
▁ပျော်ရွှင်	-10.2997
▁တွေ့ရှိရ	-10.3
▁လွှမ်းမိုး	-10.3006
▁ယခုအချိန်	-10.3019
▁နက်	-10.3025
ုး	-10.3038
▁အဲလ်ဘ	-10.3038
▁ငွေစာရင်း	-10.304
▁ထိခိုက်စေ	-10.3041
▁ခေါ်ဆိုမှု	-10.3043
▁မှန်ကန်သော	-10.3045
ကွေ့	-10.305
▁၀န်ကြီး	-10.3051
▁ဝါ	-10.3056
▁မဲပေးခြင်း	-10.3062
▁မြင်း	-10.3062
▁စီရင်	-10.3065
▁ဖိတ်ခေါ်	-10.3069
▁ဘို	-10.3071
▁ဖန်	-10.3073
အုပ်	-10.3081
▁ညီမျှ	-10.3089
▁လှုံ့ဆော်မှု	-10.3091
▁အဆုံးသတ်ခဲ့	-10.3091
▁လေတပ်	-10.3099
▁ကျောက်	-10.3103
ထရာ	-10.3104
▁ဝေမျှ	-10.3106
▁ပုဂ္ဂိုလ်ရေး	-10.3111
ကြိုးပမ်းအားထုတ်	-10.3117
လွှာ	-10.3126
စွမ်းရည်	-10.3131
ီယို	-10.3133
ာနာမ	-10.3138
▁တည်ငြိမ်	-10.3138
▁လုပ်ရပ်များ	-10.3139
▁အနိုင်ရရှိခဲ့	-10.3151
▁စွမ်းအား	-10.3159
နီး	-10.316
ဂြိုလ်	-10.3161
▁ရှုံး	-10.3161
▁အမေရိကန်နိုင်ငံ	-10.3163
မက	-10.3175
နောက်	-10.3181
ဂျွန်ဆင်	-10.3184
▁ဆိုနီ	-10.3196
အာ	-10.3205
▁ယာဥ်	-10.3208
လပ်	-10.3219
▁၃၉	-10.3231
▁နေရ	-10.3235
▁ဆိုင်းငံ့	-10.3243
▁ငြင်းပယ်	-10.3248
ပါသော	-10.325
▁ကောက်ချက်ချ	-10.3257
ကွင်း	-10.3259
▁အကြံဉာဏ်	-10.3261
▁ပြိုလဲ	-10.3261
▁မအောင်မြင်	-10.3268
နာရီ	-10.3268
ထားခဲ့	-10.3273
ဆိုးရွား	-10.3273
▁ကျား	-10.3287
ျ	-10.3293
▁သဘော	-10.3301
တု	-10.3303
▁ပူ	-10.3306
တ်ချ်	-10.3306
▁ငယ်ရွယ်	-10.3317
▁ပယ်ချ	-10.3324
▁ဂူ	-10.3325
▁ဆောင်	-10.334
အိတ်	-10.3347
ခါ	-10.3361
▁ပါ၀င်	-10.3363
▁အန	-10.3393
▁ခွဲထွက်	-10.3398
စေသည့်	-10.342
▁အမိန့်ပေး	-10.3423
▁စွန့်လွှတ်	-10.3429
▁ကွန်မြူနစ်	-10.3434
ပေးသော	-10.3436
ဝါဒ	-10.3437
သတင်းဌာန	-10.3437
ကလေး	-10.3444
ဗေဒ	-10.3447
▁လူကြိုက်များ	-10.345
▁ခရ	-10.345
▁စွပ်စွဲခံရ	-10.3453
▁ဆန္ဒပြသူ	-10.3457
နေတဲ့	-10.3472
▁ဘာသာတရား	-10.3479
▁ဆိုမာလီ	-10.3482
▁ရီပတ်ဘလီကန်	-10.3483
▁ဟီလာရီ	-10.3483
▁ဝက်ဘ်ဆိုဒ်	-10.3483
▁သုတေသီ	-10.3483
▁ဒိုင်လူကြီး	-10.3484
▁လေပြင်း	-10.3484
▁တစ်စုံတစ်ခု	-10.3485
အတောအတွင်း	-10.3485
▁အပြာရောင်	-10.3485
▁ဆော့ဝဲလ်	-10.3485
▁ပညာရှင်များ	-10.3486
▁ဂျူရီ	-10.3486
▁အလွန်အကျွံ	-10.3487
နိုင်ခြင်း	-10.3488
▁ယူကျု	-10.3491
▁ရေကန်	-10.3492
▁ယိုဖိတ်မှု	-10.3492
▁ထိုင်ခုံ	-10.3493
▁ကျွန်းဆွယ်	-10.3494
▁လေးခု	-10.3495
▁မှတ်သား	-10.3496
ဂျာ	-10.3497
▁ဖြစ်နိုင်ချေရှိ	-10.3498
မွန်	-10.3499
▁လယ်သမား	-10.3503
▁ကိုယ်ဝန်ဆောင်	-10.3504
▁ရင်ဆိုင်ခဲ့ရ	-10.3505
▁ပြည့်စုံ	-10.351
▁လွတ်မြောက်ရေး	-10.3511
▁တစ်လျှောက်လုံး	-10.3515
▁စစ်ဆေးရေး	-10.3516
▁ခေတ္တ	-10.3518
▁ဝက်ဘ်	-10.3518
▁သမ္မတလောင်း	-10.3521
▁စီးတီး	-10.3521
▁ဥပဒေပြု	-10.3521
▁ပထမပိုင်း	-10.3526
▁တစ်နာရီ	-10.3528
စတာ	-10.3534
▁ဒု	-10.3547
ထားခြင်း	-10.3549
▁စိုးမိုး	-10.3549
▁စော်ကား	-10.3551
▁ဆုတောင်း	-10.3557
▁ထားခဲ့	-10.3558
▁အယ်ဒီတာ	-10.3561
ကျမ်း	-10.357
▁ကျယ်ပြန့်သော	-10.3578
▁လာခဲ့	-10.3583
▁ပစ်ခတ်ခဲ့	-10.3584
▁ထုတ်ဝေခဲ့	-10.3586
ရွာ	-10.3586
▁အလေးအနက်	-10.3586
▁၆၅	-10.3588
းမား	-10.3591
၁၁	-10.3592
▁မကောင်းသော	-10.3594
▁လူစု	-10.3594
▁စာသား	-10.3601
▁ဒန်နီ	-10.3601
▁လင်း	-10.3616
▁သန်းပေါင်း	-10.3618
▁ယုံကြည်ကြသည်	-10.3626
▁ကနေဒီယန်	-10.3627
▁တာဝန်ခံ	-10.3642
▁အနား	-10.3649
▁ကယ်လီ	-10.3652
▁လူကြီး	-10.3653
▁ဖျော်ဖြေရေး	-10.3662
အကျိုးခံစားခွင့်	-10.3665
▁ဂျို	-10.3673
▁ရွန်	-10.3674
▁ပေါက်ကွဲခဲ့	-10.3678
▁ဒဏ်ရာရရှိ	-10.3678
ခြမ်း	-10.3681
မဟုတ်သော	-10.3685
▁ထုတ်လွှင့်မှု	-10.3687
▁ဝန်	-10.3689
▁နား	-10.3698
▁အမြန်	-10.3701
▁ပါဝင်နေ	-10.3721
▁အလှည့်	-10.3731
▁ဘလက်	-10.3745
အားကစားပြိုင်ပွဲ	-10.375
▁ကျဆုံး	-10.3758
▁မရှိဘ	-10.3764
▁၅၇	-10.3781
ပညာရှင်	-10.3782
▁ဝီ	-10.3783
▁ထိပ်သီး	-10.3784
▁နှစ်များ	-10.3784
▁မက်က	-10.3793
ဖြစ်စေ	-10.3795
▁နယူးစ်	-10.3796
▁ဘလော့	-10.3797
▁လျှက်	-10.3798
လိမ့်မည်ဖြစ်	-10.3799
▁အရက်	-10.3799
▁၃၇	-10.3801
▁ဖီ	-10.3815
တစ်ပုံ	-10.382
▁တိုးပွားလာ	-10.3829
▁ပက်	-10.3831
ဖီ	-10.3834
▁တိုက်ခိုက်ရေး	-10.3864
▁ဘဏ္ဍာ	-10.3868
▁မပြု	-10.387
င်းနှီးမြှုပ်နှံ	-10.3874
▁ကုလသမ္မဂ	-10.3874
▁ဂျင်	-10.3876
▁ပါသည်	-10.3879
▁ပြင်ဆင်မှု	-10.3881
▁အလုပ်လုပ်ခဲ့	-10.3885
လူမျိုးများ	-10.3885
▁အလိုရှိ	-10.3894
▁သို	-10.3898
▁တွဲ	-10.3901
▁အလှည့်ကျ	-10.3913
▁ထုတ်ပြန်ကြေငြာ	-10.3916
၀ဝ၀	-10.3923
ဖြစ်သူ	-10.3924
▁ကဗျာ	-10.3924
▁ပက်သက်	-10.3925
▁တွေ့ရှိခဲ့ရ	-10.3928
▁လက်ဝဲ	-10.3932
▁ဆူ	-10.3936
ွာ	-10.3938
▁သတ္တု	-10.3938
▁ဝတ်ဆင်ထား	-10.3946
▁သတ်မှတ်ခဲ့သည်	-10.3948
တစ်ဦး	-10.3948
ထိန်းသိမ်းရေး	-10.3952
▁ဆိုလိုသည်	-10.3957
▁သည့်	-10.3961
▁ကန့်သတ်ထား	-10.3968
▁ပရိတ်သတ်	-10.3983
▁ဝေါ	-10.3991
ဝှမ်း	-10.3994
▁ဆင်ခြေဖုံး	-10.3996
ပေါ့	-10.3997
▁ဘရ	-10.4002
ရှိသူများ	-10.401
▁ရပ်နား	-10.4013
▁ခွဲခြား	-10.4015
▁ရင်ဆိုင်ရ	-10.4022
▁နိမ့်	-10.4026
သင်္ဘော	-10.4031
နေ့က	-10.4035
ရှာ	-10.4039
▁အယ်လ	-10.4056
▁အတိတ်	-10.4064
▁အတု	-10.4068
▁မှန်	-10.407
▁ကျေးရွာ	-10.4071
▁ပရဟိတ	-10.4071
▁မလေးရှား	-10.4071
▁ကီဗင်	-10.4071
▁အလေးချိန်	-10.4071
▁စွမ်းဆောင်ရည်	-10.4072
▁တရား၀င်	-10.4072
▁အိုဟိုင်း	-10.4072
▁နွေဦး	-10.4072
▁တစ်ကိုယ်တော်	-10.4073
▁တပ်မှူး	-10.4074
▁ရီပတ်ဘလစ်ကန်	-10.4074
▁လူအများ	-10.4076
▁ရေနံဆီ	-10.4077
ဆေးရွက်ကြီး	-10.4077
▁အစ်ကို	-10.4079
▁ဆင်တူ	-10.408
စံသတ်မှတ်ချက်	-10.408
▁ကောင်းကင်	-10.4081
▁ခွဲခြမ်းစိတ်ဖြာ	-10.4082
▁ပိုက်လိုင်း	-10.4083
▁ဒါ့အပြင်	-10.4083
▁သက်ရှိ	-10.4083
▁သက်ဆိုင်ရာ	-10.4084
▁မတူညီ	-10.4084
▁လေတိုက်နှုန်း	-10.4085
▁မိမိကိုယ်ကို	-10.4087
▁ဟန်	-10.4088
သံ	-10.4088
▁၁၉၉၅	-10.4089
▁ဘုတ်	-10.4089
▁တောင်တန်း	-10.409
▁ထင်ရ	-10.4092
▁သိရ	-10.4092
▁တိရိစ္ဆာန်	-10.4093
▁အာဏာသိမ်း	-10.4094
▁မြို	-10.4095
▁ရှည်လျား	-10.4097
▁အထဲ	-10.4102
▁စာမေးပွဲ	-10.4113
တွဲ	-10.4117
▁ဦးတည်ချက်	-10.4119
▁ဆန့်ကျင်	-10.4121
က်ဖြစ်ရုပ်ကြွင်း	-10.4125
တုန်းက	-10.413
▁နှစ်မျိုး	-10.4131
လူ	-10.4133
▁အထိမ်းအမှတ်	-10.4134
▁တစ်ဝှမ်း	-10.4137
▁စုံစမ်းမေးမြန်း	-10.4142
▁မည်သည့်	-10.4143
▁စမ်းသပ်ချက်	-10.4144
▁ဘာသာစကား	-10.4146
▁မန်နီ	-10.4148
▁စွန့်ပစ်	-10.4153
▁ခရီးသည်တင်	-10.4159
ော့ခ်	-10.4159
ူရီ	-10.4164
▁သိုလှောင်	-10.4165
▁ပြင်ဆင်ချက်	-10.4169
▁သလဲ	-10.4172
▁ရောင်းချမှု	-10.4173
▁မြင်ရ	-10.4174
▁ခွဲစိတ်မှု	-10.4175
သမိုင်းဝင်	-10.4183
ပတ်သက်ပြီး	-10.4187
▁ကြိုး	-10.4203
▁ဟက်	-10.4203
▁အဟောင်း	-10.4205
က်ဖ်	-10.4207
▁အရေး	-10.4211
▁ရုပ်	-10.4212
▁ရိုက်ကူး	-10.4212
▁ဆန္ဒပြသူများ	-10.4212
▁လမ်းလျှောက်	-10.4213
▁ပြင်ဆင်ခြင်း	-10.4214
▁ရှိနေသော	-10.422
▁ဝေဖန်ချက်	-10.4234
▁ရီ	-10.4235
▁ဂေါ့	-10.4236
င်းနစ်	-10.4236
▁သမျှ	-10.4245
ရပ်စ်	-10.4247
▁ခေါ်ယူ	-10.4247
▁စသည့်	-10.4249
▁ပြောကြားခဲ့ပါ	-10.4259
သေးပါ	-10.426
▁ကန်ချက်	-10.427
▁ကမ္ဘာမြေ	-10.4289
▁သတိပေးခဲ့	-10.4291
▁ဆောင်း	-10.4292
ဖြစ်ခဲ့	-10.4295
ပိုင်ခွင့်	-10.4295
▁ရောက်လာ	-10.4302
ြီးမားသော	-10.4303
▁တည်ရှိနေ	-10.4306
▁ထောင့်	-10.4308
▁ဖမ်းမိ	-10.4308
▁အစု	-10.4309
▁၄၃	-10.431
▁ထို့ကြောင	-10.4315
▁ဘာတွေ	-10.4316
ရေးအဖွဲ့	-10.4329
တပ်ဖွဲ့	-10.4329
▁ထိန်းချုပ်ထား	-10.434
▁မယ်	-10.4345
▁တစ်နေရာ	-10.4345
တိ	-10.4348
▁သက်ရောက်	-10.435
ရီနာ	-10.4352
အယ်လ်	-10.4356
▁အကူအညီပေး	-10.4366
ဖာ	-10.4367
ုပ်	-10.4375
▁ဗီ	-10.4385
ပြောဆိုသည်	-10.4387
▁အာမက်	-10.4388
ဂျန်	-10.4401
▁အစီစဉ်	-10.4402
ယန်	-10.4417
အတွင်းသို့	-10.4419
▁တဆင့်	-10.4424
▁စုဝေး	-10.4424
▁တိုင်းတာ	-10.4426
ကျွမ်းကျင်သူများ	-10.4435
▁လီယွန်	-10.4437
ရှင်းလင်း	-10.4441
▁လွယ်ကူ	-10.4444
▁အာဖကန်	-10.4447
▁ပေးပို့ခဲ့	-10.4449
▁သေဆုံးခဲ့ရ	-10.445
ဘို	-10.4452
စောင့်ရှောက်ရေး	-10.4455
▁နို့	-10.4455
မြို့တော်	-10.446
▁တောင်းခံ	-10.446
▁တတ်	-10.4462
▁စိတ်ပျက်	-10.4467
နေတာ	-10.4469
▁ဆိုလို	-10.4479
▁ရွေး	-10.4491
▁ပူတ	-10.45
▁နိမ့်ကျ	-10.4503
▁ဘဲလ်	-10.4514
▁ဆောင်ရွက်ခြင်း	-10.4516
▁အသိ	-10.4526
▁ပြန်ပေးဆွဲ	-10.4531
▁အတ	-10.4531
▁ကွယ်လွန်ခဲ့	-10.4534
▁ပြောပြ	-10.4536
▁ဂျူရီလူကြီး	-10.4538
▁ဂါ	-10.454
▁ဆီမှ	-10.4552
▁ရည်ရွယ်ချက်များ	-10.4556
▁လုပ်နိုင်	-10.4562
▁စိန်ခေါ်မှု	-10.4566
▁စီစဉ်နေ	-10.4568
▁ကြိုဆို	-10.4568
လာခဲ့	-10.4568
▁မဖြစ်	-10.4568
၆၀ဝ	-10.457
▁ကွန်း	-10.457
▁ခိုင်မာ	-10.4579
ဖြစ်ရပ်	-10.4581
ခဲ့ပြီးဖြစ်	-10.4582
ဖုန်း	-10.4584
▁ညစ်ညမ်း	-10.4586
▁ဘား	-10.46
▁မကြာသေးခင်	-10.4602
▁မျှော်လင့်ရ	-10.4603
▁လုပ်ဆောင်ပေး	-10.4603
▁မက်ကိ	-10.4604
ရှိသည့်	-10.4606
▁ပုံနှိပ်ထုတ်ဝေ	-10.4607
▁၅၀ဝ	-10.4612
▁တစ်စုံ	-10.4613
▁ခြေ	-10.4615
စည်းကမ်းများ	-10.4627
▁ချထား	-10.4629
▁တွေ့ဆုံဆွေးနွေး	-10.4642
▁မှတ်တမ်းတင်ထား	-10.4646
န်ဒါ	-10.4647
ကျွန်း	-10.4649
ရောက်	-10.4655
▁ပွင့်လင်း	-10.4657
▁သတိပေးခြင်း	-10.4661
▁လိပ်	-10.4663
▁ရုပ်သိမ်း	-10.4663
▁မွေးဖွားခဲ့	-10.4663
အထိ	-10.4665
ဟွာ	-10.4672
▁အလုပ်များ	-10.4674
▁လုပ်အားခ	-10.4682
▁ထိတွေ့	-10.4686
▁ဆေးလိပ်	-10.4687
▁ရှုပ်ထွေး	-10.469
▁ရှိသူ	-10.4693
▁ချီးကျူး	-10.4694
▁တစ်ခါတစ်ရံ	-10.4696
▁အလွယ်တကူ	-10.4696
▁အဓိကရုဏ်း	-10.4696
▁အသေအချာ	-10.4696
▁မူဆလင်	-10.4696
▁ဆွေမျိုး	-10.4696
▁မော်တော်ကား	-10.4696
▁အလုပ်အမှုဆောင်	-10.4696
▁မိုးရေချိန်	-10.4696
▁ညာဘက်	-10.4697
▁ခန့်	-10.4697
▁ကမ္ဘာတစ်ဝှမ်း	-10.4697
▁ဖန်လုံအိမ်	-10.4697
▁ယခုလက်ရှိ	-10.4697
▁အာမေးနီးယား	-10.4697
▁ဂျူလိုင်	-10.4697
▁အစ္စလာမ်မစ်	-10.4697
▁ဖာနန်ဒို	-10.4698
▁အဆောက်အဉီ	-10.4698
▁ဝါရင့်	-10.4699
▁အဆိုတော်	-10.47
▁အကျိုးကျေးဇူး	-10.4704
▁ကြောက်ရွံ့	-10.4705
▁တော်တော်လေး	-10.4707
▁အဖွင့်	-10.4707
▁ဘေ့စ်ဘော	-10.4708
▁မော်တော်ယာဉ်	-10.4708
▁မိုင်းတွင်း	-10.4708
▁ရုပ်သံလိုင်း	-10.4709
▁ပင်လယ်က	-10.4709
▁ရုပ်ပုံ	-10.4709
▁အစိမ်းရောင်	-10.4709
▁၆၀၀	-10.471
▁ဆိုင်ကလုန်း	-10.471
▁လက်ဆောင်	-10.471
▁အညွှန်း	-10.4711
▁စုံတွဲ	-10.4712
မူ	-10.4713
▁သိမ်းပိုက်	-10.4713
၄၇	-10.4714
▁ကြမ်းတမ်း	-10.4717
▁ဂျူးလူမျိုး	-10.4717
▁လိုငွေ	-10.4721
▁ဆိုးဝါး	-10.4722
▁အီလီနွိုက်	-10.4723
▁ထောက်ပြခဲ့	-10.4723
▁ဘန်	-10.4726
ခြား	-10.4727
▁ယူနစ်	-10.4729
▁ဘလူး	-10.4731
▁တစ်ဉီး	-10.4732
▁ဌာနခွဲ	-10.4733
လုပ်ထုံးလုပ်နည်း	-10.4736
▁ကိုယ်ထိလက်ရောက်	-10.4736
▁ပြီးခဲ့	-10.4736
▁လုပ်ငန်းခွင်	-10.4741
ဒဗလျူ	-10.4744
▁ရေကြီးမှု	-10.4744
▁နီးစပ်	-10.4745
▁မကြာမီက	-10.4747
ူလာ	-10.4748
ကြား	-10.4749
ထွက်ဆိုချက်	-10.475
▁ဘာသာရပ်	-10.4751
▁ဖြစ်ပေါ်ခဲ့	-10.4752
ဗီ	-10.4752
▁လေးစားမှု	-10.4755
▁ပြောင်းလဲခြင်း	-10.4761
▁ပျက်ကျ	-10.4765
▁တကယ့်	-10.4767
▁မြင်ခဲ့	-10.4769
▁ခန်းမ	-10.4773
▁သက်သာ	-10.4777
ရက်စ်	-10.4782
▁ဆိုသူ	-10.4786
▁လွတ်လပ်	-10.4789
▁နေစဥ်	-10.4803
စကား	-10.4803
▁မာ့ခ်	-10.4808
▁အပေါက်	-10.4808
ချူပ်	-10.481
▁ဖွံ့ဖြိုးမှု	-10.4813
▁အဖြစ်သို့	-10.4822
▁တစ်ချိန်တည်း	-10.4822
▁ကောက်ချက်ချခဲ့	-10.483
▁စန်	-10.4832
▁၁၉၅	-10.4833
ရုစလင်	-10.4841
▁၁၃၀	-10.4841
▁သုံးစွဲမှု	-10.4848
▁ခွဲထွက်ရေး	-10.4853
▁စီးဆင်း	-10.4854
▁ကျောက်တုံး	-10.4858
ကလပ်	-10.4858
▁ခွင့်ပြုခြင်း	-10.4863
ဖွဲ့စည်းထားသော	-10.4881
▁ထွက်ခွာခဲ့	-10.4885
ူများ	-10.4888
▁စိုက်ပျိုး	-10.4888
ရေ့စ်	-10.489
▁ဖြန့်ချီ	-10.4891
ကြာ	-10.4893
▁ထင်မြင်ချက်ပေး	-10.4894
▁ချိန်တွင်	-10.4894
▁ခါ	-10.4897
နှင့်သက်ဆိုင်သ	-10.4905
▁ဘာကာ	-10.4909
▁အက	-10.491
ပညာရှင်များ	-10.4914
▁စောင့်	-10.4916
▁အိတ်စ်	-10.4919
▁တပ်ရင်း	-10.4922
▁အာကာသယာဉ်	-10.4925
▁စည်	-10.4926
▁၀င်	-10.4929
ဆုံးရှုံးမှု	-10.4932
▁တိုင်းတာမှု	-10.4933
▁ဖြေရှင်းချက်	-10.4934
▁ပြင်ဆင်ထား	-10.4937
ရထားလမ်း	-10.4938
စာအုပ်	-10.4943
သမျှ	-10.4944
▁ငှက်	-10.4948
ဒီအက်ဖ်	-10.4951
နိုင်ခဲ့	-10.4953
▁ရရှိသော	-10.4961
းဆုံး	-10.4967
▁နီ	-10.498
ချမ်းသာခွင့်	-10.4982
▁အသုံးပြုနိုင်	-10.4994
ပို့	-10.4999
▁ပြောဆိုခြင်း	-10.5001
▁လယ်ယာ	-10.501
▁ပြုမူ	-10.5014
ာ့စ်	-10.5015
▁စတင်ဆောင်ရွက်	-10.5022
▁ပိုင်ရှင်များ	-10.5039
ဇိုင်း	-10.5044
▁ဂျီအန်	-10.5054
▁ဂျူ	-10.5065
ီယာ	-10.507
▁ပြုတ်ကျ	-10.5078
▁ပါရှိ	-10.508
▁ဟေး	-10.5082
ဘောလုံး	-10.5084
ဗန်	-10.5087
▁ဖမ်းဆီးခဲ့	-10.5093
▁သူတို့က	-10.5098
▁စီမံခန့်ခွဲရေး	-10.5099
ဂရိတ်	-10.5109
▁မျှော်မှန်းထား	-10.5119
▁ရဲအရာရှိ	-10.5125
▁ညှိုနှိုင်း	-10.513
▁နာ	-10.5135
ကျူ	-10.5142
စာတမ်း	-10.5149
▁လေ့ကျင့်	-10.5154
▁စီစဉ်ထားသည်	-10.5156
▁အေအိုင်	-10.5158
▁မကြာခင်	-10.5158
ကုထုံး	-10.5159
▁ဖြစ်ကောင်းဖြစ်	-10.5159
▁အော	-10.5161
▁သတ်ခဲ့သည်	-10.5162
▁ခန့်မှန်းထား	-10.5164
▁ဆွဲထုတ်	-10.5171
▁ခွင့်ပြုပေး	-10.5183
▁ဝုဒ်	-10.5184
မက်	-10.5186
ကျော်	-10.5186
သွားလိမ့်မည်	-10.5188
ထ	-10.5193
▁မြင်ခဲ့သည်	-10.5195
ဥပဒေ	-10.5195
▁မအောင်မြင်ခဲ့	-10.5196
▁ဝီကီပီဒီယာ	-10.52
▁အရင်က	-10.5202
ချောင်း	-10.5204
▁စီးနင်း	-10.5216
▁စားသုံးသူ	-10.5222
▁ဗန်	-10.5224
▁အဆိပ်	-10.5232
လုပ်ဆောင်	-10.5246
▁၄၉	-10.5256
▁မလုပ်	-10.5258
စန်	-10.5259
▁တစ်လက်	-10.526
သောအခါ	-10.5262
▁ဂရ	-10.5264
▁ထို့	-10.5272
ပြည့်စုံသော	-10.5277
ဝန်ကြီးဌာန	-10.5279
အလုပ်	-10.5291
မည်ဖြစ်	-10.5293
▁ကန်န	-10.5295
▁ဟားမတ်စ	-10.5298
▁တူး	-10.5304
▁သူလျှို	-10.5304
▁ဂိုဏ်း	-10.5317
▁၆၆	-10.5319
▁အဆောက်အဦ	-10.5331
▁ပိုက်	-10.5332
နေထိုင်သူ	-10.5339
▁ဖြစ်စေသော	-10.534
▁ကစားခဲ့	-10.5342
▁ဖမ်းဆီးမှု	-10.5347
▁ခင်ပွန်း	-10.5363
▁ပဏာမ	-10.5363
▁အီလက်ထရောနစ်	-10.5363
▁အလိုအလျောက်	-10.5363
▁ဘယ်လ်ဂျီယံ	-10.5363
▁ရှန်ဟိုင်း	-10.5363
▁မီးလောင်ကျွမ်း	-10.5363
▁ဗီယက်နမ်	-10.5363
▁တိုကျို	-10.5363
▁စံနှုန်း	-10.5364
▁လူနာတင်ယာဉ်	-10.5364
▁အနက်ရောင်	-10.5365
ဒိုင်အောက်ဆိုဒ်	-10.5365
လှ	-10.5367
▁လျှပ်စစ်ဓါတ်အား	-10.5367
▁ရိုးရာ	-10.5368
▁သပိတ်	-10.5368
▁မန်ဒဲ	-10.537
ဂျီဒီပီ	-10.537
▁သတင်းစကား	-10.5371
▁နှစ်စင်း	-10.5372
▁အရေးကြီးသည်	-10.5372
▁စာပို့	-10.5373
▁တစ်ဝန်း	-10.5375
▁ကုန်စည်	-10.5375
▁သင်္ကေတ	-10.5375
▁ဆာကိုဇီ	-10.5375
▁ရှေးရိုးစွဲ	-10.5375
▁ပတ်ပတ်လည်	-10.5375
▁ကုန်းမြေ	-10.5375
▁ဓာတ်ခွဲခန်း	-10.5376
▁ဟယ်လင်	-10.5377
▁ကင်းဒမ်း	-10.5378
▁သေးငယ်သ	-10.538
▁စိန်ခေါ်	-10.5383
▁ကွင်းစလန်း	-10.5383
▁အသံသွင်း	-10.5385
▁တစ်လ	-10.5386
▁ယူဆချက်	-10.5387
ပြီးသော	-10.5388
▁ဝီကီလိ	-10.539
▁ဟက်ဂ	-10.5397
ပုဒ်	-10.5398
▁ကမ်းလှမ်းချက်	-10.5399
တူး	-10.5403
▁ဖြန့်ဖြူး	-10.5404
▁ဝေးကွာ	-10.5404
▁ဖိလစ်	-10.5406
▁နေရောင်ခြည်	-10.5407
တာပါ	-10.5408
▁သတ္တဝါ	-10.5409
▁ကျွန်းစု	-10.541
▁အနားယူ	-10.5413
▁မြန်မြန်	-10.5414
▁တက်ဆက်	-10.5416
▁အားနည်းချက်	-10.5417
ပြောင်းလဲမှုများ	-10.5423
▁ဒဲလ်	-10.5423
▁စရိတ်	-10.5424
ကြာကြာ	-10.5426
ိုတို	-10.5427
▁သုံးပုံ	-10.5432
နစ်	-10.5435
တိုက်ခိုက်	-10.5447
▁ဗျူရ	-10.5451
▁ဇယား	-10.5451
▁ခရစ်ယာန်ဘုရား	-10.5454
▁တီဗီ	-10.5461
▁အာရုံ	-10.5463
▁ထိုး	-10.5471
သလား	-10.5472
▁သွားလာ	-10.5476
▁ယောက်ျား	-10.5478
တောင်း	-10.548
▁သေကြောင်းကြံစည်	-10.5481
မှာဘဲ	-10.5483
ဖြစ်သည့်	-10.5483
က်ကာ	-10.5492
▁အယူခံဝင်	-10.5492
▁စမ်းသပ်ခြင်း	-10.5496
▁ရေယာဉ်	-10.5498
▁မိုဘိုင်း	-10.5501
▁၉၉	-10.5501
▁သတင်းပို့ခဲ့	-10.5505
▁တာဝန်ယူမှု	-10.5507
▁သုံးစွဲခြင်း	-10.551
▁ဖယ်ရှားခြင်း	-10.5513
▁င	-10.5518
▁ကျယ်ပြန့်	-10.5519
▁ထိပ်	-10.552
▁မဲဆွယ်စည်းရုံး	-10.552
ခံရသူ	-10.5526
▁ဖြစ်ပျက်	-10.5529
ခန့်	-10.5533
▁လေးယောက်	-10.5542
▁တော်တော်	-10.5544
▁အီးစီ	-10.5548
အချင်းချင်း	-10.5552
▁ဂရမ်း	-10.5553
▁မင်နီဆို	-10.5554
နေကြတယ်	-10.5555
▁သတိထား	-10.5558
▁ဆက်သွယ်ခဲ့	-10.5559
▁ဦးဆောင်နေ	-10.5562
၂၈	-10.5566
▁သတိ	-10.557
းလ်	-10.558
▁ပတ်သက်ပြီး	-10.5582
▁အဲလက်စ်	-10.5583
စောင့်ရှောက်	-10.5587
လျှံ	-10.5589
▁ထရပ်	-10.5591
▁ပျက်စီးခြင်း	-10.5592
▁ပေးလိမ့်မည်	-10.5596
မည့်	-10.5598
▁ရှုံးနိမ့်ခဲ့	-10.5606
လွှတ်တော်	-10.5612
▁စစ်ဆေးမေးမြန်း	-10.5613
▁လေ့လာချက်	-10.5615
▁ချီ	-10.5615
▁သယ်ဆောင်လာ	-10.5621
▁နောက်ခံ	-10.5622
▁အလေးအနက်ထား	-10.5625
▁ချိတ်ဆက်မှု	-10.5626
▁လယ်	-10.5628
▁ဆရာများ	-10.5631
▁ဒီမှာ	-10.5634
အချက်အလက်များ	-10.5636
နိုင်မယ်	-10.564
ာရီ	-10.5644
▁ဝါဒ	-10.5652
▁မှတ်ပုံတင်	-10.5672
ဖြတ်၍	-10.5681
ကြိုး	-10.5684
▁၃၆၀	-10.5689
ခရီး	-10.5693
▁ဖြစ်ပွားစေ	-10.57
▁ဆက်ပြော	-10.5707
▁မှတ်တမ်းတင်ခဲ့	-10.571
▁အတည်ပြုပြောကြား	-10.5711
▁ပီအမ်	-10.5712
▁ထောက်ပံ့ခြင်း	-10.5712
ပေမဲ့	-10.5718
▁ထောက်ပံ့သူ	-10.5724
ဥ်	-10.573
▁ခေါ်ဆောင်	-10.5743
▁အရောင်း	-10.5746
▁တက်ရောက်ခဲ့သည်	-10.5747
▁အထောက်အကူပြု	-10.5748
မဟုတ်ပါ	-10.5751
▁ထောက်ပံ့ရေး	-10.5754
သည့်အတွက်	-10.5757
စောင့်	-10.5765
ဗစ်	-10.5767
▁ဆက်ဆံ	-10.5769
▁တစ်ကမ္ဘာလုံး	-10.5777
▁အိုင်ပီ	-10.5779
▁၁၉၃	-10.5786
▁ဟိုက်	-10.5786
တွေကို	-10.5787
▁ပိုး	-10.579
▁ထုတ်ဝေခဲ့သည်	-10.5791
ယ်လာ	-10.5791
သတင်းစာ	-10.5797
▁ထောက်ပြ	-10.5799
▁ရိုက်ခတ်	-10.58
▁ရေကူးက	-10.5801
▁ကူးယူ	-10.5803
အဲလ်	-10.5803
▁စံ	-10.5804
ခရီးစဉ်	-10.5808
အိုအယ်လ်	-10.5812
အုပ်စု	-10.5813
ဝဲလ်	-10.5814
▁ဟော့ဝ	-10.5814
ုန်း	-10.5814
လိမ့်မည်မဟုတ်	-10.5818
▁တွေ့မြင်	-10.5843
▁လိုက်ပါ	-10.5845
စ်စတာ	-10.5855
▁ပရို	-10.5858
▁အထောက်အကူ	-10.5871
ဖွဲ့	-10.5871
▁ပျက်ဆီး	-10.5872
▁တည်ဆောက်မှု	-10.5875
▁ပံ့ပိုးပေး	-10.5876
▁အသက်မွေးဝမ်းက	-10.5876
▁အမြင်များ	-10.5884
▁ရေးဆွဲ	-10.5896
ဂျေ	-10.5897
ီဒါ	-10.5904
▁ကြိုးမဲ့	-10.5909
▁အကြံပြုချက်	-10.5917
▁ခွင့်ပြုထား	-10.5918
ယ်ရီ	-10.5919
▁အပြစ်ရှိ	-10.5921
လာမည့်	-10.5922
ကြသော	-10.5923
▁ပြီးဆုံးခဲ့	-10.5928
▁မစ်စတ	-10.5945
▁၁ဝ	-10.5949
▁ဒိုင်	-10.5949
▁တင်ခဲ့သည်	-10.595
▁ဇီဝ	-10.5959
ပေါ်တွင်	-10.597
▁အလားအလာရှိ	-10.5976
့ကိုယ်သူ	-10.5977
▁လျှော့ချမှု	-10.5979
▁မှတ်ချက်ပေး	-10.5981
▁ထင်မြင်	-10.5984
▁ဖွံ့ဖြိုးတိုးတ	-10.5984
▁အဖွဲ့၀င်	-10.5985
▁နုတ်ထွက်	-10.5992
စဥ်	-10.5995
▁ဖျက်ဆီးခဲ့	-10.5997
▁စောင့်ရှောက်	-10.5999
▁အိုင်အီး	-10.6003
ကြပါ	-10.6014
ခေါင်း	-10.6025
▁ဝန်ကြီးများ	-10.6027
ကုန်	-10.6028
▁အပ	-10.6041
▁သုံးခြင်း	-10.6045
▁ပီစီ	-10.6045
▁အစီရင်ခံတင်ပြ	-10.6051
▁လက်အောက်ခံ	-10.6051
▁ယူဆရ	-10.6054
▁ဟောင်	-10.6056
၁၈	-10.6064
▁ဗိုင်းရပ်	-10.6072
တစ်ကောင်	-10.6075
▁စင်္ကာပူ	-10.6077
▁ပလတ်စတစ်	-10.6077
▁မိုးလေ၀သ	-10.6077
▁အဏုမြူ	-10.6077
▁ကိုယ်ရေးကိုယ်တာ	-10.6077
▁ဖေဖေါ်ဝါရီ	-10.6077
▁လေဆင်နှာ	-10.6077
▁တိုရွန်တို	-10.6077
▁အိပ်ချ်အိုင်ဗွီ	-10.6077
▁အလျင်အမြန်	-10.6077
▁ဆိုရှယ်လစ်	-10.6077
▁ရေငုပ်သင်္ဘော	-10.6077
▁အလှူရှင်	-10.6078
▁ပြဇာတ်	-10.6078
တတ်သည့်	-10.6078
▁အလေ့အကျင့်	-10.6078
▁အိမ်ထောင်စု	-10.6079
▁လူဝင်မှု	-10.6079
▁အကြီးစား	-10.6079
▁ယူကျူ့	-10.608
▁မိမိတို့	-10.608
▁အရှေ့တောင်	-10.608
▁လျှင်မြန်စွာ	-10.6082
▁သားကောင်	-10.6084
▁လူသတ်သမား	-10.6084
▁မှုခင်း	-10.6086
▁ဘရိုင်ယန်	-10.6086
▁ဒိုနာ	-10.6086
▁တစ်နိုင်ငံလုံး	-10.6087
▁တစ်ဆယ်	-10.6089
▁စတိုးဆိုင်	-10.609
▁တရားခွင်	-10.609
▁ဒိန်းမတ်	-10.609
▁အပြင်းထန်	-10.6091
▁ကမ္ဘာ့ဖလား	-10.6091
▁လူနည်းစု	-10.6091
▁အာဏာရှင်	-10.6092
▁တိုင်ပင်	-10.6092
▁ယာဉ်တိုက်မှု	-10.6092
▁ပြန်လည်ဆန်းစစ်	-10.6093
▁လျို့ဝှက်	-10.6093
▁ချိတ်ဆက်ထား	-10.6094
▁ညွှန့်ပေါင်း	-10.6094
▁ဖျက်ဆီးခြင်း	-10.6095
▁မူဂ	-10.6095
▁ကျော်ကျော်	-10.6096
▁ချဲ့ထွင်	-10.6096
▁ဖြုတ်ချ	-10.61
▁ပြစ်မှုဆိုင်ရာ	-10.61
▁ကြာရှည်	-10.6101
▁တစ်ဦးချင်း	-10.6101
▁လက်မောင်း	-10.6101
ရဲ	-10.6103
▁ထင်မြင်ယူဆချက်	-10.6104
ပမာဏ	-10.6107
▁ကယ်ဗင်	-10.6109
▁ကျင့်သုံး	-10.611
▁ဘုန်းတော်ကြီး	-10.6111
▁ရှင်းလင်းစွာ	-10.6113
▁ရာစုနှစ်	-10.6113
ဝ၀	-10.6122
▁ညွှန်ကြားချက်	-10.6123
▁အမွေအနှစ်	-10.6125
▁ဦးဆောင်ခဲ့	-10.6125
▁တာဝန်ရှိသည်	-10.6126
▁ချီးမြှင့်	-10.6128
▁ရံပုံငွေ	-10.6129
▁ဆွဲဆောင်	-10.613
ဇုန်	-10.6132
၄၅	-10.6137
အရှိဆုံး	-10.6139
ပန်း	-10.614
▁စတိတ်	-10.6143
▁နှင်ထုတ်	-10.6147
▁အပြစ်ပေး	-10.6149
▁ဆာရာ	-10.6149
▁ဝေါ့	-10.6155
ပြောရေးဆိုခွင့်ရ	-10.6158
▁ရောမ	-10.6165
▁ဂုဏ်ယူ	-10.6167
▁ဂစ်	-10.6169
ဖြန်	-10.6186
▁ခုံရုံး	-10.6188
▁စီဒီ	-10.6189
▁ရှင်းလင်းချက်	-10.619
▁သဘောတူညီ	-10.6197
▁ရှေး	-10.6201
တမ်း	-10.6202
▁မြင်းများ	-10.6205
ဟမ်	-10.6216
▁လူသိများသ	-10.6217
နိုင်ဘူး	-10.6219
▁မသိရသေး	-10.622
▁တာဝန်ရှိသော	-10.6228
▁ရသည်	-10.6231
▁ကြေး	-10.6233
▁တည်ဆောက်ခြင်း	-10.6233
▁မွေးဖွား	-10.6235
▁ဗိုလ်	-10.6242
▁လက်ခံခဲ့	-10.6245
လမ်	-10.6245
ကေ	-10.625
▁ပြန်ပေး	-10.6252
▁ဗဟိုအစိုးရ	-10.6253
▁တိပ်	-10.6257
▁ရန်သူ	-10.6266
▁နှေးကွေး	-10.6273
▁ရရှိထား	-10.6274
▁မရရှိ	-10.6284
အက်ဖ်ဒီအေ	-10.6288
▁ပြန်လည်စတင်	-10.6288
က်ကြား	-10.6289
▁မလုပ်နိုင်	-10.629
▁လေ့ကျင့်မှု	-10.6292
ခြင်းခံရ	-10.6292
▁အရည်	-10.6296
▁အပင်	-10.6303
ာအို	-10.6306
▁၅၆	-10.631
▁သမ္မတနိုင်ငံ	-10.631
▁နောင်	-10.6311
အကြမ်းဖက်ဝါဒ	-10.6314
▁ထုတ်လုပ်ရေး	-10.6314
▁ခရို	-10.6315
▁ပြသသည်	-10.6323
▁လန်	-10.633
▁ဘာကို	-10.6337
ခဲ့ကြတယ်	-10.634
ီလာ	-10.6345
ထက်	-10.6351
▁တိုက်ပွဲဝင်	-10.6356
▁လဲကျ	-10.6365
ကပ်	-10.6374
နေစဉ်	-10.638
▁ပြင်	-10.639
▁အသား	-10.6394
▁လေယာဉ်ပျက်ကျ	-10.6397
▁စီစဉ်ခဲ့	-10.6399
ဆွေးနွေး	-10.64
▁ယိုစိမ့်	-10.6404
▁လောင်	-10.6406
▁အတားအဆီး	-10.6406
ပြောခဲ့သည်	-10.6406
▁ထားသည်	-10.6413
▁ကစားသမားများ	-10.6416
▁ပြတ်တောက်	-10.6416
လှုပ်ရှားမှု	-10.6416
ဆက်သွယ်ရေး	-10.6417
▁သတ်ခဲ့	-10.6423
ဒေါ်လာ	-10.6428
▁စုံစမ်းစစ်ဆေးသူ	-10.6441
▁အဝတ်အစား	-10.6445
ဖြစ်စဉ်	-10.6456
စတိန်း	-10.6457
ဖောင်းပွမှု	-10.6461
▁လေ့လာရေး	-10.6461
▁အလို	-10.6464
▁ရည်ရွယ်သည်	-10.6468
▁စီအိုင်အ	-10.6471
▁လာသည်	-10.6475
ကိုယ်စားလှယ်	-10.6479
ီနို	-10.649
မဟုတ်ဘဲ	-10.6491
▁ထပ်ခါ	-10.6493
▁အဲလစ်	-10.6494
▁ဘာလီ	-10.6497
▁ပြီးစီး	-10.65
▁အရန်	-10.6505
▁ဆေးဝါးများ	-10.6506
▁မေတ္တာရပ်ခံ	-10.6512
▁အကျိုးရှိ	-10.6518
▁သယ်ယူ	-10.6519
▁ဖန်တီးခဲ့သည်	-10.6521
▁အကြမ်းဖျင်း	-10.6526
ကယ်ဒ	-10.6536
ထောင်	-10.6542
ဖော့	-10.6543
နေကြ	-10.6543
ကြီးကြပ်ရေး	-10.6547
▁ချို့ယွင်း	-10.6547
မြစ်	-10.6552
ခဲ့တာ	-10.6557
▁၁၀၁	-10.656
▁လှိုင်း	-10.6568
▁မှတ်ချက်ချခဲ့	-10.657
▁တင်သွင်းခဲ့	-10.6578
▁တွေ့ဆုံခဲ့သည်	-10.6579
ဂူ	-10.6587
းစ်	-10.6591
းရီးယား	-10.6594
▁ဖျက်စီး	-10.6601
▁အကြံပြုခဲ့	-10.6603
ဟေးလ်	-10.661
ဆန့်ကျင်ရေး	-10.6611
▁စွန့်ခွာ	-10.6611
▁အမ်စီ	-10.6615
▁လက်ထပ်	-10.6618
▁စောင့်ကြည့်ရေး	-10.662
▁ပူနွေး	-10.6622
▁အကြီး	-10.6625
က်ဒ်	-10.6629
တို့ကို	-10.6629
▁ရယူခဲ့သည်	-10.6632
ဖြစ်ကြောင်း	-10.6635
▁ရေးသားခဲ့	-10.6636
▁၈၀၀	-10.6637
▁၂၀ဝ၀	-10.6639
ဗဟို	-10.6653
▁ပြည်	-10.6657
ဗား	-10.6658
▁ဘယ်အရာ	-10.6659
▁ဆုံးရှုံးခဲ့ရ	-10.6664
စွမ်းအင်	-10.6665
▁ဆီယ	-10.6669
▁ကော့	-10.6673
တိုက်ခိုက်ခြင်း	-10.668
▁ရေလ	-10.6683
▁စူပါ	-10.6684
▁ပုံမှန်မဟုတ်	-10.6689
▁ပြန်လည်ရရှိ	-10.669
▁ချဉ်းကပ်	-10.6691
▁နေရာချ	-10.6695
▁၆၈	-10.6697
လောက်သော	-10.6698
▁ဗုံးများ	-10.6703
▁အနောက်တောင်	-10.6708
▁အာမခံချက်	-10.671
▁ဘစ်	-10.6715
▁စီအို	-10.6723
တော်လေး	-10.6727
▁လွန်ကဲ	-10.6737
▁မှတ်သားထား	-10.6738
၉၆	-10.6742
က်လျှောက်	-10.6746
ခံထားရ	-10.6759
▁ဝေဖန်သူ	-10.676
▁နှ	-10.6764
▁မွန်ထရီ	-10.6765
▁တည်းဖြတ်	-10.6772
▁ပေါ်ပေါက်	-10.6775
ဖွံ့ဖြိုးတိုးတက်	-10.6775
▁အလန်	-10.6778
▁အန္တရာယ်များ	-10.6779
▁အာဏာရ	-10.678
▁ရယူခဲ့	-10.6785
ှု	-10.6786
▁ငါးဆယ်	-10.6793
▁နှောင့်ယှက်	-10.6796
ို့စ်	-10.68
▁တုန်း	-10.6804
ဝတ်	-10.6811
▁ဖြစ်ပျက်ခဲ့	-10.6811
▁အဆ	-10.6812
▁စိတ်ချရ	-10.6822
▁မှောင်ခို	-10.6832
ဘော့	-10.6841
▁မျက်လုံး	-10.6841
▁တတ်ရောက်	-10.6843
၁၄	-10.6844
▁မည်သို့	-10.6844
▁စက်ဘီး	-10.6846
▁အပေးအယူ	-10.6846
▁ဘိုးအင်း	-10.6846
▁မုဒိမ်းမှု	-10.6846
▁အကြွင်းအကျန်	-10.6846
▁အဆိုးဝါးဆုံး	-10.6846
▁အင်ဆူလ	-10.6846
▁ကောလဟာလ	-10.6846
▁နည်းဗျူဟာ	-10.6846
▁အိုစမာ	-10.6847
▁တပ်ကြပ်	-10.6847
▁ဂျန်	-10.6847
▁တောင်အာဖရိက	-10.6847
▁စီးကရက်	-10.6847
▁ထိုးစစ်	-10.6847
▁ဂလိုဘယ်	-10.6847
▁သဘောပေါက်	-10.6847
▁ဆိုမာလီယာ	-10.6847
▁အေစီအမ်အေ	-10.6848
▁အေသင်	-10.6848
▁မြင့်မြတ်	-10.6848
▁တက္ကစီ	-10.6849
▁မက္ကဆီကို	-10.6849
▁အဆက်မပြတ်	-10.685
▁အိုင်းရစ်	-10.685
▁ဝီလီယံ	-10.685
▁တန်ပြန်	-10.685
▁ကြံ့	-10.6851
▁၁၉၈၄	-10.6853
▁အပူပိုင်း	-10.6854
▁ရေနံတွင်း	-10.6854
န်နီ	-10.6854
▁ရဟူး	-10.6857
▁နေ့စဥ်	-10.6859
▁အမှုစစ်ဆေးခြင်း	-10.6859
▁အားကစားရုံ	-10.6859
▁ပြန်လည်ထူထောင်	-10.6861
▁တိုးပွား	-10.6861
▁ဇာတ်လမ်းတွဲ	-10.6861
▁ပြဋ္ဌာန်း	-10.6861
▁စင်မြင့်	-10.6861
ါဘီ	-10.6862
▁လှည့်ပတ်	-10.6862
▁ကျွန်တော့်	-10.6865
▁ဝတ္ထု	-10.6865
▁နေသော	-10.6865
▁လမ်းဘေး	-10.6865
▁တရားစီရင်မှု	-10.6866
ဆောင်ရွက်ခြင်း	-10.6866
▁ကနေဒါနိုင်ငံ	-10.6869
▁ပတ်လမ်း	-10.6869
▁နှစ်သင်း	-10.6872
▁ကြီးထွားမှု	-10.6872
▁လေးပုံ	-10.6875
▁ဂေါ	-10.6875
▁ဒီအရာ	-10.6877
▁ဝင်ပေါက်	-10.6879
▁ကာကွယ်မှု	-10.688
▁ဂျီမေးလ်	-10.688
▁အစိုးရရှေ့နေ	-10.6881
▁ကမ်းမြောင်	-10.6882
▁ရေကြီးခြင်း	-10.6884
▁ပန်းချီကား	-10.6885
▁အတည်ပြုချက်	-10.6886
▁ငွေပေးချေမှု	-10.6891
▁ရေဒါ	-10.6893
▁ရှေ့ပြေး	-10.6893
▁စိုးရိမ်ရ	-10.6894
▁ကြီးကျယ်သော	-10.6897
▁ထိခိုက်ပျက်စီး	-10.6897
ာစီ	-10.6898
ဖော်ပြခဲ့သည်	-10.6899
▁ယခုတိုင်	-10.6902
▁ပိတ်ရက်	-10.6903
▁၇၃၇	-10.6903
▁မျှတ	-10.6905
▁ဖြစ်မည်	-10.6908
▁ကြားမှာ	-10.6908
▁ဒို	-10.6909
ဝန်ထမ်း	-10.6911
▁ပက်ထရ	-10.6913
▁အင်အားစု	-10.6913
▁ဘယ်ရီ	-10.6917
▁တရားရေး	-10.6917
▁၂၀၁၃	-10.6926
▁ကစားနည်း	-10.693
▁မှားယွင်းသော	-10.6931
▁အရာရှိချုပ်	-10.6935
▁ထွက်ပေါ်	-10.6936
ကာမူ	-10.6949
▁ထိန်းသိမ်းခံရသူ	-10.695
လော့	-10.6951
းစား	-10.6952
▁အမျိုး	-10.6953
▁ဗီဇာ	-10.6953
▁လမ်းစဉ်	-10.6954
တော့ပါ	-10.6957
ခင်း	-10.696
▁တင်ဆက်မှု	-10.6965
▁ထုတ်လွှတ်ခြင်း	-10.697
▁လွတ်မြောက်မှု	-10.6989
၄၈	-10.6991
ဝဝဝ	-10.6996
▁ဇီဝဗေဒ	-10.6996
▁ရုတ်သိမ်း	-10.6999
▁စတုရန်း	-10.7
▁ပြန်ပေးဆွဲမှု	-10.7004
▁လက်မခံ	-10.7005
▁အလုပ်ရှင်	-10.7018
▁ကျန်ရှိနေသော	-10.7019
ဂီ	-10.7027
▁ကျဆင်းခဲ့	-10.7029
▁ပိုင်ဆိုင်သော	-10.7033
▁ဆန်တာ	-10.7034
▁စွမ်းဆောင်နိုင်	-10.7037
▁သိမ်းဆည်း	-10.7045
▁ကောက်ယူ	-10.7051
ရီယာ	-10.7053
▁ထူးချွန်	-10.7057
▁ခရု	-10.7061
▁မိုင်း	-10.7067
▁ကာတာ	-10.7067
▁မာက	-10.7068
▁ထရီ	-10.7072
ပေးပို့	-10.7078
ဒဏ်ရာရရှိခဲ့သည်	-10.7084
ဲဆွယ်စည်းရုံးရေး	-10.7087
▁ခြံ	-10.7087
▁သတိပြု	-10.7089
▁ပါဝင်သည့်	-10.71
မြေ	-10.7104
▁ပြန်သွား	-10.7105
▁ရွေးချယ်ခဲ့	-10.7106
▁လုပ်ငန်းရှင်	-10.7107
▁ယှဥ်ပြိုင်	-10.7114
▁ဆေးလိပ်သောက်	-10.7116
▁ဇုန်	-10.7117
ရေးဆိုင်ရာ	-10.7119
▁တစ်ရာ	-10.7121
တော့မည်	-10.7123
▁အခြေပြု	-10.7125
တီဗွီ	-10.7126
▁မိမိ	-10.7128
▁ကြိုးပမ်းခဲ့	-10.7133
▁စံချိန်တင်	-10.714
ဇက်	-10.7141
▁ကင်	-10.7143
▁ပါက	-10.715
▁ထုတ်ပြန်သော	-10.715
▁အမ်အက်စ်	-10.7151
▁ငြင်းပယ်ခဲ့သည်	-10.7167
တီစီ	-10.7171
▁ဆက်နွယ်	-10.7174
▁ကျွန်	-10.7174
နေရ	-10.7174
့ခ်	-10.7179
အက်ဖ်ဘီအိုင်	-10.718
▁ဆွေးနွေးခြင်း	-10.7185
▁လင်းန	-10.7187
▁ဆင်းရဲ	-10.7195
▁အဝတ်	-10.7197
▁ပြစ်တင်	-10.7198
▁ပေးပို့ခြင်း	-10.7199
▁လက်မှတ်ထိုး	-10.7199
▁စတိ	-10.72
▁အလောင်းများ	-10.72
▁မေးမြန်းခြင်း	-10.7204
က်မှု	-10.7205
▁အငြိမ်းစားယူ	-10.7217
▁၁၀၀၀	-10.7227
▁၈၂	-10.7229
▁ပြဌာန်း	-10.723
ရူး	-10.7231
▁ထိန်းချုပ်ရေး	-10.7233
▁အပြစ်ဒဏ်	-10.7233
▁ဒုက္ခ	-10.7238
အက်ဖ်	-10.7243
▁ဘန်း	-10.7251
တက္ကသိုလ်	-10.7254
▁စွပ်စွဲခဲ့သည်	-10.7256
▁အသုံး	-10.726
▁လုပ်ဆောင်နေသည်	-10.7261
ဆိုရင်	-10.7263
▁မပေး	-10.7264
▁လှုပ်ရှားသူ	-10.7268
▁ပါတီဝင်	-10.7284
ီတီ	-10.7286
ကင်	-10.7293
▁ဘော်	-10.7295
▁ဖော	-10.7299
ထရက်	-10.7304
▁ဝီလျံ	-10.7308
▁မွန်	-10.7309
▁ဂုဏ်	-10.7321
▁၆၃	-10.7323
▁ပေါ်ထွက်လာသည်	-10.7323
▁ဆက်လက်၍	-10.7327
▁၁၇၀	-10.7329
▁အရေးယူမှု	-10.7332
▁ကျင်းပသော	-10.7334
စတွန်	-10.7337
ျမ်းသာခွင့်	-10.7337
▁ဦးတည်နေ	-10.7339
ရှိမှု	-10.7344
▁အဆိုပြုခဲ့သည်	-10.7346
▁စစ်သည်	-10.7346
ကြီးများ	-10.7352
မှီ	-10.7358
ဝန်	-10.736
▁ရိုင်း	-10.7361
▁ဆောင်ရွက်နေ	-10.7361
▁သတ်ဖြတ်မှု	-10.7367
▁ပေါက်	-10.7369
▁ဆန္ဒရှိသည်	-10.7377
▁အဓိပ္ပါယ်	-10.738
▁မဲပေးခဲ့သည်	-10.7388
▁ထည့်	-10.7395
ာနာ	-10.7398
▁အကြမ်း	-10.7402
▁ပြောခြင်း	-10.7403
ိုနီ	-10.7412
ဖိုင်နယ်	-10.7419
▁မှီခို	-10.7419
ဆိုး	-10.742
▁ဗီလ	-10.7422
ပြီးသား	-10.7426
▁ရည်ရွယ်ခဲ့	-10.7437
ယူခြင်း	-10.7437
နိုင်ပါ	-10.7437
▁ပါဝင်ပတ်သက်	-10.7437
▁မလုံလောက်	-10.744
ကီလိုဂရမ်	-10.7445
တ်ရှ်	-10.745
▁လမ်းဆုံ	-10.7456
▁လူမျိုးစု	-10.7462
▁ပိတ်မိနေ	-10.7465
စာချုပ်	-10.7471
▁ရောက်ရှိနေ	-10.7473
▁လု	-10.7483
ဆွန်	-10.7501
အိပ်ချ်	-10.7511
ဝိုင်း	-10.7512
▁စား	-10.7513
▁ပျက်ကျခဲ့	-10.7514
▁မိုင်ပေါင်း	-10.7516
ွန်း	-10.7518
အညီ	-10.7518
အတွင်းရေးမှူး	-10.7526
ကုလားထိုင်	-10.7531
▁ဝေဖန်ခဲ့	-10.7533
▁သေစေခဲ့	-10.7537
▁ကြောက်မက်ဖွယ်	-10.754
ပညာ	-10.7543
▁စက်ဘီးစီး	-10.7549
▁မှတဆင	-10.7555
▁၁၂၀	-10.7558
▁၂၅၀	-10.7562
ကြေး	-10.757
ခေတ်	-10.7575
ညီ	-10.7575
ြီးဖြစ်သည်	-10.7582
▁ဘိုင်	-10.7584
အမ်အိုင်	-10.759
▁လွတ်ငြိမ်းခ	-10.7591
၂၁	-10.7593
ဉာဏ်	-10.7596
▁မူရှာရက်	-10.7597
▁ကွဲပြားခြားနား	-10.7598
▁အဆုတ်	-10.7599
▁ဆုံးရှုံးခဲ့	-10.7604
ရှိခဲ့သည်	-10.7604
▁ဂွမ်တ	-10.7611
က်ဇ်	-10.7614
▁ဆက်စပ်နေ	-10.7625
▁ဓါတ်	-10.763
တွေ့ရှိချက်များ	-10.7632
▁တိုးတတ်	-10.7633
▁လျင်မြန်	-10.7634
▁မဟုတ်ပေ	-10.7637
▁အဖွဲ	-10.7643
မလဲ	-10.7643
▁အကျော်	-10.7651
သတင်းထောက်များ	-10.7665
ပေးနိုင်သော	-10.7666
▁လက်ဗ	-10.7666
▁တူးဖော်	-10.7675
▁သန်းခေါင်	-10.7677
ေန	-10.7679
▁စနစ်တကျ	-10.7679
ယ်ကျယ်ပြန့်ပြန့်	-10.768
▁စံချိန်စံညွှန်း	-10.768
▁ဆိုဗီယက်	-10.768
▁ဒစ်ဂျစ်တယ်	-10.768
▁မွတ်ဆလင်	-10.768
▁ယူနိုက်တတ်	-10.768
▁သံမဏိ	-10.768
▁အစားအသောက်	-10.768
▁အကြပ်အတည်း	-10.768
▁ဝယ်လိုအား	-10.768
▁မီးရှူးမီးပန်း	-10.768
▁စားသောက်ဆိုင်	-10.768
▁ကျောက်ကပ်	-10.768
▁ဝေလငါး	-10.768
▁ပွိုင့်	-10.768
▁အားလပ်ရက်	-10.768
▁အောက်စဖို့ဒ်	-10.768
▁စတိဗ်	-10.768
▁ဘန်ကောက်	-10.768
▁တိုက်စစ်မှူး	-10.768
▁ပါးစပ်	-10.768
▁ခြေစစ်ပွဲ	-10.7681
▁အတ္တလန္တိတ်	-10.7681
▁ဇီ၀	-10.7681
▁သံတမန်ရေးရာ	-10.7682
▁ဝီကီမီဒီယာ	-10.7683
▁အခြေနေ	-10.7683
▁အတူတူ	-10.7683
▁အငြိမ်းစား	-10.7684
▁အထုပ်	-10.7684
▁ဆဲတစ်	-10.7684
▁တေလာ	-10.7684
▁ခဲ့ပြီး	-10.7687
▁သည့်အခါ	-10.7688
▁ကော်မရှင်နာ	-10.7688
▁ရှစ်ဦး	-10.7688
▁လွန်စွာ	-10.7688
▁သင့်လျော်	-10.7688
▁သိသာစွာ	-10.769
▁ချာလီ	-10.769
▁နှစ်ဦးလုံး	-10.7691
▁ဆော့ဝဲ	-10.7694
▁အစုအဝေး	-10.7694
▁ပိတ်သိမ်း	-10.7694
▁ဟိန္ဒူ	-10.7695
▁ထွက်ပေါက်	-10.7695
▁ညီအစ်ကို	-10.7695
▁အကျိုးစီးပွား	-10.7695
▁လျှပ်စစ်ဓာတ်အား	-10.7696
▁အမေဇုန်	-10.7697
▁၁၉၈၈	-10.7698
▁ယခုထိ	-10.7698
ပ္ပတိ	-10.7699
▁အဆင့်ဆင့်	-10.7704
▁အပတ်စဉ်	-10.7706
▁ကျင်းပမည်	-10.7708
▁အတွင်းရေးမှုး	-10.771
▁ငြိမ်းသတ်	-10.771
▁၅၉	-10.7711
▁လက်ထပ်ခြင်း	-10.7711
တင်း	-10.7712
လုံလုံလောက်လောက်	-10.7713
ဆပ်	-10.7714
ရောင်ခြည်	-10.7714
▁ကာရိုလိုင်းနာ	-10.7716
▁ချန်ထားခဲ့	-10.7716
▁ရိပ်သာ	-10.7717
▁တိုင်းရင်းသား	-10.7717
▁ခလုတ်	-10.7717
▁တည်ဆောက်ရေး	-10.7723
▁ပျက်စီးခဲ့	-10.7724
▁ပြောင်းလဲခဲ့	-10.7725
▁လူမျိုးရေး	-10.7726
▁ပုဒ်	-10.7727
▁မြောက်များစွာ	-10.7727
▁ပေါက်ကြား	-10.7728
▁အပြစ်မရှိ	-10.7733
▁၆၉	-10.7738
▁ယူကာ	-10.7739
▁အမှုကိစ္စ	-10.774
▁ဂူးဂဲ	-10.7745
▁တိုးတတ်မှု	-10.7752
▁ပေါ်က	-10.7754
▁ဧက	-10.7755
▁အကြံပြုထား	-10.7761
▁မိုက်ခရို	-10.7762
ရှိခိုးကျောင်း	-10.7763
▁ဥပဒေရေးရာ	-10.7765
▁စာစောင်	-10.7769
▁စီစဥ်	-10.7771
▁ခွဲဝေ	-10.7772
▁ဖျော်ဖြေမှု	-10.7772
သိမြင်	-10.7772
▁ဆင်းသက်ခဲ့	-10.7774
ရှာဖွေတွေ့ရှိခဲ့	-10.7774
▁""	-10.7775
▁အိပ်ချ်	-10.7775
▁ကြော်ငြာချက်	-10.7776
လုပ်ခြင်း	-10.7778
းယင့်တော်လော်ဂျီ	-10.7778
▁ဟူသ	-10.7782
▁ရော့စ်	-10.7785
▁ထိုးဖောက်	-10.7787
▁ကြမ်းပြင်	-10.7804
▁အမည်ပေးခဲ့	-10.7805
▁သွားရောက်လည်ပတ်	-10.7805
▁ဒီဟာ	-10.7805
▁ယိုစိမ့်မှု	-10.7808
▁အရွယ်ရှိ	-10.7808
▁ပြစ်မှုကျူးလွန်	-10.7808
▁စိုးရိမ်မှုများ	-10.7812
▁ထုတ်ပယ်ခြင်း	-10.7813
▁နေရာချထား	-10.7814
ဗက်သ	-10.7815
▁အမှုန့်	-10.7816
▁ပွဲစဥ်	-10.7819
သတ်မှတ်	-10.7821
▁ဂိုင်း	-10.7824
▁အရေးယူဆောင်ရွက်	-10.7824
▁ထိုဟာ	-10.7828
▁လိဂ်	-10.783
▁တယ်လီကွန်	-10.7832
▁အယ်လ်ဘ	-10.7834
▁လိုအပ်တယ်	-10.7836
▁အမှုန်	-10.7836
▁အခင်းဖြစ်ရာ	-10.7837
▁သေဆုံးခဲ့ပါသည်	-10.7844
▁ဘွန်ဂ	-10.7845
▁ရိုက်စ်	-10.7857
▁ဂုဏ်သိက္ခာ	-10.7858
လိပ်	-10.7861
ပွဲစဉ်	-10.7862
▁တိုက်စစ်	-10.7863
▁ဘုရင်မ	-10.7864
ဇုံ	-10.7867
စတုန်း	-10.7868
▁တိတ်ဆိတ်	-10.7873
်စ်	-10.7878
▁သုတေသနပညာရှင်	-10.788
▁စပေ့	-10.7885
▁ကုန်သည်	-10.7886
▁တောင်ပံ	-10.7886
ဖွံ့ဖြိုးရေး	-10.7887
▁ဗုံးခွဲမှု	-10.7888
▁တွက်ချက်	-10.7892
ကွန်း	-10.7893
▁စွယ်	-10.7895
▁မပါဝင်	-10.7897
▁ဘောလ	-10.7898
▁မလိုအပ်	-10.7899
ပြုလုပ်ခြင်း	-10.7901
▁အတွင်းပိုင်း	-10.792
ကဲ့သို့	-10.792
▁တွန်းအားပေးခဲ့	-10.7925
▁ရိုင်	-10.7925
▁ထူးဆန်း	-10.7926
▁ပြန်ကြား	-10.7928
▁အပြေး	-10.7932
နေပြီ	-10.7952
▁တင်ဆက်	-10.7956
ဘီအိုင်	-10.7956
▁အိုမာ	-10.7966
▁ဂို	-10.7968
▁အက်ရှလ	-10.7973
▁ဖြစ်လာနိုင်	-10.7975
းများ	-10.7976
▁ဒွန်	-10.7986
▁ဝင်ခွင့်	-10.799
▁ထိတ်လန့်	-10.7995
▁ပြောကြ	-10.7995
လယ်	-10.7995
▁ကိ	-10.7995
▁ဟန်န	-10.7997
▁ငြင်းခုံ	-10.7998
▁တစ်မြို့	-10.8
ွား	-10.8
▁မက်ဆ	-10.8004
▁အတွေ့အကြုံများ	-10.8012
▁ခေါ်ဆိုခဲ့	-10.8014
▁စိုးရိမ်ဖွယ်	-10.8017
▁ဖြစ်ခဲ့သော	-10.8019
ရီးယား	-10.802
သလောက်	-10.8021
▁အရှေ့မြောက်	-10.8021
▁၅၈	-10.8025
တဲလ်	-10.8026
▁မှတ်ချက်ချ	-10.8031
▁တည်းဖြတ်သူ	-10.8034
ခံရမှု	-10.8045
ဆမ်	-10.8049
▁သောက်	-10.8052
လေးများ	-10.8069
အင်္ကျီ	-10.8072
▁ဂရုစိုက်	-10.8073
ဒီးယား	-10.8078
ွိုက်	-10.8084
▁ပြိုင်ဖက်	-10.8084
▁ကတည်း	-10.8085
▁ကျန်းမာ	-10.8088
▁တွ	-10.8094
▁ဤသို့	-10.8096
ီကာ	-10.8099
န်နာ	-10.8099
▁ထောက်ခံခဲ့	-10.8102
▁အနောက်မြောက်	-10.8113
▁ကျန်ရစ်	-10.8121
ဇ	-10.8126
ဗ	-10.8129
စကီ	-10.8129
ရင်းနှီးမြှပ်နှံ	-10.813
ပြောကြား	-10.8132
▁နာကျင်	-10.8134
▁တန်း	-10.8143
ဒါကို	-10.8149
▁ရပ်စဲ	-10.8152
အရာရှိများ	-10.8157
နတ်	-10.8164
▁စီးပွား	-10.8168
▁ပျက်ကျခဲ့သည်	-10.8175
▁ရိုက်ခတ်ခဲ့	-10.8176
▁ပြစ်ဒဏ်ချမှတ်	-10.8178
▁မန်း	-10.8181
▁ကန့်ကွက်ဆန္ဒပြ	-10.8189
လျှောက်	-10.819
ဘာသာ	-10.8192
သင်တန်း	-10.8197
▁အမ်အို	-10.8197
▁စကားများ	-10.8197
▁လမ်းညွှန်	-10.8202
▁သင်တို့	-10.8205
▁ဆက်လုပ်	-10.8208
▁ဘရမ်	-10.8214
▁ဖို	-10.8232
ရပ်ဂ	-10.8232
စ်ခ်	-10.8233
▁မဲဆွယ်	-10.8237
▁လွှဲ	-10.8239
တရား	-10.8242
▁ဆီး	-10.8243
▁ဗာ	-10.8245
▁ကြိုးပမ်းနေ	-10.825
▁ကြီးကြပ်	-10.8251
▁တိဘက်	-10.827
သွားခြင်း	-10.8281
▁ကလ	-10.8284
▁ရည်ရွယ်ထားသည်	-10.8286
▁စောင့်ကြည့်နေ	-10.8296
▁ဗွီ	-10.8297
လိုက်သော	-10.8299
▁လမ်းပေါ်	-10.8301
ယံ	-10.8304
▁ဖွယ်	-10.8307
▁ခုခံကာကွယ်	-10.8313
ဘွန်	-10.8315
ကနေဒါ	-10.8316
အများအပြား	-10.8323
▁ရှိလာ	-10.8327
▁ကောင်းကောင်း	-10.8331
နော့	-10.8331
ကိုရီးယား	-10.8331
စ်တီ	-10.8335
▁စီအက်စ်အိုင်အ	-10.8343
▁ဘရစ်	-10.8347
အကြိမ်	-10.8353
▁ဖယ်ဒရ	-10.8357
အက်စ်တီ	-10.8357
▁ယော	-10.8361
▁၆၁	-10.8363
ဘီးယား	-10.8365
▁၇၂	-10.8365
သင့်တယ်	-10.8368
▁ထုတ်ဖော်ပြော	-10.8368
ကိုးကွယ်မှု	-10.8375
▁ချီလီ	-10.8385
ညှိနှိုင်းမှု	-10.839
ရန်း	-10.8394
▁ထိရောက်မှု	-10.8396
▁လွဲချော်	-10.8402
ဘန်	-10.8409
နှိပ်စက်မှု	-10.841
ဘောင်	-10.8418
▁ဘာသာပြန်	-10.842
▁ဆန်းစစ်	-10.8424
▁မာ့	-10.8424
▁ထရိုင်	-10.8429
▁ပြန်လည်ပြင်ဆင်	-10.8434
▁ဒဏ်ရာရသူ	-10.8439
စ်ဆန်	-10.8441
▁ထပ်တိုး	-10.8452
ပြန်	-10.8461
▁တပ်ဆင်ထား	-10.8462
ပြခဲ့သည်	-10.8481
▁လုပ်ကြံ	-10.8484
▁တရားစီရင်	-10.8485
ပွဲများ	-10.8492
▁ကလေးငယ်	-10.8493
ပြောင်းလဲမှု	-10.85
▁တစ်ချက်	-10.8506
▁ဝင်ရောက်လာ	-10.8509
▁မာရ	-10.8509
▁အချိန်တို	-10.8512
▁မော်	-10.8512
▁ဖယ်	-10.8513
ရမယ်	-10.8514
▁မသိပါ	-10.8516
▁ချမှတ်ခဲ့	-10.8521
ရာနေရာ	-10.8523
▁ဩစတြေးလျနိုင်ငံ	-10.8526
▁သတင်းပေး	-10.8532
ခဲ့ပေ	-10.8533
ချမ်း	-10.8537
▁ဘူးလ်	-10.8538
▁အဝေးပြေးလမ်း	-10.8542
ဘက်စ်	-10.8544
▁မြေယာ	-10.8549
▁ကုန်း	-10.8551
တာဝန်	-10.8551
▁အက်ဖ်အေအ	-10.8553
▁ဂျုံ	-10.856
▁ခံစားချက်	-10.8561
▁နက်ရှိုင်း	-10.8565
▁ရိက္ခာ	-10.8567
ပြီးလျှင်	-10.8578
▁ရရှိသည်	-10.858
▁ရိုင်ဖယ်	-10.8587
▁ရုရှ	-10.8588
▁နာမည်ကျော်	-10.8588
▁စာကြည့်တိုက်	-10.8589
▁ပင်နယ်တီ	-10.8589
▁သင်ခန်းစာ	-10.8589
▁ယူဂန်ဒါ	-10.8589
▁ပြည့်တန်ဆာ	-10.8589
▁ဆီးချို	-10.8589
▁သူရဲကောင်း	-10.8589
▁အကျဥ်းထောင်	-10.8589
▁အတော်အတန်	-10.8589
▁သိပ်သည်းဆ	-10.8589
▁ဇာတ်ကောင်	-10.8589
▁တနင်းလာ	-10.8589
▁အခကြေးငွေ	-10.8589
▁ဆုတံဆိပ်	-10.8589
▁ဘိုးလင်း	-10.8589
▁ဒန်းနစ်	-10.8589
▁ရဲဘော်	-10.859
ြခင်း	-10.859
▁ချန်နယ်	-10.859
▁မြှုပ်နှံ	-10.859
▁ဖြေဆို	-10.859
▁ရေလွှမ်း	-10.8591
▁လေယာဉ်ပျံ	-10.8591
▁၂၀ဝ၉	-10.8592
▁မွေးနေ့	-10.8592
▁အိမ်ကွင်း	-10.8593
▁ကြယ်ပွင့်	-10.8595
▁ယမန်နေ့	-10.8595
▁ထိုင်ပေ	-10.8595
▁အကျဉ်း	-10.8595
▁အမြန်ဆုံး	-10.8595
▁အဝေးသို့	-10.8596
▁ဟယ်ရီ	-10.86
▁မဖြစ်မနေ	-10.86
▁တောင်ကြား	-10.8602
▁လက်ကိုင်	-10.8602
▁ရေအောက်	-10.8603
▁အနှောင့်အယှက်	-10.8603
မဲ	-10.8604
▁အန်တိုနီ	-10.8604
▁ပန်ဒါ	-10.8605
▁အေးဂျင့်	-10.8605
▁ဝေစု	-10.8605
▁လက်ဆွဲ	-10.8606
▁ခရီးစဥ်	-10.8607
▁ရောဂါပိုးမွှား	-10.8608
ဖြစ်တယ်	-10.8608
▁ပင်တိုင်	-10.8608
▁နှင့်ပက်သက်	-10.8609
▁ရာပေါင်း	-10.8609
▁ဆဲဗင်း	-10.8609
▁အကုန်	-10.8609
▁ထက်ဝက်	-10.861
▁မိုးရွာသွန်းမှု	-10.8611
တစ်သက်တစ်ကျွန်း	-10.8612
▁မော်ဂန်	-10.8614
▁ရေငုပ်	-10.8614
▁အကြောင်းကိစ္စ	-10.8616
▁သောက်သုံး	-10.8617
▁ပြောင်းပြန်	-10.8617
ဂါး	-10.8618
▁သူတို့ကိုယ်	-10.8618
▁သေချာစွာ	-10.8619
▁အင်္ဂလန်နိုင်ငံ	-10.8621
▁တစ်ဆယ့်ငါး	-10.8622
▁နွေ	-10.8623
▁ဂလပ်	-10.8624
▁ဇာတ်ကား	-10.8624
▁မေတ္တာ	-10.8628
▁၀န်ဆောင်မှု	-10.8629
▁အကျင့်ပျက်ခြစား	-10.8629
▁ဥယျာဉ်	-10.863
▁ဂျော့ချ်	-10.863
▁လီတာ	-10.8634
ေးလ်	-10.8635
▁ခွန်အား	-10.8636
▁ချမှတ်ထား	-10.8642
▁ဓားပြများ	-10.8643
▁ရောနှော	-10.8643
▁တိုက်လေယာဉ်	-10.8643
▁အသွင်	-10.8643
▁တာယာ	-10.8645
▁၈၈	-10.8646
ကော့	-10.8649
▁သုံးဆယ်	-10.8651
▁လက်ကျန်	-10.8654
▁မေးလ်	-10.8655
▁ကြံစည်မှု	-10.8658
စတင်	-10.866
▁ရက်ပေါင်း	-10.866
▁ချို့ယွင်းချက်	-10.8662
▁ကင်းမဲ့	-10.8664
တစ်ပါး	-10.8667
ပီအေ	-10.8668
▁ဆာဗာများ	-10.8672
ခံခဲ့	-10.8672
▁ဖြစ်သွား	-10.8674
▁ပိုင်းခြား	-10.8679
▁အကူ	-10.8681
ဘဲလ်	-10.8681
▁လောက	-10.8682
▁မမျှော်လင့်	-10.8686
▁အေအီး	-10.8687
▁လိမ်ညာ	-10.8689
▁ယုံကြည်ချက်	-10.8691
▁နှစ်ပတ်	-10.8691
▁ပြောင်းရွေ့	-10.8694
▁ကာဒီ	-10.8699
▁ရပ်တည်မှု	-10.87
▁မွေးမြူရေး	-10.8702
▁ခက်ခဲမှု	-10.8702
▁ရှုပ်ထွေးမှု	-10.8703
▁မန်	-10.8703
ရရှိသော	-10.8704
▁ဉီးတည်	-10.8705
ထပ်	-10.8706
▁ကျို	-10.8706
▁ဒေလီ	-10.8706
▁ငြင်းချက်	-10.8708
▁ကြည့်ရှု့	-10.8711
ရှု	-10.8712
▁အဓိကအားဖြင့်	-10.8716
▁လိုအပ်ကြောင်း	-10.8717
ိစ်	-10.8723
▁ယူခဲ့သည်	-10.8725
▁မြင့်တက်မှု	-10.8725
▁ယောက်ျားလေး	-10.8725
နေထိုင်မှု	-10.8727
▁ကြာမြင့်	-10.8728
▁ရှင်သန်	-10.8728
လင်တန်	-10.8729
▁ပေးရန်	-10.8729
▁တီမ	-10.873
▁ပါရာ	-10.8732
▁ပြိုကျမှု	-10.8733
▁ကြက်	-10.8739
▁ကော်နယ်	-10.8739
▁ပါဝင်လိမ့်မည်	-10.8741
▁တင်ဆက်သူ	-10.8742
▁ပြောင်းလဲသွား	-10.8747
ုဒ်	-10.8749
▁တို့မှ	-10.8751
လွန်းပျံယာဉ်	-10.8755
▁ခြေရာခံ	-10.8763
ီယံ	-10.8763
▁အန်ဒီ	-10.8771
▁စွပ်စွဲထား	-10.8771
▁ပို့ခဲ့	-10.8778
▁ညီ	-10.8779
▁ကြုံတွေ့	-10.878
▁အဆင်ပြေ	-10.8781
၁၆	-10.8782
▁အရေးပါသ	-10.8784
▁စူးစမ်း	-10.8786
▁ဆော့	-10.879
▁ဇီး	-10.8792
ခ်ျ	-10.8792
ငါးခု	-10.8793
▁မရှိသေး	-10.8795
▁ဟာသ	-10.8795
▁လာသော	-10.8796
▁ကောင်းကျိုး	-10.8798
▁သည်းခံ	-10.8798
▁ဖမ်းဆီးခံရ	-10.8799
ရှင်များ	-10.88
▁ထုတ်ဝေခြင်း	-10.8803
▁ကောက်	-10.8807
ရရှိခဲ့သည်	-10.8807
ဆောင်ရွက်နေ	-10.8813
▁ငှားရမ်း	-10.8816
▁အစောပိုင်းက	-10.8817
▁ဟေ	-10.8821
ပြုပြင်ပြောင်းလဲ	-10.8824
သ်	-10.883
▁ခက်ခဲသော	-10.8831
▁ဒေါ	-10.8835
ေတ္တာ	-10.8838
▁ကြွက်	-10.8839
မွေးဝမ်းကျောင်း	-10.8846
ဆာဝီ	-10.8846
ပြေး	-10.8846
ဟို	-10.8848
▁ထုတ်ဝေမှု	-10.885
▁၆၄	-10.8852
▁ထွက်ဆို	-10.8858
▁မက်စ်	-10.8858
▁အဝါ	-10.8859
▁လျှော့ချခြင်း	-10.8859
▁အဲဒီ့	-10.8864
▁စွပ်စွဲခဲ့	-10.8865
ြောင်း	-10.8866
▁အစပျိုး	-10.8868
စပ်	-10.8868
တား	-10.8869
▁လေးဆယ်	-10.8881
လင့်	-10.8892
▁သိခဲ့	-10.8895
▁ထိုက်တန်	-10.8901
▁ကွန်ဒိုလီဇာ	-10.8903
▁နှင်	-10.8909
▁အနိုင်ရသူ	-10.8913
▁ဖမ်းဆီးခြင်း	-10.8914
▁၄၇	-10.8918
ာရီယာ	-10.8925
▁ထိန်း	-10.8928
▁သတ်သေ	-10.8931
နိုင်စွမ်း	-10.8941
နေဆဲ	-10.8942
▁လည်	-10.8944
▁ဆယ့်	-10.8945
▁ရလိမ့်မည်	-10.8947
▁မိတ်ဆက်	-10.8948
▁ရိုး	-10.8957
▁ဖြတ်တောက်မှု	-10.896
▁အလိုက်	-10.8971
▁သမ	-10.8973
▁ဇူ	-10.8977
▁မှတ်ချက်ပေးခဲ့	-10.8982
▁၈၅	-10.8985
▁လျော့	-10.8992
▁ဝင်လာ	-10.8993
▁ရှာဖွေနေ	-10.9004
▁ကမ်းလှမ်းခဲ့သည်	-10.9005
▁အစပြု	-10.9005
▁မူဆ	-10.9011
▁ဖော့စ်	-10.9015
▁အကြိုက်	-10.9017
▁ဂျင်း	-10.9019
ဖြစ်ခြင်း	-10.9036
၀င်	-10.9038
ော်	-10.9041
▁နှစ်နိုင်ငံ	-10.9043
▁အစာ	-10.9043
လက်မှတ်	-10.9043
▁တည်ဆောက်ခဲ့	-10.9044
▁ဖွဲ့စည်းထား	-10.9051
▁ဖြစ်ပွားခြင်း	-10.9053
▁ပန်း	-10.9065
နင်	-10.9065
▁တိုက်ခတ်ခဲ့	-10.9065
▁သုံးသပ်မှု	-10.9068
▁ပိုလို	-10.9073
ွဲလ	-10.9076
▁အကြိမ်ကြိမ်	-10.9077
▁ငွေချေး	-10.908
▁ကြည့်ရှုသူ	-10.9083
မျှော်လင့်ခဲ့သည်	-10.9086
▁တခြားသော	-10.909
▁မရှိသေးပါ	-10.9099
ချိန်မှာ	-10.9099
▁ထုတ်ပြန်မှု	-10.9108
▁ကွဲပြားမှု	-10.911
▁နယူ	-10.9116
နိုင်တဲ့	-10.9137
အရာရှိ	-10.9139
▁ဆစ်	-10.9146
▁မြို့တွင်း	-10.915
ပြုမူ	-10.9154
စည်း	-10.9155
▁ပြုလုပ်နေ	-10.9165
ဖြစ်စေသော	-10.9172
▁ဘေဂျ	-10.9173
▁လက်မခံနိုင်	-10.918
သည့်ကြော်ငြာများ	-10.9182
▁ဘောက်	-10.9185
ဝဝ	-10.9198
ရေးမှူး	-10.9202
▁ထပ်ပြော	-10.9203
▁ပြင်သစ်နိုင်ငံ	-10.9204
▁တစ်ခြား	-10.9208
ခုံ	-10.9209
ဖော်	-10.921
နားလည်မှု	-10.921
အဆောက်အဦး	-10.9214
▁စဉ်းစားခဲ့	-10.9214
▁ရွှေ့ဆိုင်း	-10.9219
▁တစ်ပုံ	-10.9219
▁ဂရုမစိုက်	-10.9219
▁မခံရ	-10.922
၂၇	-10.9221
ွတ်	-10.9222
▁လော	-10.9225
▁၃၅၀	-10.9226
▁ရက်စက်	-10.9228
▁ပို့ပေး	-10.9228
▁ဖော်ထုတ်ခြင်း	-10.9232
သေး	-10.9234
▁ဘာမှ	-10.9238
▁ချမ်းသာ	-10.9239
▁တပ်ဖွဲ့ဝင်	-10.9244
▁ဝင်ရောက်ခဲ့	-10.9248
▁လျာထား	-10.9254
▁လက်ခံမှု	-10.926
အရပ်	-10.9262
▁ခွင့်မပြု	-10.9268
ဆိုသော	-10.9273
▁တောမီး	-10.9279
▁ဆောင်ရွက်ပေး	-10.9279
▁မဲ့	-10.9288
မြင့်	-10.9297
▁ပျက်စီးသွား	-10.93
အုပ်ချုပ်ရေး	-10.93
စ်ချ်	-10.9303
ဖွယ်ရာ	-10.9304
▁ကတိပြု	-10.9305
မင်းကြီး	-10.9308
ဖိုင်	-10.9309
ခွင့်ပြု	-10.9309
▁ဆုတောင်းသူ	-10.9311
▁၁၉၆၀	-10.9313
▁ဘလ	-10.9313
▁ခံစားခဲ့ရသည်	-10.9318
▁တယ်ရီ	-10.9321
▁အဓိပ္ပာယ်	-10.9322
ခရိုင်	-10.9327
ရှယ်ယာ	-10.9328
▁စွန့်စားမှု	-10.9329
းသော	-10.933
ဂျာစီ	-10.9332
အနေအထား	-10.9338
သင့်	-10.9339
▁အတင်းအကြပ်	-10.9343
သက်တမ်း	-10.9343
▁လုံလောက်မှု	-10.9348
ဘုရှ်	-10.935
▁အသုံးပြုနေ	-10.9351
ဂတ်	-10.9352
းမှု	-10.9358
ချန်	-10.936
▁ဓာတ်အား	-10.9369
▁အော်ရီ	-10.937
ပြောဆို	-10.9373
▁နိ	-10.9373
▁ဖွင့်လှစ်ခဲ့	-10.9373
▁ဒိုမိ	-10.9373
▁ဖောက်ဖျက်	-10.9373
၁၇	-10.9375
▁တန်းတူ	-10.9379
လ်မန်း	-10.9397
▁စာရေး	-10.9398
▁ဖြစ်နိုင်ခြေရှိ	-10.941
င်ပြင်	-10.9415
▁၉၂	-10.9419
က်တာ	-10.9421
▁တုန်လှုပ်	-10.9424
▁စန	-10.9424
ရသည့်	-10.9429
▁ပေးအပ်ခဲ့	-10.9429
ထရွ	-10.943
ရှင်နယ်	-10.943
ဖြစ်နေသော	-10.9431
▁တစ်စိတ်တစ်	-10.9433
▁တစ်ခုစီ	-10.9434
▁အမည်ရ	-10.9435
▁ကာရီ	-10.9435
▁အချိန်ပို	-10.9441
▁စူးစမ်းရှာဖွေ	-10.9448
ဂျစ်	-10.9449
▁အချက်ပြ	-10.9451
▁စစ်မှန်သ	-10.9454
္ဂ	-10.9455
နှင့်သက်ဆိုင်	-10.9459
▁၁၆၀	-10.9462
▁လိုလား	-10.9467
ောခ့်	-10.9467
ရင်းနှီးမြုပ်နှံ	-10.947
▁ရေးသားထား	-10.9474
▁အသေအပျောက်	-10.9475
▁ဝမ်	-10.9479
▁တင်းမာ	-10.948
▁ရှင်း	-10.948
အကျဉ်းသားများ	-10.9482
ွင်	-10.9486
▁မဲဆန္ဒရှင်	-10.9487
▁ထိမှန်	-10.949
▁မှတ်မိ	-10.9491
သပိတ်မှောက်ခြင်း	-10.9495
ဆိုတာ	-10.9495
▁ဟောပြော	-10.9496
▁တိုက်ဖျက်	-10.9504
▁အရောင်	-10.9506
▁ဝန်ဆောင်မှုပေး	-10.9506
▁ပီအေ	-10.9508
▁ဓာတု	-10.9508
▁အားထုတ်	-10.9512
ပြည့်	-10.9513
▁ရသော	-10.9526
▁လိုအပ်နေ	-10.9529
▁ရေတွက်	-10.9536
▁အိုင်အမ်	-10.9541
▁သွားရောက်	-10.9542
▁အရည်ပျော်	-10.9554
ပျက်	-10.9557
▁စိုးရိမ်မှု	-10.9561
ားမား	-10.9568
▁ကမ္ဘ	-10.9569
▁အရှုံး	-10.9574
▁ရွှေ့	-10.9577
ပြိုင်နက်	-10.958
▁စတီဖင်	-10.9582
▁ကျွန်တော့	-10.9584
▁အခြေခံဥပဒေ	-10.9584
▁မျက်မြင်	-10.9585
▁လီဗာပူး	-10.9586
▁သေချာအောင်	-10.9586
ဆန္ဒခံယူပွဲ	-10.9587
▁ကွင်းစလန်	-10.9587
▁လှည့်လည်	-10.9588
▁ဂန္ဒီ	-10.9589
▁ဈာပန	-10.9589
▁ဖော်မြူလာ	-10.9589
▁ဘင်္ဂလားဒေ့ရှ်	-10.9589
▁ကတိကဝတ်	-10.9589
▁စတူဒီယို	-10.9589
▁ဆီယက်တဲလ်	-10.9589
▁နဂါးငွေ့တန်း	-10.9589
▁မူးယစ်ဆေး	-10.9589
▁လက်ပစ်ဗုံး	-10.9589
▁ခေါင်မိုး	-10.9589
▁မြူးနစ်	-10.9589
▁အေပီအီးစီ	-10.9589
▁ဘုရားသခင်	-10.9589
▁မျက်နှာဖုံး	-10.9589
▁မိုင်းလုပ်သား	-10.9589
▁ဟန်ဂေရီ	-10.9589
▁ကင်ဘာရာ	-10.9589
▁အငယ်တန်း	-10.9589
▁အရေပြား	-10.9589
▁ဝှိုက်	-10.9589
▁အသွင်အပြင်	-10.9589
▁ဂါဘွန်	-10.9589
▁အသားတင်	-10.9589
▁အာတိတ်	-10.959
▁အမှတ်တရ	-10.959
▁စက္ကူ	-10.959
▁အိမ်ခြေ	-10.959
▁ကယ်လီဒို	-10.959
▁အေစီတီ	-10.959
▁မက်ဒေါ်နယ်	-10.959
▁ဝဘ်ဆိုက်	-10.9591
▁အလယ်တန်း	-10.9591
▁ဗလာဒီမာ	-10.9591
▁နာဇီ	-10.9591
▁အမြတ်အစွန်း	-10.9591
ရှိုင်းယား	-10.9592
▁ဘားရတ်	-10.9592
▁ရောဂါလက္ခဏာ	-10.9592
▁ကျေးလက်ဒေသ	-10.9592
▁လူစုလူဝေး	-10.9593
▁ဂရင်းနစ်	-10.9595
▁မှတ်စု	-10.9595
▁ရှေ့တန်း	-10.9595
▁ယနေ့ခေတ်	-10.9595
▁လျှပ်စစ်မီး	-10.9596
▁ကျယ်ပြန့်စွာ	-10.9596
▁ဘယ်ဘက်	-10.9597
▁သိသာထင်ရှားစွာ	-10.9597
▁သတင်းမီဒီယာ	-10.9598
▁မြို့လယ်	-10.9598
▁အေဒယူ	-10.9598
▁၁၉၈၁	-10.9598
▁ငါးမန်း	-10.9599
လိမ့်	-10.9599
▁ရောက်နေ	-10.9599
▁ဤကဲ့သို့	-10.96
▁ဆေးပြား	-10.9601
▁ကားမောင်းသမား	-10.9603
▁အခွန်ခ	-10.9603
▁မဲဆန္ဒ	-10.9604
▁စေတန်	-10.9604
▁ပြောစကား	-10.9604
ပွင့်	-10.9604
မျက်နှာပြင်	-10.9605
▁ဒီနေရာမှာ	-10.9606
▁အကောက်ခွန်	-10.9607
▁ဟော်မုန်း	-10.9607
▁အောက်စီဂျင်	-10.9607
▁တံဆိပ်ဆု	-10.9607
▁ပြန့်ပွား	-10.9608
▁တွေ့ကြုံ	-10.9609
းချား	-10.961
▁လျှောက်လဲချက်	-10.961
▁သတ္တုတူးဖော်	-10.9612
▁မည်မျှ	-10.9613
က်ခ်	-10.9615
ဆဲဖြစ်	-10.9615
▁ကျွမ်းဘား	-10.9616
▁ကင်မရွန်	-10.9616
▁အစမ်း	-10.9617
စီးပွားရေး	-10.9618
▁အဆိုတင်သွင်း	-10.9618
▁မြောက်မြားစွာ	-10.9621
ဗုံးခွဲသမား	-10.9621
ရတဲ့	-10.9625
▁သန့်ရှင်းရေး	-10.9625
▁ဂျိုးဆက်	-10.9627
အပိုင်း	-10.9629
ဒန်း	-10.963
▁တစ်ရုံ	-10.963
▁အီးဒီတီ	-10.9631
▁ဗာဒီ	-10.9633
▁သိပ္ပံဆိုင်ရာ	-10.9634
▁၁၉၇၀	-10.9635
▁ဇူးရစ်	-10.9636
▁ကားမောင်း	-10.9637
▁ကမ္ဘာအနှံ့	-10.9638
▁မူလအစ	-10.9638
▁ရေလျှံ	-10.9638
ပြောင်းလဲရေး	-10.9641
▁ထိုကိစ္စ	-10.9641
▁အရေးကိစ္စ	-10.9642
▁ပြီးမြောက်	-10.9642
သဘောတရား	-10.9642
▁ဖရက်ကင်	-10.9643
▁အခွင့်အာဏာ	-10.9643
▁သတ်ဖြတ်ခြင်း	-10.9644
▁အလွဲသုံးစားမှု	-10.9649
▁အဲရစ်	-10.965
▁မွန်တီနီဂရို	-10.9651
သောအရာ	-10.9654
▁ငွေကြေးဆိုင်ရာ	-10.9654
▁စေဖို့	-10.9656
▁စင်းဖိန်	-10.9658
▁တစ်အုပ်	-10.9658
▁မဲပေးသူ	-10.9659
▁နည်းနည်း	-10.9659
▁သိမ်းဆည်းထား	-10.9661
▁ကူးပြောင်း	-10.9661
▁ညစ်ညမ်းမှု	-10.9662
▁ဆုတ်ခွာ	-10.9668
လုပ်ဆောင်မှုများ	-10.9668
▁စူးစမ်းလေ့လာရေး	-10.9669
မော်တော်ဆိုင်ကယ်	-10.9673
▁ထရာဗ	-10.9673
မည်သို့ပင်ဖြစ်စေ	-10.9673
▁တစ်သန်း	-10.9676
၉၅	-10.9677
ဖြစ်တဲ့	-10.9678
▁ထီ	-10.9678
▁....	-10.9679
▁အကောင်းမြင်	-10.968
▁အခြေချ	-10.9684
▁၃၀ဝ	-10.9687
▁ကန့်ကွက်သူ	-10.9687
▁အဖွဲ့စည်း	-10.9689
▁တစ်ထောင်	-10.969
▁မယူ	-10.9692
နေထိုင်	-10.9693
ပိတ်	-10.9693
▁ထင်ခဲ့	-10.9693
၂၉	-10.9698
အမှတ်	-10.9699
▁စိစစ်	-10.9701
▁စကွဲ	-10.9702
▁ဖြည့်ဆည်းပေး	-10.9703
▁အဖိုး	-10.9707
▁ဝေ	-10.9707
▁ကမ်	-10.9708
▁ယာဥ်မောင်း	-10.9709
▁သင့်လျော်သော	-10.9712
▁လေ့ကျင့်ခြင်း	-10.9721
ရ်	-10.9724
▁လူနေမှု	-10.9724
▁ပုံတူ	-10.9724
▁ဆန့်ကျင်သူ	-10.9728
▁စည်းကမ်းချက်	-10.9731
▁ရုံးတင်စစ်ဆေး	-10.9732
▁ရှယ်	-10.9732
အခြေခံဥပဒေ	-10.9735
▁ထိတ	-10.9735
▁ခန့်မှန်းခဲ့	-10.9736
▁အဲ့ဒီ့	-10.9736
▁လက်ရာ	-10.9738
▁လှ	-10.9738
▁သောအချိန်	-10.9738
မြောက်ဘက်	-10.974
▁တင်းမာမှု	-10.9742
▁မတူ	-10.9743
▁ရီကာ	-10.9743
▁မွေး	-10.9743
▁အဖမ်းခံခဲ့ရ	-10.9746
▁လိုက်နာမှု	-10.9748
▁အသည်း	-10.9756
▁ဒူ	-10.9757
▁အနီ	-10.9758
▁တောင်း	-10.9759
▁ဥပဒေပြဌာန်း	-10.9762
ဒေါ့	-10.9765
ဆွေးနွေးပွဲ	-10.9768
▁သိသာထင်ရှားသ	-10.977
ွ	-10.9773
▁လက်တင်	-10.9773
▁မော	-10.9785
မကြာသေးခင်က	-10.9787
▁အိုင်အို	-10.979
▁ရေပြင်	-10.9794
▁ပိုကောင်းသော	-10.9798
ဖူလုံ	-10.9801
အန်အေ	-10.9803
ဒေါ	-10.9811
အာဂျီ	-10.9814
ီနာ	-10.9817
▁ဦးဆောင်ခဲ့သည်	-10.9818
▁အသိဉာဏ်	-10.9819
▁ပြသနာများ	-10.9823
ကိုယ်ရည်အာသာဖြေ	-10.9828
▁ပေါင်းစုံ	-10.9829
▁ပရိသတ်များ	-10.9838
ဘိုင်ဂျန်	-10.9839
▁တိုက်စား	-10.9843
▁ဉီးဆောင်	-10.9847
▁ဖြည့်	-10.9848
▁အန်တီ	-10.985
▁ကြုံတွေ့ခဲ့ရ	-10.9853
▁တရားလိုများ	-10.9853
▁ခံစစ်	-10.9853
▁မသေချာ	-10.9854
ဒိုး	-10.9854
▁ရှိခဲ့ကြ	-10.9855
အီးအေ	-10.9856
▁ပိုမိုဆိုးရွား	-10.9857
▁ထောင်ချ	-10.9864
▁မဟာဗျူဟာ	-10.9874
▁တွေ့ရှိချက်	-10.9875
ဖြစ်ပွားနေသော	-10.988
လွယ်ကူစွာ	-10.9886
▁ရစ်ခ်	-10.9888
▁ထုတ်ယူ	-10.9896
▁အရာတွေ	-10.9901
ယှဉ်ပြိုင်	-10.9905
▁ပစ်ချ	-10.9906
▁ရှိခဲ့ပြီး	-10.9913
▁မြေး	-10.9916
အန်ပီ	-10.9918
ခြင်းခံခဲ့ရ	-10.9918
▁ဆက်နွယ်မှု	-10.9922
▁သရေ	-10.9923
▁ရှောင်	-10.9924
▁စီအေ	-10.9924
▁မက	-10.9927
▁သဘောထားကွဲလွဲ	-10.9927
▁အသုံးဝင်	-10.993
▁ခဲ့သော	-10.9932
▁ဟေးလ်	-10.9933
လ်တန်	-10.9935
ပြုလုပ်ခဲ့	-10.9942
▁ဖြစ်ပေါ်နေ	-10.9943
၇၅	-10.996
▁ဖော်ပြခြင်း	-10.9964
▁ဘီလ်	-10.9968
▁ဒါက	-10.997
ဖျက်	-10.9974
▁ပျက်ကွက်ခဲ့	-10.9977
▁ပြသခြင်း	-10.9982
▁ထပ်ထည့်	-10.9996
▁၁၁၀	-10.9998
▁ကတိပေး	-11.0004
▁စာသင်	-11.0005
▁စွပ်စွဲခံထားရ	-11.0015
▁ဟတ်	-11.0016
▁ဖိအားပေးမှု	-11.002
▁ရိုမန်	-11.0022
▁ဗစ်တ	-11.003
▁မလို	-11.0035
▁ရရှိခဲ့သော	-11.0037
▁ဆက်ခံ	-11.0041
၅၅	-11.0042
၉၈	-11.0043
လာနိုင်	-11.0046
▁အသနားခံ	-11.0049
▁ဟတ်ဘ	-11.0053
သူတို့ကိုယ်တိုင်	-11.0054
ပြောဆိုခဲ့	-11.0058
အမျိုးသား	-11.0059
ရမ်း	-11.006
▁ရရှိခြင်း	-11.006
▁ငြင်းဆန်ခဲ့	-11.0067
▁အသင်းဝင်	-11.0069
▁အချိန်ယူ	-11.0074
▁ကြိုးစားခြင်း	-11.008
▁များပြားလာ	-11.0081
▁ကာကွယ်ခြင်း	-11.0087
သီး	-11.0093
▁ဧ	-11.0095
▁ဘီအေ	-11.0095
▁ယူဆောင်ခဲ့သည်	-11.0097
▁ပြောနေ	-11.0098
▁တဝှမ်း	-11.0098
လပ်စ်	-11.0103
▁မယုံကြည်	-11.0105
္စကို	-11.0107
ထဲက	-11.0109
▁ခိုလှုံခွင့်	-11.0113
▁တီးခတ်	-11.0114
▁သိမ်း	-11.0122
▁ထုတ်ခြင်း	-11.0124
▁ရှိနေခြင်း	-11.0126
▁ဖီး	-11.0129
အရာရှိတွေ	-11.0132
▁သုံးခဲ့သည်	-11.0143
▁နဲ့ပတ်သက်	-11.015
▁အဲလ	-11.0152
ိမ်း	-11.0155
ဖရီ	-11.0167
တင်မြှောက်	-11.0172
▁ဆင့်ခေါ်	-11.0173
▁ရှန်	-11.0178
▁လှုပ်ခတ်	-11.0178
▁ပုံပေါ်	-11.0185
▁တိုးမြှင့်မှု	-11.0187
▁လိင်တူချစ်သူ	-11.0194
အသစ်	-11.0211
▁ကစားခြင်း	-11.0218
▁ကယ်	-11.0218
သလို	-11.0221
ပြိုင်	-11.0221
တ်ပါ	-11.0225
မြဲ	-11.0226
▁ခဲ	-11.023
▁ပစ်သတ်ခဲ့	-11.0233
▁ဘိုး	-11.0236
မှုတွေ	-11.0238
ကျူး	-11.0242
▁နှိပ်စက်	-11.0246
င်တာနက်စာမျက်နှာ	-11.0247
ကုမ္ပဏီ	-11.025
တကွ	-11.0255
ခြောက်	-11.0261
▁အိုပီ	-11.0262
▁အံ့သြ	-11.027
လုပ်ခဲ့	-11.0274
ဗယ်	-11.028
▁ထရမ်	-11.0282
▁အမှုဆောင်အရာရှိ	-11.0291
အော့	-11.0293
ဝါဒီ	-11.0295
▁တစ်စ	-11.0297
လေ့လာသူ	-11.0299
ကြေငြာ	-11.0299
ဒစ်	-11.0302
▁စတီး	-11.0304
ကယ်	-11.0308
စက်ရုံ	-11.0311
▁ပရ	-11.0311
ဒင်	-11.0319
▁တွေ့ခဲ့ရ	-11.032
▁ပြည်နှင်ဒဏ်ပေး	-11.0331
▁ကျန်ရှိနေ	-11.0338
▁ဖြစ်ပေါ်စေသည်	-11.034
▁မထင်	-11.034
ေ့စ်	-11.0346
▁လက်အောက်	-11.0348
▁ဂရု	-11.0349
▁ခေါ်ဆောင်လာ	-11.0352
အပေါ်	-11.0355
ရတ်စ်	-11.0355
▁ပံ့ပိုး	-11.0366
▁ဖြစ်နေသော	-11.0366
ျှ	-11.0367
လောင်းများ	-11.0375
▁စုဆောင်းထား	-11.038
▁၇၄	-11.0381
▁အလက်ဇ	-11.0381
သွင်း	-11.0381
▁ဖြစ်ရန်	-11.0382
▁ကုတ်	-11.0387
▁အပြည်ပြည်	-11.0393
၁၉	-11.0394
▁လေဖြတ်	-11.0394
အများစု	-11.0395
▁ထရီလီယ	-11.0395
▁အတိုက်အခံများ	-11.0403
ဖူး	-11.0404
▁လက်စ်	-11.0406
▁ဖာရာ	-11.0409
▁ထက်ပို	-11.0411
▁ရှိပြီး	-11.0411
▁မဲအရေအတွက်	-11.042
အင်အား	-11.0422
▁ထင်ရသည်	-11.0423
ကျင်း	-11.0424
အမျိုးသမီး	-11.0425
ညီလာခံ	-11.0428
အခမ်းအနား	-11.0429
အချက်	-11.043
▁အတင်းအကျပ်	-11.0432
ဂျင်း	-11.0433
ကိရိယာ	-11.0435
မလုပ်	-11.0435
သက်ဆင်	-11.0439
ွဲလာ	-11.044
ဝန်ကြီး	-11.0451
၂၀၀	-11.0452
▁ဗန်က	-11.0455
▁ရှု	-11.0459
▁တိုးမြင့်	-11.0461
ဖြုတ်	-11.0471
ဝယ်	-11.0478
ပေါင်းစုံ	-11.0479
▁အခင်း	-11.048
▁တောင်းဆိုသည်	-11.0481
▁ဂရမ်	-11.0493
▁လင်္ကာ	-11.05
▁တင်ထား	-11.0502
▁တစ်ခုတည်းသ	-11.0507
▁အာဖကန်နစ	-11.0511
န်တီ	-11.0516
သွားစေ	-11.0517
ချခဲ့သည်	-11.0517
▁ရူ	-11.052
ဖို	-11.0521
▁ကမ်း	-11.0528
▁မိသားစုဝင်	-11.0531
▁ပြောပြချက်	-11.0534
ရှီ	-11.0537
▁ရွက်	-11.0544
▁တက်ရောက်ခဲ့	-11.0548
ထုတ်လွှင့်မှု	-11.0554
▁အစီရင်ခံခဲ့	-11.0555
အပြင်	-11.0559
အိတ်ချ်	-11.0559
▁ကွာ	-11.056
လိစ်	-11.056
ဌာနချုပ်	-11.0562
ဖွယ်ကောင်းသော	-11.0564
▁ရပ်တည်နေ	-11.0566
အနိုင်ရရှိခဲ့သည်	-11.0575
▁ကမ္ဘာလုံး	-11.0583
▁အဘ	-11.0586
▁ဖယ်ထုတ်	-11.059
နမိတ်	-11.0591
ုင်း	-11.0598
▁တင်ပြသည်	-11.0599
▁စွဲ	-11.0605
ပြုခြင်း	-11.0605
▁ရာဇဝတ်	-11.0608
▁ရှရစ်	-11.0609
လိန်း	-11.061
ရီယို	-11.0614
▁မုဒိမ်းကျင့်	-11.0616
▁ပြီးပြီ	-11.0617
▁ဖြစ်ပေါ်စေခဲ့	-11.0617
▁မေးခွန်းထုတ်	-11.0635
နောက်ပိုင်း	-11.0637
ဦးစီး	-11.0638
▁ပို့ဆောင်ပေး	-11.0641
ော့ဒ်	-11.0641
သတင်းများ	-11.0643
▁၁၀ဝ၀	-11.065
▁အိုင်စီအ	-11.0653
▁ခြားနား	-11.0653
▁ဖြစ်စေနိုင်	-11.0659
▁စစ်ဆေးခဲ့	-11.0663
▁ကားလမ်း	-11.0665
▁ချည်	-11.0666
ဒက်စ်	-11.0669
▁အုပ်	-11.0672
▁ဒြပ်	-11.0678
▁လျှောက်လဲ	-11.0678
ခဲ	-11.0678
ိုင်းလ်	-11.0683
▁ပိုများ	-11.0683
▁မှတ်ချက်ပြု	-11.0685
ော်နီ	-11.0686
▁လုပ်ခ	-11.0687
▁ဘိုးရင်း	-11.0696
▁အဆုံးအဖြတ်	-11.0697
▁ခိုင်လုံ	-11.0699
▁ခြေလျင်	-11.0699
▁ပြုပြင်မွမ်းမံ	-11.07
▁ဘိလပ်မြေ	-11.07
▁ဂရိုယွန်ဒွန်	-11.07
▁ဂျေရုဆလင်	-11.07
▁ငွေရေးကြေးရေး	-11.07
▁စတက်အွိုင်း	-11.07
▁စံနမူနာ	-11.07
▁မျောက်လွှဲကျော်	-11.07
▁ယဥ်ကျေး	-11.07
▁ဝက်ဝံညို	-11.07
▁အရောင်းအဝယ်	-11.07
▁အဟန့်အတား	-11.07
▁ဗဟုသုတ	-11.07
▁မျိုးရိုးဗီဇ	-11.07
▁ခြံစည်းရိုး	-11.07
▁မီးငြိမ်းသတ်	-11.07
▁ကျောက်ဂွမ်း	-11.07
▁အိတ်စ်ဘောက်	-11.07
▁အဲဗာတန်	-11.07
▁မျိုးဗီဇ	-11.07
▁စေတနာ့ဝန်ထမ်း	-11.07
▁ခွေးဘီလူး	-11.07
▁မော်ဒယ်	-11.07
▁ကိမ်းဘရစ်ချ်	-11.07
▁ပါရာဆီရ	-11.07
▁ယူနီဆက်	-11.07
▁သဘာဝဘေးအန္တရာယ်	-11.07
ငတ်မွတ်ခေါင်းပါး	-11.07
▁ဗုဒ္ဓဘာသာ	-11.07
▁အလုံးစုံ	-11.07
▁အင်ဒရူး	-11.07
▁ကိုယ်ထည်	-11.07
▁ပိုင်ရိတ်	-11.07
▁ပြစ်မှုထင်ရှား	-11.07
▁အရေးမကြီး	-11.07
▁ဘတ်စကတ်	-11.07
▁အဆိပ်သင့်	-11.07
▁သွေးကြော	-11.0701
▁နားထောင်	-11.0701
▁သားအိမ်	-11.0701
▁ကုန်ကူး	-11.0701
▁ဘော့စနီးယား	-11.0701
▁ပါကစ်စတန်	-11.0701
▁မီးမောင်းထိုးပြ	-11.0701
▁အရာဝတ္	-11.0701
▁ဒန်နီရယ်	-11.0702
▁အမှုတွဲ	-11.0702
▁ဘက်စ်ကား	-11.0703
▁ပြသာနာ	-11.0703
▁ဖက်ရှင်	-11.0703
▁ကတ်	-11.0703
▁ပေးဆပ်	-11.0703
▁ခရစ်ယာန်ဂိုဏ်း	-11.0703
▁ရောင်းအား	-11.0703
▁ကုိ	-11.0704
▁ထင်မှတ်	-11.0704
▁အိုင်ဝါ	-11.0704
လာစေ	-11.0704
▁ဆီမီး	-11.0705
▁ကင်ဆာရောဂါ	-11.0705
▁ဆီးနိတ်	-11.0705
▁နပန်း	-11.0706
▁မင်းသမီး	-11.0706
▁ညီမ	-11.0706
▁၁၉၉၃	-11.0708
▁ဘာရွန်	-11.0708
▁သတင်းစာမျက်နှာ	-11.0709
▁ရာဟူး	-11.0709
ရုဒ်	-11.071
▁တရားရေးရာ	-11.0711
▁စဥ်အတွင်း	-11.0712
▁ပါပူဝါ	-11.0712
▁ထူထောင်	-11.0713
ဓက	-11.0713
▁ကနေဒီယမ်	-11.0715
▁အနောက်တိုင်း	-11.0715
န်တွန်	-11.0715
▁ခွဲစိတ်ကုသမှု	-11.0716
▁မိတ္တူ	-11.0717
▁ကက်သလစ်	-11.0717
▁အနှံ့အပြား	-11.0718
▁တံခွန်စိုက်	-11.0718
▁ဆင့်ခေါ်စာ	-11.0718
▁အသင်းအဖွဲ့	-11.0719
▁တာ၀န်	-11.0719
▁ဒရာဗ	-11.0719
▁နီပေါ	-11.072
▁ကောင်စစ်ဝန်	-11.072
လက်မ	-11.0721
▁ကွင်းလယ်	-11.0721
▁ကန်ထရိုက်တာ	-11.0721
▁အကုန်လုံး	-11.0722
▁ဂျက်လေယာဉ်	-11.0722
▁ပိတ်မိ	-11.0722
▁ရေပိုင်နက်	-11.0723
▁တလျောက်	-11.0724
▁ဩစတြေးလျှ	-11.0725
▁သဘာဝအတိုင်း	-11.0725
▁ပြန်လည်ပြုပြင်	-11.0725
▁အလွဲသုံးစားလုပ်	-11.0726
▁မီလန်	-11.073
▁၉၁၁	-11.073
▁စိတ်ကျ	-11.073
▁သုသေသန	-11.073
▁ဆက်နွယ်နေ	-11.0731
▁စက်ရုပ်	-11.0732
▁ဖြန့်ကျက်	-11.0732
▁ခြောက်ခု	-11.0733
▁ပြိုင်ဆိုင်မှု	-11.0733
▁မျက်စိ	-11.0733
▁ကဘူးလ်	-11.0734
▁လျှို့ဝှက်စွာ	-11.0734
▁ကြေကွဲဖွယ်	-11.0735
▁အဆိုပြုထား	-11.0735
န်တိုရမ်	-11.0735
▁ဥ	-11.0736
▁အလွှာ	-11.074
▁ကာကွယ်ပေး	-11.0745
▁နန်းတော်	-11.0745
▁၁၃၅	-11.0747
▁ငါးဖမ်းသမား	-11.0747
▁ယုံကြည်ရ	-11.0748
▁လိုက်လျော	-11.075
▁ဘီလျံ	-11.075
တူညီသော	-11.075
▁သရီး	-11.0751
လမ်းလျှောက်ခြင်း	-11.0752
▁၄၅၀	-11.0753
▁အဓိကကျ	-11.0753
▁တည်ရှိသည်	-11.0753
▁ထပ်ပြောခဲ့သည်	-11.0753
▁လေယာဉ်မောင်းသူ	-11.0758
▁ကင်းလှည့်	-11.0758
▁ကတ်သ	-11.076
▁ပြန်လည်တည်ဆောက်	-11.0761
▁ဆပ်	-11.0763
▁တာထွက်	-11.0763
ဝင်း	-11.0766
ီရာ	-11.0766
▁အချိန်ကာလ	-11.0767
▁မယ်ရီ	-11.0768
လုပ်ဆောင်မှု	-11.0769
▁ရသုံး	-11.077
▁မာရီယ	-11.077
▁ဝင်း	-11.0772
ဘီး	-11.0773
▁လိင်တူဆက်ဆံ	-11.0774
ပတ်ဘလစ်	-11.0775
▁ကျိုး	-11.0777
▁ရောဂါကူးစက်မှု	-11.0779
▁နေရာတိုင်း	-11.0781
▁ကျေးဇူး	-11.0781
▁တစ်နည်း	-11.0782
လော်ဒီ	-11.0786
▁တု	-11.0787
စမစ်	-11.0787
စီကို	-11.0788
▁မြေပြိုမှု	-11.0788
▁နည်းစနစ်	-11.0791
▁ပြောဆိုမှု	-11.0791
▁ဥပဒေအရ	-11.0792
▁တစ်သင်း	-11.0793
▁နှစ်ဆ	-11.0795
နူကလီးယား	-11.0796
▁အောင်မြင်ခြင်း	-11.0797
▁ပြန်ပေးဆွဲခံရ	-11.0798
▁နောက်ကျော	-11.0799
▁မည်သူ့	-11.0804
▁ဒီရေ	-11.0805
▁သိပ်	-11.081
▁ဆင်နွှဲ	-11.0814
▁နှစ်စီး	-11.0814
▁သတိရ	-11.0815
▁ပြစ်တင်ရှုပ်ချ	-11.0815
▁မဲဆန္ဒရှင်များ	-11.0816
▁ရှေးကျ	-11.0817
▁တားမြစ်မှု	-11.0817
▁ယုံကြည်စိတ်ချရ	-11.082
ဘစ်	-11.0823
▁မြင်သာ	-11.0824
▁တိုင်းတာခြင်း	-11.0824
းဒစ်	-11.0825
▁ဝင်နီပ	-11.0826
▁အက်ဒ်	-11.0828
▁အာရုံစိုက်ခြင်း	-11.083
▁ကြည်း	-11.0833
▁တားမြစ်ထား	-11.0835
▁ဖရက်	-11.0837
▁ရှာတွေ့	-11.0838
▁သတ်မှတ်ထားသည်	-11.0838
▁ထိုင်	-11.0839
ကျဆင်းမှု	-11.0841
▁နောက်မှ	-11.0843
ပြောင်း	-11.0843
မက်ဂရ	-11.0848
▁၆၇	-11.0848
ဂဲလ်	-11.086
▁ဖရ	-11.086
▁ဂလန်	-11.0861
ကူ	-11.0864
▁ခွင့်ပြုသည်	-11.0864
▁လိဒ်	-11.0866
▁နှိမ်နင်း	-11.0867
▁အဖွဲ့၀င်များ	-11.0868
▁တင်သွင်းမှု	-11.0873
▁စာဖတ်သူ	-11.0876
ကင်း	-11.0878
▁အစွန်း	-11.0879
▁သွင်းယူ	-11.088
စကာ	-11.0881
▁ပြုစု	-11.0882
▁ပေါ်ထွက်	-11.0882
▁စာရင်းသွင်း	-11.0883
▁ရေကြီး	-11.0885
ထရီ	-11.0886
္	-11.089
ဲအို	-11.0892
ိုရီ	-11.0892
▁ဖူး	-11.09
▁လက်ဝှေ့	-11.0901
ဆန်တိုရမ်	-11.0904
▁စကိုင်း	-11.0906
လိုက်ခြင်း	-11.0907
▁ငွေကြေးထောက်ပံ့	-11.0909
▁ဂျော်ဂျီရ	-11.0911
▁စောင့်ဆိုင်းနေ	-11.0915
▁ရင်သား	-11.0915
▁ကစားခဲ့သည်	-11.0916
▁အလျင်	-11.0916
▁ဖျက်သိမ်းခဲ့	-11.0918
သိန်း	-11.0919
▁တိုးတက်ရေး	-11.092
▁လျစ်လျူရှု	-11.0921
▁အတွဲ	-11.0934
အီးတီအေ	-11.0935
▁သွားသော	-11.0938
ဉ်	-11.0939
က်ဖ်အေ	-11.0941
▁မီဒီယာများ	-11.0943
▁ဂေးလ	-11.0944
နမ်	-11.0949
▁သဲ	-11.0949
▁ကန့်ကွက်ခဲ့	-11.0953
ခဲ့ရသော	-11.0953
▁ရေးသားခြင်း	-11.0956
▁ဆုံးရှုံးခဲ့သည်	-11.0957
▁ဖိ	-11.096
▁မတ်ဒ်	-11.0963
ေယာ	-11.0964
၂၆	-11.097
ကြားတွင်	-11.097
ဒါး	-11.0972
ာဗယ်	-11.098
▁အတတ်ပညာ	-11.098
▁လိုအပ်ခဲ့	-11.0981
▁တိုးတက်အောင်	-11.0981
▁ကဇ	-11.0986
▁ပိတ်ဆို့ထား	-11.0987
▁ဆွ	-11.0987
▁ဘာရီ	-11.0989
▁အခ	-11.0991
▁ဂျီဟတ်	-11.0997
▁မက်ဂ	-11.1
▁လည်ပတ်မှု	-11.1
အေဗွီအို	-11.1
▁နှစ်လုံး	-11.1
▁ပစ်ခဲ့သည်	-11.1005
တော	-11.1008
▁ဂျာစီ	-11.1008
▁နတ်	-11.1013
▁လွန်း	-11.1015
ရှိကြသည်	-11.1019
ဘီယာ	-11.1019
▁မြင့်မားမှု	-11.1023
▁ဟန်း	-11.1026
စွမ်းအင်သုံး	-11.1027
▁၉၅	-11.1032
▁စပ်တူ	-11.1037
၆၅	-11.1041
မတ်စ်	-11.1045
▁လွှတ်တင်မှု	-11.1047
▁ယူဆောင်လာ	-11.1047
▁တိုက်ခတ်မှု	-11.1049
နေး	-11.1051
▁အလုပ်အကိုင်များ	-11.1052
▁ထုတ်လုပ်ခြင်း	-11.1054
▁ရပ်တန့်စေ	-11.1062
▁များသောအားဖြင	-11.1063
▁တော်	-11.1064
၅၀၀	-11.1065
လက်စ်	-11.1068
ဗက်	-11.1069
▁ရဲတွေ	-11.1078
▁အတည်ပြုနိုင်	-11.1081
မှတ်တမ်း	-11.1086
▁ဖြစ်ပွားနေ	-11.1092
▁ထပ်တူ	-11.1092
ရှိခဲ့	-11.1093
▁သမိုင်းကြောင်း	-11.1097
▁ကြီးထွား	-11.1099
▁သိန်း	-11.1101
▁ကုန်ထုတ်လုပ်	-11.1107
▁ဂေး	-11.1109
▁ယူအီးအ	-11.111
လာရာ	-11.111
▁မဖြစ်နိုင်ပါ	-11.1112
်တာ	-11.1112
ကိုယ်	-11.1117
▁အော့ဖ်	-11.1119
ဗို	-11.1129
▁တည်ရှိခဲ့	-11.1131
▁ဒူဘ	-11.1134
▁ဝိုင်း	-11.1134
ဆရာဝန်	-11.1138
▁အကူအညီပေးရေး	-11.1138
▁ပိတ်ပစ်	-11.1139
ဆီး	-11.1145
▁ရှုမြင်	-11.1154
▁ရိုက်နှက်	-11.1155
▁ဖယ်ရှားခဲ့	-11.1156
လာမို	-11.1157
▁လွတ်တော်	-11.116
▁အမြောက်	-11.1161
▁ဗီလာ	-11.1164
▁တဲ	-11.1168
နသန်	-11.1169
▁သတ်ဖြတ်ခဲ့	-11.117
▁ဒေါသ	-11.1172
▁ခရစ္စ	-11.1173
င့်	-11.1176
▁ပေးဝေ	-11.1177
တော်များများ	-11.1184
▁အီဟ	-11.119
ဘုရားကျောင်း	-11.1191
▁လွန်	-11.1195
▁ဘီစီ	-11.1196
အေတီ	-11.1197
▁ဝဲလ်	-11.1198
▁စိတ်အားထက်သန်သူ	-11.1198
မောက်	-11.1203
▁၅၄	-11.1205
▁ဟီလီ	-11.1206
▁မဖော်ပြ	-11.1208
ကြော	-11.1209
▁တင်ပြထား	-11.1212
▁ဘောလုံးရိုက်	-11.1213
ပြီးသည့်နောက်	-11.1215
▁သိကြ	-11.1218
▁ချုပ်ကိုင်	-11.1222
▁မပြောင်းလဲ	-11.1224
က်ထရစ်	-11.1226
▁ရှင်းပြခဲ့	-11.1228
ီလီယမ်	-11.1228
▁ကူဝ	-11.123
လာတဲ့	-11.1232
▁ဖရီး	-11.1237
▁ယူခဲ့	-11.1239
▁ကြံစည်	-11.1242
▁တင်ပို့	-11.1243
▁သုတေသနပြု	-11.1247
▁ထွက်ခွာသွား	-11.1248
▁ရှိုး	-11.1251
▁ပါတယ်	-11.1257
▁စိတ်လှုပ်ရှား	-11.1261
▁တွေ့ဆုံမှု	-11.1267
▁လူသတ်	-11.1269
ကောင်းမွန်	-11.1272
▁ရနိုင်	-11.1276
▁တားမြစ်ခြင်း	-11.1279
ကြည့်မှန်ပြောင်း	-11.1286
▁ခဲ့ပါ	-11.1286
ကူးသန်းရောင်းဝယ်	-11.1287
▁ဇာ	-11.1293
▁ရစ်ချတ်	-11.1296
ထိပ်သီးအစည်းအဝေး	-11.1296
ရိုင်း	-11.1302
▁စီစဉ်ပေး	-11.1302
▁စိုစွတ်	-11.1303
ပေးသူ	-11.1304
▁သင်ကြား	-11.1306
ရုပ်ရှင်ရိုက်ကူး	-11.1309
တာတွေ	-11.1309
အခြေခံ	-11.1315
တီအေ	-11.1315
ကြိုးပမ်း	-11.1319
▁တစ်ဆယ့်တစ်	-11.1324
▁ပြုပြင်မှု	-11.1327
▁၇၇	-11.1329
▁အခြေခံထား	-11.1333
ဘနွန်	-11.1335
မဟုတ်ဘူး	-11.1335
စီအေ	-11.1341
▁ဟန့်	-11.1342
▁ထောက်ပံ့သော	-11.1346
▁ညွှန်ကြား	-11.1349
▁ရှပ်	-11.1349
▁ပိတ်ခဲ့	-11.1357
မှာပဲ	-11.1373
ယွန်	-11.1373
▁မရှိမဖြစ်	-11.1378
▁အောက်ရှိ	-11.1384
▁ဆင်ခြေ	-11.1385
တူညီတဲ့	-11.1387
သွင်းခဲ့သည်	-11.1387
အသုံးပြု	-11.139
ရေးရှင်း	-11.1391
လွတ်	-11.1394
▁ဆုပ်ကိုင်ထား	-11.1396
▁တင်ပြထားသည်	-11.1399
▁များပြားလှ	-11.1402
ွတ်ခ်	-11.1407
▁အုတ်	-11.1408
▁လေဘာ	-11.1411
▁ပြင်ဆင်ခဲ့	-11.1414
လိုက်ပါသည်	-11.1416
▁ကြိုဆိုခဲ့	-11.1417
▁ဂတ်	-11.1422
ထုတ်ခဲ့သည်	-11.1422
နစ္စတန်	-11.1426
▁စောင့်နေ	-11.1426
▁ပြုလုပ်မည်	-11.143
▁နာတာ	-11.1438
▁လွတ်	-11.1441
▁ဖိတ်	-11.1444
ရရှိ	-11.1453
▁ဖြစ်ပျက်ခဲ့သည်	-11.1454
▁ပါရီ	-11.1461
▁ရှိပါ	-11.1465
▁စီမံအုပ်ချုပ်	-11.1467
ဖိုက်အ	-11.1468
ပျက်စီးဆုံးရှုံး	-11.147
မှန်ပြောင်း	-11.1472
▁နောင်လာမ	-11.1476
▁ကိန်း	-11.1478
▁အိုးအိမ်	-11.148
▁ခရီးသွားလာ	-11.148
၃၉	-11.1482
▁တာက	-11.1485
▁ကြော်ငြာခဲ့သည်	-11.1487
▁မြင်တွေ့	-11.1489
▁ရိ	-11.149
▁ပါ၀င်သည်	-11.1494
▁၄၁	-11.1497
▁နီး	-11.1502
▁ကူ	-11.1503
ဆွေးနွေးငြင်းခုံ	-11.1506
▁မည့်သည့်	-11.1508
နီယာ	-11.1519
ဆွေးနွေးမှုများ	-11.152
ဖြစ်ပွားမှု	-11.152
▁ညီညွတ်	-11.1522
ရီယန်	-11.1531
▁ဂါရ	-11.1535
▁ပြန်လည်ဖွဲ့စည်း	-11.1537
▁အများပြော	-11.154
▁သူတို့တွေ	-11.154
▁တပတ်	-11.1541
အခွင့်အရေး	-11.1541
လ်လာ	-11.1555
▁ဖြစ်လာမည်	-11.1556
▁စက်ပစ္စည်း	-11.1557
▁လူတစ်ယောက်	-11.1562
သဘောထားကွဲလွဲမှု	-11.1568
▁ဖိနှိပ်	-11.1568
▁လှပ	-11.157
▁ရှုံးခဲ့	-11.1575
ငွေကြေး	-11.1576
▁တိုက်မှု	-11.1581
▁မက်ဒ	-11.1581
အပ်	-11.1583
လိတ်	-11.1583
ူမာ	-11.1584
▁ဖြစ်ပွားသော	-11.1585
▁၇၁	-11.1591
▁ခဏ	-11.1591
▁တွေ့ဆုံခဲ့	-11.1608
လှုံ့ဆော်မှု	-11.1608
ဆရာ	-11.1611
ကဏ္ဍ	-11.1612
ဆဲလ်	-11.1619
▁တန်ဖိုးရှိ	-11.1621
▁မတတ်နိုင်	-11.1625
ဒဘလျူ	-11.1626
နည်းလမ်း	-11.1626
လိုက်ဖ်	-11.1627
▁ဆန္ဒမဲပေး	-11.1628
လက္ခဏာ	-11.1629
▁ပြုလုပ်ထား	-11.1632
ကစားပွဲ	-11.164
▁သီရိ	-11.164
▁ယူအို	-11.1644
▁ခွဲတမ်း	-11.1649
▁မသိခဲ့	-11.1652
ကော်မရှင်အဖွဲ့	-11.1654
ခရီးသွားလုပ်ငန်း	-11.1657
အစည်းအဝေး	-11.1657
ရိဒ်	-11.1659
▁ကင်းလွတ်ခွင့်	-11.166
အနှံ့	-11.1662
အလိုက်	-11.1669
▁ဆင်ဆာ	-11.1669
ိုဝီ	-11.167
ပြန်လည်လုပ်ဆောင်	-11.1673
အိတ်စ်	-11.1675
ထရစ်	-11.1685
ငွေစာရင်း	-11.1687
ဆယ်	-11.1687
မိုဘိုင်း	-11.1689
▁ရုံးများ	-11.1692
ီးရီးယား	-11.1698
▁သေးဆုံး	-11.1698
▁သိမ်းယူ	-11.1699
▁လိုအပ်မှု	-11.1699
▁ပြင်ဆင်ခဲ့သည်	-11.1702
စစ်ပွဲ	-11.1702
ပေါက်ကွဲမှု	-11.1703
▁ယူဆထား	-11.1705
▁မတ	-11.1707
▁အံ့ဩ	-11.1711
အဆောက်အအုံ	-11.1714
ဆင့်	-11.1715
ထားရှိ	-11.1722
▁ဝန်ဆောင်ခ	-11.1722
ရာနာ	-11.1723
▁လက်ဝယ်	-11.1728
▁နိုင်း	-11.1729
က်တီ	-11.1729
အထက်	-11.1732
▁လျှောက်ထား	-11.1734
▁အော်ဟစ်	-11.1735
အဖွဲ့ဝင်	-11.1736
▁တင်ဆောင်	-11.1737
္စတန်	-11.1738
▁လာမယ	-11.1738
ဝစ်	-11.1741
▁အခြေ	-11.1746
ဟော	-11.1753
▁တုံ့ပြန်ခဲ့	-11.1753
အကြောင်းအရာ	-11.1767
ရင်းနှီး	-11.177
▁အကျဥ်း	-11.1776
▁နှုတ်	-11.178
ကဒ်	-11.1785
▁၂ဝ	-11.1797
▁ကတိပေးခဲ့	-11.1804
▁အသိအမှတ်	-11.1804
ဘားမား	-11.1807
▁စိတ်ချ	-11.1808
အစ	-11.1812
ဖြစ်အောင်	-11.1824
▁ထွက်ခဲ့	-11.1828
လိုက်ပါတယ်	-11.1829
▁မြို့ကြီး	-11.183
▁မန်န	-11.1832
စီဒီ	-11.1839
▁ဆူပူ	-11.1843
▁ဘုရင်ခံ	-11.1844
▁ကောက်နုတ်	-11.1844
▁ကွယ်လွန်	-11.1846
ငါး	-11.1849
အမျှ	-11.1851
▁အရင်း	-11.1854
▁ဖြည့်ဆည်း	-11.1855
▁၈၃	-11.1857
▁တွန်းအား	-11.1858
▁ဒိုင်း	-11.1858
▁ပင်လယ်ရေ	-11.1858
▁သတင်းသမား	-11.1858
▁ပါရာလ	-11.1859
▁တိုက်မိခဲ့	-11.1859
်တန်	-11.1859
စကီး	-11.1864
တည်ငြိမ်မှု	-11.1867
▁သွားရောက်ခဲ့	-11.1868
▁တောက်ပ	-11.187
▁ပေးမည်	-11.1871
▁ကြားရ	-11.1873
ပုံရ	-11.1874
▁မတော်တဆထိခိုက်	-11.1876
ည်း	-11.188
▁ဖြူ	-11.1884
တပ်ဖွဲ့များ	-11.1886
လိင်တူဆက်ဆံခြင်း	-11.1886
သိ	-11.1886
▁အကျယ်	-11.1892
ရုံးချုပ်	-11.1898
▁အိ	-11.19
▁ပရီစတ	-11.1902
▁၁၈၀	-11.1904
ထိန်းသိမ်း	-11.1907
▁ဗစ်	-11.1918
▁ပညာသင်	-11.1919
လွယ်	-11.1921
ချပ်	-11.1922
တောင်ဘက်	-11.1925
လီမန်	-11.1926
မ်ဒို	-11.1926
၆၃	-11.1927
▁စွမ်းဆောင်	-11.1927
းဗီးယား	-11.1935
▁ကော်မ	-11.1935
▁လှုပ်	-11.1935
▁သြဇာ	-11.1937
▁ရီပါ	-11.1942
နှီးမြှုပ်နှံမှု	-11.1944
▁ကယ်လ်	-11.1944
လုံခြုံရေး	-11.1945
ွိုင်လာ	-11.1947
ာ့	-11.1948
▁ခါးပတ်	-11.1949
▁ပင်တဂွန်	-11.1949
▁လိုက်လံ	-11.195
▁ဥမင်	-11.195
▁အလယ်အလတ်	-11.195
▁ဂျီဘူတီ	-11.195
▁င်္သဘော	-11.195
▁ဒဗျူအမ်ဒီ	-11.195
▁ရိုမေနီးယား	-11.195
▁အညစ်အကြေး	-11.195
▁အန်ဆယ်လာဒတ်	-11.195
▁အလူမီနီယ	-11.195
▁အောက်ဆီဂျင်	-11.195
▁ဆန္ဒပြကြသောသူ	-11.195
▁ဗီတာမင်	-11.195
▁အီသီယိုးပီး	-11.195
▁အေ၃၈၀	-11.195
▁စင်ကာပူ	-11.195
▁နဝမ	-11.195
▁မော်ဒိုဗ	-11.195
▁တရားမ၀င်	-11.195
▁ဘီလာရု	-11.195
▁ဘတ်စကက်ဘော	-11.195
▁ဗီအဲရာ	-11.195
▁သိပ္ပံနည်းကျ	-11.195
▁အယ်လ်ဇိုင်းမား	-11.195
▁ပစ္စည်းဥစ္စာ	-11.195
▁ပရော်ဖက်	-11.195
▁ဖျားနာ	-11.195
▁ယူနီယံ	-11.195
▁ဘုရားဖူး	-11.195
▁စစချင်း	-11.195
▁မန်ဆာချူးဆက်	-11.195
▁ကြီးကြပ်ရေးမှူး	-11.195
▁ဘာကြောင့်လဲဆို	-11.195
▁စတီဖန်	-11.195
▁ဂျပ်စတ	-11.195
▁ပင်လယ်ကမ်းခြေ	-11.195
▁အသက်ရှင်နေထိုင်	-11.195
▁လူတွေ့မေးမြန်းခ	-11.195
▁နိ်ုင်ငံ	-11.1951
▁ဉာဏ်ရည်	-11.1951
▁ပညာတတ်	-11.1951
▁ဘလော့ဂါ	-11.1951
▁အော်စကာ	-11.1951
▁ခွင့်ပြုမိန့်	-11.1951
▁စားသောက်ကုန်	-11.1951
▁ဂေါ်ကာ	-11.1951
▁အပ်နှံ	-11.1951
ပြသ	-11.1952
▁အာဟာရ	-11.1952
▁အစ်စရေး	-11.1952
▁ဂျာဗား	-11.1953
▁စေ့စပ်ဆွေးနွေး	-11.1953
▁အီးမေး	-11.1953
▁ဂျင်မီ	-11.1954
▁ဂဲရင်း	-11.1954
▁အပါအ၀င်	-11.1954
▁လင်းနို့	-11.1954
▁ဖြစ်နိုင်သမျှ	-11.1954
ဂွေး	-11.1955
▁အဲဒီနောက်	-11.1955
▁အချိန်ဇယား	-11.1955
▁ချီးကျူးဂုဏ်ပြု	-11.1955
▁မာဂရက်	-11.1955
▁ယင်းကဲ့သို့	-11.1955
▁ရှေ့သို့	-11.1955
▁နှုတ်ဆက်	-11.1956
▁ဂွာတ	-11.1956
▁စစ်သင်္ဘော	-11.1957
▁ဒီဇယ်	-11.1957
▁လူအုပ်ကြီး	-11.1957
▁ဘာဘရာ	-11.1958
▁တောင်ကိုရီးယား	-11.1958
▁ဘရုစ်	-11.1958
▁စည်းလုံးညီညွတ်	-11.1959
▁စောင့်ကြပ်	-11.1959
▁ဒုတိယအကြိမ်	-11.196
▁ကျွဲနွား	-11.196
▁စလိုဗေးနီးယ	-11.196
▁အသင်းဖော်	-11.1961
▁ဒလိုင်း	-11.1962
▁ပုံပြင်	-11.1962
▁ပုံစံတူ	-11.1962
▁ပြီးတဲ့နောက်	-11.1962
▁အမတ်လောင်း	-11.1962
▁၁၉၇၅	-11.1962
▁စိတ်ဓာတ်	-11.1963
▁ဆန္ဒမရှိ	-11.1963
▁မှလွဲ	-11.1964
▁ဘွဲ့ရ	-11.1964
▁လက်ထပ်ထိမ်းမြား	-11.1964
▁အဆင့်မြှင့်	-11.1965
▁ဒေသစိတ်	-11.1966
▁ကျယ်လောင်	-11.1967
▁ကွီ	-11.1967
▁တင်းကြပ်	-11.1967
▁တည်မြဲ	-11.1968
▁အော်တို	-11.197
▁အင်ဂျလိ	-11.1971
▁သရဖူ	-11.1971
▁အမတ်နေရာ	-11.1971
▁စာတိုက်	-11.1971
▁တိတိကျကျ	-11.1971
▁စာရွက်	-11.1972
အာစီ	-11.1973
▁ကျည်ဆံ	-11.1973
▁ဟိုက်ဒရို	-11.1973
▁ရဟတ်ယာဥ်	-11.1973
ော့တီ	-11.1974
▁ခန့်မှန်းချေ	-11.1974
▁ဂျွန်နီ	-11.1975
▁ကျွဲ	-11.1976
ခွင့်ရ	-11.1978
▁ဖြ	-11.1979
▁ပူနွေးလာမှု	-11.198
စိုးရိမ်ပူပန်မှု	-11.1981
▁၅၀၀၀	-11.1981
▁ကားမောင်းသူ	-11.1981
ဂျာကာတာ	-11.1983
▁အမည်များ	-11.1984
▁ကရိယာ	-11.1987
▁သရေကျ	-11.1987
ရာဇီ	-11.1988
ကင်ဆာ	-11.1991
▁တွေ့ရှိမှု	-11.1992
လီဆာ	-11.1994
▁မျှတမှု	-11.1996
▁နှစ်စဥ်	-11.1997
▁ကျွမ်းကျင်မှု	-11.1998
▁ဖေါ်ထုတ်	-11.2
▁ြပီး	-11.2001
▁အချိန်ကိုက်	-11.2002
▁ကြန့်ကြာ	-11.2002
▁အယူဝါဒ	-11.2004
▁ဆောင်ပုဒ်	-11.2004
▁ကွာတား	-11.2005
▁ထောက်ပံ့ကြေး	-11.2005
ရု	-11.2006
▁အိုင်ရန်	-11.2006
▁သေသေချာချာ	-11.2007
▁ဒီကိစ္စ	-11.2007
▁ရှယ်ယာရှင်	-11.2008
▁ဝေးစ်	-11.2008
▁ကျော်လွှား	-11.2008
▁ဟော်ကီ	-11.2009
▁အနီးဆုံး	-11.2009
▁ကြားထဲ	-11.2009
ဖြစ်ခဲ့တယ်	-11.201
▁ဖြစ်ပွားရာ	-11.2011
ဘောလုံးအသင်း	-11.2012
▁အယ်လန်	-11.2013
▁မူလက	-11.2013
▁တစ်ဆယ့်နှစ်	-11.2013
▁တင်းကျပ်သော	-11.2013
▁ဝါတာ	-11.2014
▁ပင်လယ်ဓားပြ	-11.2016
▁စိ	-11.2016
▁အဖြစ်ဆိုး	-11.2018
▁ပိတ်ပင်တားဆီး	-11.2023
ိုရမ်	-11.2024
▁ဆင်းရဲသား	-11.2024
▁တီး	-11.2026
▁စကော့တစ်	-11.2027
ဖွား	-11.2027
▁ချားဗေ	-11.2027
၀ရမ်း	-11.2028
▁ဘယ်လ	-11.203
▁အကျင့်ပျက်	-11.2031
▁ပြဌာန်းချက်	-11.2034
▁ကိုယ်ဝန်	-11.2035
▁ခိုးမှု	-11.2037
▁ကြီးကြပ်သူ	-11.2037
▁ဓာတုဗေဒ	-11.2044
▁တိုင်ကြားချက်	-11.2044
▁လမ်းညွှန်ချက်	-11.2045
▁၎င်းကို	-11.2047
▁ဆယ့်ငါး	-11.2048
စေချင်	-11.2048
▁မာဆာ	-11.205
▁အနှစ်	-11.205
▁လူဆိုး	-11.2051
ထည့်သွင်းစဉ်းစား	-11.2055
နီးရှား	-11.2056
▁သတ်မှတ်ခြင်း	-11.2059
▁ရေလွှမ်းမိုးမှု	-11.206
ဂူဂယ်လ်	-11.2061
▁စူးစမ်းလေ့လာ	-11.2063
ီဗန်နီ	-11.2066
▁နေထိုင်ရာ	-11.2068
▁လူ့ကျင့်ဝတ်	-11.2076
ပါဘဲ	-11.2079
ပေးသည်	-11.2081
အက်ဖ်ပီ	-11.2083
▁ဖန်တီးထား	-11.2085
ျာ	-11.2085
▁ပံ့ပိုးမှု	-11.2087
ွက်	-11.2087
▁ဟောင်းဝ	-11.2089
ျူ	-11.2092
▁ရွေ့ပြောင်း	-11.2097
▁၉၇	-11.2097
▁ကုန်သည်များ	-11.2098
▁သန့်စင်	-11.2098
▁ကြီးကြပ်မှု	-11.2098
ဂါရီ	-11.2099
▁နှစ်ကြိမ်	-11.2099
▁ကလေးငယ်များ	-11.2101
▁အေကေ	-11.2101
▁တယောက်	-11.2103
▁အန္တရာယ်ကင်း	-11.2105
▁ငွေများ	-11.2108
▁နှစ်ရက်	-11.2112
ီဇွန်	-11.2116
▁ချဉ်းကပ်မှု	-11.2116
▁ကြွယ်ဝ	-11.2119
▁ဆက်စပ်မှု	-11.2123
▁ယန်း	-11.2124
အမ်ဒီစီ	-11.2125
▁ပျက်ကွက်ခဲ့သည်	-11.2127
▁ဖေ့ဘွတ်	-11.2131
▁ခံစားမှု	-11.2132
▁၁၉၀	-11.2132
▁အစိုးရဌာန	-11.2133
▁ပြောခဲ့သော	-11.2138
▁ပစ်ချက်	-11.2138
▁တိုက်ထုတ်	-11.2144
▁လက်တွေ့ကျ	-11.2144
▁ဖမ်းယူ	-11.2145
▁ကွဒ်	-11.2145
▁အေရာ	-11.2145
▁လတ်မှတ်ရေးထိုး	-11.2145
▁လွတ်ငြိမ်းခွင့်	-11.2147
စင်း	-11.2147
အက်ဖ်အယ်လ်	-11.2148
ဒင်း	-11.215
အစိတ်အပိုင်းများ	-11.2151
▁အကို	-11.2152
နီဒက်	-11.2154
▁ကျယ်	-11.2154
▁စေလွှတ်ခဲ့	-11.2155
ကောင်းတဲ့	-11.2157
▁တင်ခဲ့	-11.2162
▁စွန့်စား	-11.2165
အောက်	-11.2166
▁တရားစွဲဆိုခဲ့	-11.2167
▁ခိုး	-11.2167
▁ပြန့်နှံ့	-11.2167
▁အရှိန်ပြင်း	-11.2167
▁ငှက်များ	-11.2169
▁ဆားဗ	-11.2171
လစ်ဗျား	-11.2172
ပက်သက်၍	-11.2176
▁ဖမ်းဆီးထား	-11.2177
▁ပရိတ်သတ်များ	-11.2179
မစွမ်းဆောင်နိုင်	-11.2182
▁အီးဒီ	-11.2183
နီယမ်	-11.2189
▁အကြံပေးချက်	-11.2194
ခွင့်	-11.2196
▁တိုက်ဆိုင်	-11.2201
▁မြင့်တတ်	-11.2203
▁စပါး	-11.2203
▁ငြင်းခုံမှု	-11.2203
▁နက်ဝပ်	-11.2207
▁အလွန်ဆို	-11.2209
▁ဆန်း	-11.221
▁ကျွမ်းကျင်သော	-11.2211
▁ဘုန်းကြီး	-11.2211
န့်စ်	-11.2214
သည့်အရာ	-11.222
▁ပူးပေါင်းကြံစည်	-11.222
▁နေကြ	-11.2222
နည်းတူ	-11.2225
▁ဝိန်း	-11.2235
▁မဲပေးခဲ့	-11.2235
▁ရှပ်အင်္ကျ	-11.2235
▁အတော်များ	-11.2235
▁စားသုံးသူများ	-11.2239
▁နှောင့်နှေးမှု	-11.224
▁မပြုလုပ်ခဲ့ပါ	-11.2244
▁ပစ်ခဲ့	-11.2244
▁ကြော်ငြာခြင်း	-11.2246
▁ကျူးကျော်သူ	-11.2248
▁ဝတ်စုံ	-11.2249
▁ထုတ်ဝေသူ	-11.2252
ကြိုတင်ခန့်မှန်း	-11.2256
▁ကြားနေ	-11.2257
▁ရက်ဒီ	-11.226
▁တန်ဖိုးထား	-11.2261
▁ဒေဝါလီခံ	-11.2269
္်	-11.2271
သားရေ	-11.2274
▁မသန်မစွမ်း	-11.2276
ထုတ်လုပ်သည့်	-11.2281
လာဒ	-11.2281
▁မြင်တွေ့ခဲ့ရ	-11.2282
ရန့်	-11.2291
▁ကယ်ဆယ်ရေးသမား	-11.2291
ထုတ်လွှတ်မှု	-11.2292
▁တင်ပြထားပါ	-11.2294
၃၂	-11.2297
ိုင်ရာ	-11.2298
▁အကြမ်းဖက်ခြင်း	-11.23
▁ကြိုးပမ်းချက်	-11.2304
▁အဲလ်	-11.2305
ဋ္ဌာန	-11.2307
▁၀၀၀	-11.231
▁ဇက်	-11.2311
မ်တန်	-11.2311
▁လိုက်နာခြင်း	-11.2311
▁ချီးမွမ်း	-11.2312
▁ဆင်ခြင်	-11.2313
▁လောင်းကစားရုံ	-11.2314
ီလို	-11.2315
▁ပညာပေး	-11.2317
င်ဒီ	-11.2317
▁အဖြေများ	-11.2321
▁ကြောက်	-11.2321
▁ပေးကမ်း	-11.2321
▁သွင်းယူခဲ့	-11.2322
▁အံ့အားသင့်	-11.2326
▁ဆက်ဆံမှု	-11.233
▁ဦးစွာ	-11.2333
စောင့်ရှောက်မှု	-11.2334
ဝန်ကြီးချုပ်	-11.2337
▁သေဆုံးသွားခဲ့	-11.2338
▁ဧည့်	-11.2339
▁အန်း	-11.2341
▁စတီ	-11.2348
▁ကုဒ်	-11.2352
ကစားသမားများ	-11.2355
▁မွေးစား	-11.2355
▁အိုင်စီ	-11.2359
ယယ်	-11.2367
ဂျ	-11.2368
▁ဖိုင်နယ်	-11.2368
သံလိုက်	-11.2368
▁အရေးပါမှု	-11.2372
စေး	-11.2376
ချို	-11.2377
▁ရိုဘင်	-11.2378
အောင်လုပ်	-11.2381
▁ထုတ်ပြန်ခြင်း	-11.2384
▁မောင်းနှင်ခဲ့	-11.239
လှုပ်ရှားမှုများ	-11.2392
▁ဟမ်	-11.2397
▁စိန်ခေါ်မှုများ	-11.2398
▁၁၉၄	-11.2399
▁ထုတ်ဖေါ်	-11.2402
န်ကို	-11.2402
▁လျှို့ဝှက်ချက်	-11.2402
▁ဂီတာ	-11.2408
▁အရွယ်ရောက်	-11.2412
▁ပယ်ဖျက်ခဲ့	-11.2415
▁တိုက်ကွ	-11.242
ထု	-11.2423
▁ရရှိလိမ့်မည်	-11.243
▁နော့	-11.2432
▁ဝီကီပီဒီ	-11.2433
လင်	-11.2433
▁အစော	-11.2436
ထုတ်ခြင်း	-11.2437
ကျော်ကြား	-11.2441
ီယန်	-11.2455
▁တိမ်	-11.2458
▁ရေများ	-11.2461
▁ထရ	-11.2468
▁ခွဲခြားမှု	-11.2469
အိပ်ခ်ျအ	-11.247
ီဂန်	-11.2477
▁ကျဆင်းသွားသည်	-11.2478
့ချ်	-11.248
နိုင်မှု	-11.2485
▁ထုတ်ပြန်ကြေညာ	-11.2486
မြင်	-11.2486
စီစီ	-11.2488
▁ကျူးလွန်ခဲ့	-11.249
▁ဝင်ရောက်မှု	-11.249
ခံနေရ	-11.2491
ီစတန်	-11.2491
▁ရှိသေးသည်	-11.2492
မိုး	-11.2494
▁ဂျက်စီ	-11.2495
ရောက်ရှိလာခဲ့သည်	-11.2498
ဏ္ဏ	-11.2505
▁အပစ်အခတ်ရပ်စဲ	-11.2506
စာမျက်နှာ	-11.2507
▁အာရ	-11.2507
▁သိုးထ	-11.251
ောင်ဒ	-11.2516
▁ပြာ	-11.2521
▁မတော်တဆဖြစ်	-11.2522
▁အဓိကကျသ	-11.2522
▁အလွန့်	-11.2525
▁မင်းတို့	-11.2528
လွန်း	-11.2537
▁လိင်ပိုင်း	-11.2537
▁မဲဆန္ဒပေး	-11.2541
▁ကွန်ကရစ်	-11.2547
▁ကျော်ကြားသူ	-11.2552
▁အထောက်အပံ့များ	-11.2556
▁ဟိုဝ	-11.2556
▁ငြိမ်သက်	-11.2557
▁ဝစ်စ	-11.2559
▁အေဇာ	-11.256
▁ကြိုက်	-11.2562
▁အန်အက်	-11.2562
▁ရောက်ရှိခြင်း	-11.2563
းခြင်း	-11.2575
▁ထိုင်နေ	-11.2578
▁ဘီဒီ	-11.2581
ထောက်လှမ်းရေး	-11.2583
▁ဖုန်းခေါ်	-11.2585
ကူး	-11.2585
▁ဆော	-11.2594
▁ကိုစတာ	-11.2596
မြေပြင်	-11.2596
▁ထောက်ခံအားပေး	-11.2605
▁ပေးနိုင်	-11.2607
၀၂	-11.2608
▁ပြောထား	-11.2616
ဖွဲ့စည်း	-11.2622
ပြီးဖြစ်	-11.2623
▁ရွန်နီ	-11.2623
▁လေတိုက်	-11.2624
▁စုံစမ်းစစ်ဆေးနေ	-11.2628
▁အန်အိုအ	-11.2629
ဲ့ပါသည်	-11.2633
▁လှုပ်ခတ်ခဲ့	-11.2634
▁ဖေါင်	-11.2638
သတ်မှတ်ချက်	-11.264
▁ခွင့်ပြု	-11.2649
▁ရောက်ရှိလာခဲ့	-11.265
▁ကလစ်	-11.2652
ဖွင့်ပွဲ	-11.2654
▁အခြားနေရာ	-11.2659
ပေးခဲ့သော	-11.2662
▁အောင်မြင်ခဲ့	-11.2662
းနား	-11.2663
▁တိုင်အ	-11.2668
▁အက်စ	-11.2673
▁ဘရန်	-11.2673
▁ကိုးကားဖော်ပြ	-11.2677
ာ့ဒ်	-11.2678
တုတ်	-11.2678
▁ညွှန်ကြားရေးမှ	-11.2678
▁ကိုင်ဆောင်ထား	-11.2679
နိုင်ရန်	-11.2679
ပေးသည့်	-11.2682
▁အိတ်ချိန်	-11.2684
▁ဘွန်	-11.2684
▁ရန်ကီ	-11.2684
▁ဆက်လက်ဖြစ်ပွား	-11.2686
▁ကြို	-11.2691
▁ဇီလ	-11.2692
ဘီအို	-11.2693
နီဗာ	-11.2696
▁ကျန်ရှိနေသည်	-11.2699
ရှာဖွေ	-11.2713
ကနေ	-11.2714
ဝမ်	-11.2714
▁ကြောက်လန့်	-11.2716
▁မှတ်ပုံတင်ထား	-11.2723
▁ခက်ခက်ခဲခဲ	-11.2729
▁ဂိုးသွင်းခဲ့	-11.2731
▁လှူဒါန်း	-11.2731
▁မြင့်တက်ခဲ့	-11.2732
▁ထိန်းသိမ်းခဲ့	-11.2737
▁ထိန်းသိမ်းခြင်း	-11.2739
ဂိုဏ်း	-11.2746
▁ဂျု	-11.2749
▁ဖုံးလွှမ်း	-11.275
▁အနိုင်ယူ	-11.2755
လိမ့်မည့်	-11.2756
ပါစေ	-11.2762
▁စစ်ဆေးမှုများ	-11.2765
▁တခါတ	-11.2765
▁အက်စ်အီး	-11.2765
▁အရိပ်	-11.2767
▁ဟက	-11.2768
▁လိုအပ်သ	-11.2768
▁ချွတ်	-11.2773
မ်ပစ်	-11.2776
▁ရှူ	-11.278
▁ပိုကောင်း	-11.2781
▁စိတ်အားထက်သန်	-11.2788
တာဖြစ်	-11.2789
က်ပိုင်း	-11.2791
▁ပြင်းထန်တဲ့	-11.2791
၀တ်	-11.2795
▁ဂျို့	-11.2798
ကီး	-11.2814
▁လည်ပတ်ခဲ့	-11.2817
လိမ်လည်	-11.282
▁ပြည့်နှစ်	-11.2824
ရက်စက်ကြမ်းကြုတ်	-11.2832
ကလီးယား	-11.2832
▁နော်	-11.2839
▁ပြင်ဆင်နေ	-11.2842
ဝါ့ဒ်	-11.285
ဖြတ်ပြီး	-11.2852
ဗျ	-11.2852
ဝပ်ဒ်	-11.2855
▁မြှားပစ်	-11.286
ချိန်တွင်	-11.286
▁တစ်နိုင်ငံ	-11.2867
▁အင်ဒို	-11.287
▁ပြန်ရ	-11.287
▁ပစ်လွှတ်ခဲ့	-11.2872
၆၄	-11.2879
▁အမ်စီကိ	-11.2881
▁စီစဉ်သူ	-11.2883
၁၃	-11.2884
ကျခြင်း	-11.289
▁ပြုလုပ်ရန်	-11.2891
▁ပြီးဆုံးသွား	-11.2891
▁ဝဲ	-11.2893
တိုက်ခိုက်ခဲ့သည်	-11.2898
▁လုပ်နေ	-11.2906
▁လိုအပ်တဲ့	-11.2906
ဇင်	-11.2908
ွမ်း	-11.2911
▁ပြုလုပ်ပေး	-11.2913
ဂ်	-11.2913
▁ပို့ဆောင်ခဲ့	-11.2914
နေရာများ	-11.292
▁အာရ်	-11.292
▁လိုအပ်နေသည်	-11.2921
▁အများအားဖြင	-11.2929
▁ကွာခြား	-11.2938
▁အန်န	-11.2942
▁တိုင်ကြား	-11.2943
အာဏာ	-11.2943
စ်ကား	-11.2954
▁ရွှေ့လျား	-11.2956
▁အလျှင်	-11.2963
▁ဆုပ်ကိုင်	-11.297
အခါ	-11.2972
▁ခေါ်သွား	-11.2973
▁ဖုံးအုပ်	-11.2973
ောင်ဒေ	-11.2974
▁ရှီ	-11.2976
၀၀၀၀	-11.2976
▁ဖွဲ့စည်းထားသည်	-11.2977
▁ယှဉ်	-11.2979
ရော	-11.2981
▁ပျောက်ကွယ်သွား	-11.2988
က္က	-11.2991
▁ပစ်မှု	-11.2992
▁မရောက်	-11.2993
▁သူမကို	-11.2995
▁ဦးတည်သွား	-11.2998
်ဘွန်	-11.2998
▁ဆွေးနွေးချက်	-11.2998
▁၂၀၁	-11.2999
▁ကိုယ်ကာယ	-11.3
ထိုး	-11.3
▁တရုတ်ပြည်သူ့	-11.3003
▁ရေးဆွဲခဲ့	-11.3003
ဒရယ်	-11.3009
ံး	-11.3014
င်သော	-11.3018
▁ဘီယာ	-11.3021
ပျံ	-11.3024
ဆိုတာကို	-11.3026
ီလီ	-11.3028
▁တောင်ကုန်း	-11.3036
▁အေးခဲ	-11.3042
ကစား	-11.3046
အများဆုံး	-11.3046
ပီးယား	-11.3047
အီ	-11.305
▁ဟင်	-11.3052
ေါ	-11.3053
၈၀	-11.3059
ဒေး	-11.3061
▁ဖေါ်ပြထား	-11.3061
ဒဏ်	-11.3063
▁မရနိုင်	-11.3063
▁ပျက်စီးနေ	-11.3064
▁ဟန်ဆောင်	-11.3066
ရပ်ဆိုင်းမှု	-11.3069
▁အာဆ	-11.3071
ုင်ယမ်တိုလော်ဂျီ	-11.3071
▁ရိုးသား	-11.3072
ထုတ်ဖော်ပြောကြား	-11.3072
စဉ်းစား	-11.3075
▁လက်ဘန	-11.3076
▁ပါ၀င်သော	-11.3082
သိမ်း	-11.3082
▁ဒေ့	-11.3088
ာအက်	-11.309
▁ကျန်ရှိသည်	-11.3091
ဆွေးနွေးမှု	-11.3091
စို့	-11.3091
▁မက်ကော	-11.3091
ကျောက်တုံး	-11.3098
▁ချား	-11.3102
▁လတ်	-11.3105
အနည်းငယ်	-11.3106
▁ထိုးစစ်ဆင်	-11.311
လေယာဉ်	-11.3112
့ဆုံမေးမြန်းခန်း	-11.3115
စစ်သည်များ	-11.3116
ထိန်း	-11.3118
▁ဆေးကုသမှု	-11.3122
အဲန်	-11.3122
နယ်ပယ်	-11.3123
ကြီးသော	-11.3123
စပါး	-11.3124
ရာထူး	-11.3127
လိဂ်	-11.313
▁အက်ဘ	-11.313
▁ထိခိုက်မိ	-11.3133
၂၃	-11.3135
နောက်ကြောင်းပြန်	-11.3138
▁ဆန္ဒရှိခဲ့	-11.3138
အားကစား	-11.3139
▁ထပ်တလဲလဲ	-11.3141
▁ပိတ်ပင်ထား	-11.3141
▁လျော်ကြေး	-11.3142
နှ	-11.3142
▁တင်ပြမှု	-11.3143
ပူးပေါင်းကြံစည်	-11.3145
▁မြက်ခင်း	-11.3145
▁ပျောက်ဆုံးသွား	-11.315
▁ရိုစ်	-11.3158
▁အလုပ်လုပ်ကိုင်	-11.3164
▁သဘောမတူ	-11.3165
သမ္မတနိုင်ငံ	-11.3166
▁အကျ	-11.3167
လာသည့်	-11.3169
▁အေစီ	-11.3173
▁ဒစ်	-11.3181
▁ရောက်လာခဲ့	-11.3182
ွေ	-11.3183
▁ရူပ	-11.3186
▁ဘာလဲ	-11.3186
▁လများ	-11.3188
▁ပစ်ဒဏ်	-11.3188
ဖီးလ်	-11.3189
▁သီရိလင်္ကာ	-11.3191
ကြိုရွေးကောက်ပွဲ	-11.3191
▁စီရင်စုနယ်	-11.3192
စိုက်	-11.3194
▁ဖြစ်ပျက်နေ	-11.3195
▁စီစဥ်ထား	-11.3198
ုလိုက်အပြုံလိုက်	-11.3199
လုပ်ဆောင်ခြင်း	-11.3203
▁မပြုလုပ်	-11.3205
၇၄	-11.3208
▁ပွ	-11.3211
▁အစုံ	-11.3211
ထိန်းသိမ်းမှု	-11.3212
▁သက်ဆိုင်သည်	-11.3212
တဝှမ်း	-11.3212
▁ဆမ်	-11.3213
▁ဆဲလ	-11.3215
▁ကြံ့ကြံ့ခံ	-11.3222
၃၈	-11.3223
▁ကျဆင်းသွား	-11.3223
စမ်းသပ်စစ်ဆေးမှု	-11.3224
ကတ်	-11.3227
တကြီး	-11.3232
▁ကုန်သွယ်	-11.3234
ဖျား	-11.3242
▁ဘဲလာ	-11.3244
▁နော	-11.3245
▁အသုဘ	-11.3246
▁ကပ်	-11.3246
▁ရယူနိုင်	-11.3246
▁သဘောတူညီခဲ့	-11.3248
▁ဖလ	-11.3252
▁လူတစ်ဦး	-11.3253
▁ဘဏ်လုပ်ငန်း	-11.3261
▁လှုံဆော်	-11.3263
▁၇၆	-11.3264
▁၄င်းကို	-11.3271
▁ဒါပေမယ	-11.3271
▁တစ်ဟုန်ထိုး	-11.3272
▁အကြိမ်ပေါင်း	-11.3273
ဌာ	-11.328
▁ဆာဗာ	-11.3281
▁ဘရွတ်	-11.3288
▁ကစားနေ	-11.3289
▁အစဉ်အ	-11.3298
ကြေ	-11.3298
ဖော်ပြ	-11.3302
▁မှတ်ချက်ပြုခဲ့	-11.3304
▁ဝေဒနာ	-11.3304
ဂေါ	-11.3305
▁မက္က	-11.3306
လီယာ	-11.3306
ရာတိုင်း	-11.331
▁အမ်အိုင်	-11.331
အိတ်အိုင်	-11.3311
▁စိုးရိမ်ပူပန်	-11.3318
▁တောင်းပန်ခဲ့	-11.3318
▁လက်စားချေ	-11.3318
▁တာဝေး	-11.332
▁အမွေ	-11.3323
▁ဟန်မ	-11.3324
▁ထွက်ပေါ်လာသည်	-11.3324
အာရုံ	-11.3326
▁ချမ်း	-11.3328
ကိုး	-11.3329
ာစ်	-11.333
အက်စ်အေ	-11.3332
▁ယိုယွင်း	-11.3334
▁အရည်အချင်းစစ်	-11.3336
▁၁၀၀၀၀	-11.3342
▁ထိုလူ	-11.3345
▁၁၅၀၀	-11.3347
▁ငါးနှစ်	-11.3348
▁ဖွံဖြိုး	-11.335
▁ပရက်စ	-11.335
▁လက်လီ	-11.3353
▁တင်မြှောက်	-11.3359
ဆောင်ရွက်သူ	-11.336
▁ဂြိုဟ်	-11.3362
▁အသနားခံစာ	-11.3362
▁လေလံ	-11.3364
▁ဘက်တီးရီးယား	-11.3365
▁စီရင်ချက်ချ	-11.3367
▁စားသုံး	-11.3369
▁ဒါဏ်ရာ	-11.3369
▁ဝမ်းနည်းဖွယ်	-11.3373
▁အလွဲသုံး	-11.3373
ပြတ်	-11.3373
▁အကန့်အသတ်	-11.3374
▁အာကာသယာဥ်	-11.3375
▁ပြသနေ	-11.3375
▁ဒဏ်ကြေး	-11.3377
▁ရုန်းကန်	-11.3377
▁မျက်မှောက်	-11.3378
▁မူးယစ်	-11.3378
▁လစ်တ်ဗင်န	-11.3378
▁ခိုင်ခိုင်မာမာ	-11.3378
▁မည်သို့ပင်ဆိုစေ	-11.3378
င်ရိုးညွှန်းတမ်း	-11.3378
▁ကန့်လန့်ဖြတ်	-11.3378
▁နဲ့ပက်သက်	-11.3378
▁ဗုဒ္ဒဟူး	-11.3378
▁ဗြိတိသှ်	-11.3378
▁သက်တောင့်သက်သာ	-11.3378
▁သဘာပတိ	-11.3378
▁သမာဓိ	-11.3378
▁ဟာဝိုင်ယီ	-11.3378
▁ဟိုနိုလုလု	-11.3378
▁အစစ်အမှန်	-11.3378
▁ကွန်မန်ဒို	-11.3379
▁ဆော်လမွန်	-11.3379
▁ညီနောင်	-11.3379
▁ဓမ္မ	-11.3379
▁ပင်လယ်ဓါးပြ	-11.3379
▁လက်နက်ခဲယမ်း	-11.3379
▁အပူနွေးဆုံး	-11.3379
▁ဆဌမ	-11.3379
▁ဆီးနှင်း	-11.3379
▁ဖြိုခွဲ	-11.3379
▁ဘာဖယ်လို	-11.3379
▁ဝက်ရူးပြန်	-11.3379
▁သူတော်စင်	-11.3379
▁အိုးမဲ့အိမ်မဲ့	-11.3379
▁ဂုဏ်ထူးဆောင်	-11.3379
▁ဆိုင်းဘုတ်	-11.3379
▁အမိမြေ	-11.3379
▁အသက်ကယ်လှေ	-11.3379
▁ဒီဂျစ်တယ်	-11.3379
▁အစာငတ်ခံ	-11.3379
▁အစ္စတန်ဘူ	-11.3379
▁ပရီးမီးယား	-11.3379
▁လက်ဆင့်ကမ်း	-11.3379
▁အဘယ့်ကြောင့်	-11.3379
▁ဆပ်ကပ်	-11.3379
▁တင့်ကား	-11.3379
▁အိုးပန်း	-11.3379
▁အမာခံ	-11.3379
▁ထိထိရောက်ရောက်	-11.3379
▁ဖေ့စ်ဘွတ်ခ်	-11.3379
▁ထိန်းချူပ်	-11.3379
▁ကာကွယ်တားဆီး	-11.3379
▁မတ်တပ်ရပ်	-11.3379
▁ဘလော့ဂ်	-11.3379
▁ဖလွိုက်	-11.3379
▁မော်လ်ဒို	-11.3379
▁အော်ပရေတာ	-11.3379
▁နေရာထိုင်ခင်း	-11.3379
▁ပျက်ပြယ်	-11.3379
▁အာနိုး	-11.3379
▁လူဉီးရေ	-11.3379
▁ဓါတ်အား	-11.3379
▁တိုနီဘလ	-11.3379
▁ရုပ်ရှင်များ	-11.3379
▁စာရင်းအင်း	-11.3379
▁အိတ်ဖွင့်	-11.338
▁လက်ကောက်	-11.338
▁လက်ရွေးစင်	-11.338
▁စံချိန်ချိုး	-11.338
▁ကုန်တင်သင်္ဘော	-11.338
▁ပလေယာ	-11.338
▁ဗိုက်ပါ	-11.338
▁ဆွန်နီ	-11.338
▁ဈေးဆိုင်	-11.338
▁ချစ်ခင်	-11.338
▁စကာတင်	-11.338
▁ဘီလျံနာ	-11.338
ဒြပ်မှုန်	-11.3381
▁မည်သို့မျှ	-11.3381
▁အမ်တီဗွီ	-11.3381
▁သက်တမ်းကုန်	-11.3381
▁ကားတိုက်မှု	-11.3381
▁မျိုးရိုး	-11.3381
▁တိတိ	-11.3381
▁စိတ်ဆိုး	-11.3381
▁ပြစ်ဒဏ်ဘော	-11.3381
▁ပစ္စည်းကိရိယာ	-11.3381
▁ကမ်းလွန်	-11.3381
▁ဗစ်စတာ	-11.3381
▁ရေနံတူး	-11.3382
▁အစောဆုံး	-11.3382
ဲလို	-11.3382
▁မည်ကဲ့သို့	-11.3382
▁ပြည်သူပိုင်	-11.3383
▁အီတလီနိုင်ငံ	-11.3383
▁စိတ်ပျက်စရာ	-11.3383
▁ခရစ်စတင်း	-11.3383
▁ပုဂ္ဂိုလ်ရေးအရ	-11.3383
▁ပြဒါး	-11.3383
▁ကွင်းဆက်	-11.3384
▁အိမ်ထောင်	-11.3384
▁အရီဇိုးနား	-11.3384
▁အရှေ့တောင်ဘက်	-11.3384
နှီးနှောဖလှယ်ပွဲ	-11.3386
က်ခြင်း	-11.3386
▁ထိပ်ပိုင်း	-11.3386
▁တိုဂို	-11.3386
▁ကြိုတင်ကာကွယ်	-11.3387
▁ဂျက်ကီ	-11.3387
▁အလက်စကာ	-11.3388
ပေါက်ကွဲစေတတ်သော	-11.3388
▁ကြောက်စရာ	-11.3391
▁ရှရှား	-11.3391
▁တုန်ခါမှု	-11.3391
▁ဟာ့ဒ်ဝဲ	-11.3391
▁နှစ်ထောင့်	-11.3391
▁ဂိုးတိုင်	-11.3391
▁အဲယား	-11.3392
▁လေးကြိမ်	-11.3392
စိတ်ကြိုက်	-11.3392
▁စစ်အစိုးရ	-11.3392
ထရယ်	-11.3392
▁တိကျစွာ	-11.3393
▁ဝင်ရောက်စွက်ဖက်	-11.3393
▁၁၉၆၂	-11.3394
▁ရွန်းနီ	-11.3394
ညှိနှိုင်းပွဲ	-11.3395
▁စီးပွါးရေး	-11.3395
သေ	-11.3395
▁တစ်နှစ်တာ	-11.3395
▁လမ်းကြား	-11.3396
▁၈၆	-11.3396
▁သီလရှင်	-11.3397
▁ပုလင်း	-11.3397
▁မက်ထရို	-11.3397
▁တိမ်းရှောင်	-11.3397
▁အောက်မေ့ဖွယ်	-11.3398
▁၂၀၀၇ခုနှစ်	-11.3399
▁လည်ပင်း	-11.3399
▁လက်ခံကျင်းပ	-11.3401
▁အန်အိတ်	-11.3401
▁ရာဘာ	-11.3401
▁သတ္တမ	-11.3401
ာဟီ	-11.3402
▁အပိုဒ်	-11.3402
လီယို	-11.3403
ခဲ့ဖူး	-11.3403
▁ရဲမှူး	-11.3403
▁နာမကျန်း	-11.3404
▁ကျောက်ဆောင်	-11.3404
▁စာပိုဒ်	-11.3404
▁ဆင်ခြင်သုံးသပ်	-11.3404
▁ဂျိန်း	-11.3404
▁ကျဉ်းမြောင်း	-11.3404
▁အိပ်စက်ခြင်း	-11.3405
▁ဝင်ရောက်စီးနင်း	-11.3405
▁ဆိုးကျိုး	-11.3405
▁အခွန်အခ	-11.3405
▁သိုလှောင်ရုံ	-11.3406
▁ဒြပ်ပေါင်း	-11.3407
▁အမ်အက်စ်အန်	-11.3408
▁နှစ်မျိုးလုံး	-11.3408
▁စည်းရုံးရေး	-11.3408
▁အနီးနား	-11.3409
▁ဘန်ဒါ	-11.3409
▁လောရန့်	-11.341
▁တွေ့ဆုံပွဲ	-11.341
▁မူလတန်း	-11.3411
▁သေနတ်ပစ်	-11.3411
▁လော်ရီ	-11.3411
▁အားကစားနည်း	-11.3412
▁အဆင့်	-11.3412
▁အသုံးပြုခွင့်	-11.3412
▁ကနေဒီ	-11.3415
ရပ်ခြား	-11.3418
▁လုံးလုံး	-11.3418
▁ဝရမ်း	-11.3419
▁ရှုတ်ချ	-11.342
▁သို့ပေမဲ့	-11.342
▁အလုပ်ရုံ	-11.342
▁အချက်အချာကျ	-11.342
▁လေးနက်	-11.342
▁မောင်းသူ	-11.342
▁တစ်လျောက်	-11.3421
▁ပူပန်မှု	-11.3422
▁ရှင်သန်မှု	-11.3423
▁ဖြေရှင်းပေး	-11.3423
▁နောက်တန်း	-11.3424
▁နွေးထွေး	-11.3424
▁မြေပုံ	-11.3425
▁နာဂ	-11.3425
▁အသ	-11.3425
▁ကနေဒါနိုင်ငံသား	-11.3425
▁အတွေး	-11.3426
▁ချိုင့်	-11.3426
▁ကမ်းပါး	-11.3427
▁အရှက်	-11.3429
▁ထိုးဖောက်မှု	-11.3429
▁ခြုံလွှ	-11.343
▁ပြတ်လပ်မှု	-11.343
▁ပြည်နယ်အစိုးရ	-11.3431
▁စထရစ်	-11.3431
▁ထပ်ဆင့်	-11.3432
▁ရေတွင်း	-11.3432
ျက်နှာချင်းဆိုင်	-11.3432
▁ဓါးပြ	-11.3433
▁ပီထရ	-11.3434
ဆွဲ	-11.3435
▁သကြား	-11.3436
▁စရင်း	-11.3438
▁ရဲရင့်	-11.3438
▁စတပ်	-11.344
▁အန်အယ်လ်	-11.3443
▁လီမိတ	-11.3443
▁လော့ဒ်	-11.3443
▁ဓါတ်ခွဲ	-11.3444
▁သီးနှံ	-11.3445
▁ဘာရ	-11.3446
▁အေတီ	-11.3447
▁ဝီလီ	-11.3447
▁.....	-11.3448
▁ကတိပြုထား	-11.3448
▁ရှောင်လွှဲ	-11.3449
င့်ကစား	-11.3452
▁အချိန်မှာ	-11.3453
▁ထုတ်လွှင့်ပြသ	-11.3454
▁အခွန်ငွေ	-11.3455
စ်တာ	-11.3457
▁တစ်ဦးတစ်ယောက်	-11.3458
▁ဦးတည်ရာ	-11.3458
လွှဲ	-11.3458
▁ထပ်ပြီး	-11.3462
▁တူရကီနိုင်ငံ	-11.3464
▁ရေတွက်ခြင်း	-11.3465
ဂိုးဧရိယာ	-11.3465
▁ချေမှုန်း	-11.3466
▁ဂွန်ဇေး	-11.3467
▁ခြားနားချက်	-11.3468
ရိတ်	-11.347
▁အာအို	-11.347
▁မျှော်	-11.3482
▁အင်န်	-11.3482
▁ရပ်တည်ချက်	-11.3484
▁ဗူး	-11.3485
▁ပလိန်း	-11.3487
▁ရေန	-11.3493
▁အသက်မွေး	-11.3493
▁မပါပဲ	-11.3493
▁မတည်ငြိမ်မှု	-11.3493
ဒက်	-11.3495
ချက်စတာ	-11.3497
▁အပြိုင်	-11.3498
▁သီဆို	-11.3498
▁အာရာဖ	-11.3499
နရီ	-11.3504
▁ဘရာ	-11.3504
▁ပြွန်	-11.3504
ဒီယူပီ	-11.3507
▁ချေ	-11.3507
လိုသော	-11.3508
▁ထိုအချိန်	-11.3512
▁ကြားနာခြင်း	-11.3513
▁ခြောက်သွေ့	-11.3513
▁ကျော်လွှားနိုင်	-11.3515
▁စိတ်ထိခိုက်	-11.3516
▁ပတ်လမ်းကြောင်း	-11.3517
▁လေ့ကျင့်ပေး	-11.352
▁လာရီ	-11.3521
ာချာ	-11.3522
ဦးစီးချုပ်	-11.3522
▁ပန်န	-11.3524
▁ဂျုံး	-11.3525
▁၈၁	-11.3526
▁အဝေးထိန်း	-11.3527
နေပြီဖြစ်	-11.3528
ဆက်ဆံမှု	-11.3528
▁လက်ကမ်း	-11.3529
အိ	-11.3529
▁ဒါဘီ	-11.353
ေတာ	-11.353
အပျက်အစီး	-11.3532
လူလာ	-11.3532
▁အကြောင်းအချက်	-11.3534
▁၇၀၀	-11.3535
▁ချိုးဖျက်	-11.3535
▁ထီး	-11.3537
▁ရေလွှမ်းမိုး	-11.354
▁အမည်ပေး	-11.354
▁ဟာမ	-11.354
▁မီးလောင်ခြင်း	-11.3542
▁ကျရှုံး	-11.3543
အိုင်အေဂျီ	-11.3543
▁ရေးသားချက်	-11.3544
၇၆	-11.3546
ဖို့ဒ်	-11.3548
▁ဝါနာ	-11.3549
▁သရုပ်ဖော်	-11.3549
▁ပညာရပ်	-11.355
ဝန်ကြီးဋ္ဌာန	-11.355
ဘုန်း	-11.3552
▁ရင်ဆိုင်နေရသော	-11.3556
▁ပေါင်းစည်းရေး	-11.3562
▁နှလုံးသား	-11.357
▁တောင်းခံချက်	-11.3572
ဖိအား	-11.3575
▁ဒရမ်	-11.358
တည်ဆောက်ပုံ	-11.3581
▁မယ်လ	-11.3581
▁ဘော်လုံး	-11.3582
▁ဒဗလူ	-11.3587
ရတာ	-11.3588
▁အဲဒါက	-11.3588
▁မပို	-11.3589
▁ထိတ်လန့်မှု	-11.3589
▁ဖော်ပြခဲ့တယ်	-11.359
▁အရှေ့အလယ်ပိုင်း	-11.359
▁လုပ်လိမ့်မည်	-11.3591
▁အမြစ်	-11.3591
▁ပြီးပြည့်စုံသော	-11.3592
မာရီ	-11.3595
ပေးရမည်	-11.3597
လက်တင်	-11.3602
▁သတင်းသမားများ	-11.3602
▁ပေးပါ	-11.3602
▁ဂတ်စ်	-11.3603
▁သိတယ်	-11.3604
ရည်	-11.3605
▁စစ်တိုက်	-11.3605
▁ပြန်၍	-11.3608
▁စားပွဲ	-11.3609
ရေခဲပြင်	-11.3609
▁နှိုးဆော်	-11.361
▁ကုသခြင်း	-11.361
▁ကြားဝင်	-11.361
▁ဂန်း	-11.3611
ိုလ	-11.3612
▁စုရုံး	-11.3612
▁ဟယ်	-11.3616
မင်	-11.3617
▁ဘေးကင်းရာ	-11.3619
▁ထုတ်ဖော်ခဲ့	-11.3619
မ်းမျှ	-11.362
▁ဝု	-11.3621
▁ပျော်	-11.3622
ရိုရာ	-11.3624
▁အိုး	-11.3625
▁ကောင်စီဝင်	-11.3626
▁တင်းကျပ်	-11.3628
ပြုလုပ်ခဲ့သည်	-11.3631
▁ယုံကြည်နေ	-11.3633
▁အစဉ်အလာ	-11.3633
▁ရွာသား	-11.3636
▁ရှိလိမ့်မည်	-11.3637
ကြမည်	-11.3644
▁ဝန်ကြီးအဖွဲ့	-11.3645
၈၀၀	-11.365
ျူရီ	-11.3654
ဒတ်	-11.3656
အမြန်	-11.366
ခြင်းမရှိ	-11.3661
▁ဒတ်ခ်	-11.3665
▁ဖြေကြား	-11.3668
▁ဓါတု	-11.3668
▁ဂျမီ	-11.3669
▁နောက်မှာ	-11.3671
လိ	-11.3672
▁စောင့်ကြည့်မှု	-11.3673
▁ကားလ်	-11.3673
င့်ခ်	-11.3678
အက်စ်ဂျီ	-11.3678
စ်တန်နီ	-11.368
▁ဖွင့်ထား	-11.3683
▁နိုက်	-11.3686
▁ဘေ့စ်	-11.3686
▁ကြာမြင့်ခဲ့	-11.3688
▁အရိပ်အမြွက်	-11.3689
▁ဒန်န	-11.3696
ဆီယို	-11.3698
▁ကြာခဲ့	-11.37
ကောင်စီ	-11.3704
ညှိ	-11.3705
ဟေး	-11.3707
တာကို	-11.3708
ရော့	-11.3708
▁ဖလှယ်	-11.3708
▁ဖိုး	-11.3708
ဘူးလား	-11.3709
မွေးမြူရေး	-11.3711
တေး	-11.3712
▁ဖြေ	-11.3712
▁မထား	-11.3715
စတား	-11.3717
▁မြင်ခဲ့ရ	-11.3719
▁ဗာရ	-11.3722
ိုင်တွယ်ဖြေရှင်း	-11.3724
ကိုးကွယ်သူ	-11.3724
▁ဖြစ်ခဲ့ပြီး	-11.3727
▁ကျန်သော	-11.3728
▁နယူးက	-11.3728
▁အနိုင်ရမှု	-11.3731
▁နှုတ်ထွက်ခဲ့	-11.3736
▁စက်ပိုင်း	-11.3739
▁ကြေငြာခြင်း	-11.3741
ီမွန်း	-11.3747
▁အီကွေဒ	-11.3747
ဖွင့်	-11.3751
▁ရထားတိုက်	-11.3758
▁အနောက်နိုင်ငံ	-11.3759
▁ကော်မရှင်အဖွဲ့	-11.376
▁သွားနေ	-11.3761
ဒူလာ	-11.3763
▁အဖမ်းခံရ	-11.3765
▁နှစ်မြို့	-11.3765
▁အိုပ	-11.3767
▁တောင်းဆိုခြင်း	-11.3769
▁ဂရူ	-11.3769
ထောက်	-11.3771
▁အလို့	-11.3775
▁အဆင့်မြှင့်တင်	-11.3778
နှစ်ရှိ	-11.3778
▁တိုင်ကြားမှု	-11.378
▁စကေ	-11.378
ပြောကြားခဲ့	-11.3787
▁ဖျက်	-11.379
▁ဖြစ်တည်	-11.3791
▁တိ	-11.3792
▁ရောက်ခဲ့	-11.3792
▁ဖက်စပ်	-11.3792
▁အေဘီ	-11.3795
▁ဆောင်ရွက်နိုင်	-11.3796
ီဟန်	-11.3798
▁အပျော်	-11.3799
အင်	-11.38
▁ယာ	-11.3804
▁ရိုးလ	-11.3807
ိုဗစ်	-11.3807
▁ကြောငြာ	-11.381
▁အွန်	-11.3811
▁ကော်	-11.3814
▁စီစဥ်ထားသည်	-11.3818
▁စတင်လုပ်ဆောင်	-11.3819
▁တင်ဆောင်လာ	-11.3822
▁---	-11.3822
အငယ်ဆုံး	-11.3824
▁ပြန်မ	-11.3829
မားတို့	-11.3829
▁ခွင့်ပေး	-11.3834
န်စကီ	-11.3835
ရံ	-11.3843
ဘီအက်စ်	-11.3843
▁ပုံဖော်	-11.3844
▁အဲ့	-11.3847
ဗလီက	-11.3848
▁မဟာမ	-11.385
▁လစ်ဘ	-11.3856
ော်မရှင်အဖွဲ့ဝင်	-11.3856
▁လူတို့	-11.3859
▁နိုကီ	-11.3861
▁ထိန်းချုပ်နိုင်	-11.3862
▁အိုဝမ်	-11.3866
တီဗီ	-11.3867
ီမင်	-11.3867
▁ဖူဂျီ	-11.3868
ဆောင်း	-11.3871
▁အကျဉ်းချထား	-11.3874
▁အဘော့	-11.3876
တိုး	-11.3876
ခွံ	-11.3881
ပေါ်မှာ	-11.3882
ပွဲစဥ်	-11.3882
တီယန်	-11.3884
က်စတာ	-11.3887
▁မြူ	-11.3892
ပေးနေ	-11.3902
ကြေငြာချက်	-11.3902
်တီအာရ်	-11.3902
▁အေဝမ်း	-11.3905
▁တမင်	-11.3909
▁လူသားချင်း	-11.3913
▁အေလီယ	-11.3914
▁တုံ့ပြန်ချက်	-11.3915
င်နာ	-11.3919
▁သယ်ဆောင်သွား	-11.392
ဝဝဝဝ	-11.3921
▁ရွေးချယ်ခြင်း	-11.3922
▁ခံခဲ့	-11.3926
▁ဆင်းသက်မှု	-11.3926
▁ဆင့်ကဲဖြစ်	-11.3936
▁နီကိုးလ	-11.3942
▁သက်ဆိုင်သ	-11.3942
▁ဖန်တီးသူ	-11.3944
နှင့်ပတ်သက်	-11.3945
▁ကောတက်	-11.3947
▁ဘရတ်	-11.3949
▁ကျင်းပပြုလုပ်	-11.3951
ခံစား	-11.3953
ကျောထောက်နောက်ခံ	-11.3954
အမြင်	-11.3955
▁မိတ်ဆက်ခဲ့သည်	-11.3963
▁ပြန်လွှတ်ပေး	-11.3963
ဖော့ဒ်	-11.3972
▁သမ္မဂ	-11.3975
▁သဘောကျ	-11.3979
▁ချယ်လ်	-11.3981
▁ပိုင်ဆိုင်သည်	-11.3985
ူတီ	-11.3985
▁ယွမ်	-11.3988
▁ကက်စီန	-11.3989
ီးရား	-11.3993
▁မေးမြန်းမှု	-11.4001
ရထား	-11.4001
▁ဖောက်ခွဲခဲ့	-11.4008
▁နိုင်စွမ်း	-11.4009
▁မီလ	-11.4012
"	-11.4015
▁အဗ	-11.4018
ကျောင်းသား	-11.4018
▁သံသယရှိခဲ့	-11.4024
▁သုံးလ	-11.4027
▁ဒီမ	-11.4028
▁ကျိုးသွား	-11.403
▁ကတိပြုခဲ့သည်	-11.4036
▁ကော်န	-11.4038
▁အားပြင်း	-11.404
▁ခံရသည်	-11.4042
▁သင်ယူ	-11.4043
ရပါ	-11.4044
နေရှင်နယ်	-11.4044
▁မီးရထားလမ်း	-11.4047
▁ငါးယောက်	-11.405
▁ကာကွယ်နိုင်	-11.4051
▁ရိတ်	-11.4061
▁ဦးဆောင်နေသည်	-11.4062
▁ခရာ	-11.4064
▁ထုတ်ပြန်ပေး	-11.4071
▁ပါရှိသည်	-11.4073
ေ့	-11.4083
▁ဆေးညွှန်း	-11.4098
▁ငြင်းပယ်ခဲ့	-11.41
▁ကူးစက်ခံရ	-11.4104
▁ခို	-11.4105
▁သိမြင်	-11.4106
▁များပြားလှသ	-11.4106
ဗီးယား	-11.4106
▁လုပ်မည်	-11.4109
▁ခဲ့ကြ	-11.4114
သလဲ	-11.4117
▁အမိုး	-11.4117
ေဂျာ	-11.4118
▁ဆိုခဲ့	-11.4124
က်ချ်	-11.4124
▁ဖန်တီးခဲ့	-11.4127
▁ဂေါ်ဒ	-11.4128
▁ခေါ်ဝေါ်	-11.4129
ယိုး	-11.4131
▁ပြီးပြည့်စုံ	-11.4131
▁ဝယ်ယူခဲ့	-11.4138
ဆန္ဒ	-11.4142
▁စပရင်	-11.4143
▁ယှဉ်ပြိုင်သူ	-11.4148
▁စိတ်ဓါတ်	-11.4151
▁တွေးထင်	-11.4151
▁စီမံဆောင်ရွက်	-11.4152
▁လေဘာတီ	-11.4159
▁ပြောပါ	-11.4163
ဖြစ်နေ	-11.4167
လေယာဉ်များ	-11.4169
▁မျှော်လင့်	-11.4173
▁ဦးဆုံး	-11.4175
▁မုန်းတီး	-11.4176
ဇဲ	-11.4183
▁မဟ	-11.4185
ခေ	-11.4188
စစ်ဆေးမှု	-11.419
ဖစ်	-11.4191
▁လွှတ်ပေးခဲ့	-11.4192
အော့ဖ်	-11.4192
▁၉၃	-11.4194
▁ချုပ်ဆို	-11.4194
▁ထိမှန်ခဲ့	-11.4195
▁ကမ်းလှမ်းခဲ့	-11.4201
နေခဲ့သော	-11.4202
နက်ခင်း	-11.4208
တိုးတက်မှု	-11.4217
▁ဘုရ်	-11.4224
▁ဝယ်ယူသူ	-11.4227
ပက်ထရ	-11.4227
▁ပေးလိုက်	-11.423
မှန်းခြေ	-11.4232
တွေ့ရှိခဲ့သည်	-11.4238
▁ထုတ်လုပ်ခဲ့	-11.4242
▁အန္တရာယ်ရှိ	-11.4243
မည်မဟုတ်	-11.4243
▁ပိုကြီး	-11.4244
▁ရပ်ဆိုင်းခဲ့	-11.4246
ီရီ	-11.4246
မကျ	-11.4247
စွမ်းအား	-11.4248
မော်	-11.4248
င်ဘတ်	-11.4252
စထရော	-11.4262
ီးလ်	-11.4266
မ္ဘာလှည့်ခရီးသည်	-11.4268
▁ဆား	-11.4269
ဖြတ်	-11.4277
▁ပြေ	-11.4282
▁ဂျော့ခ်	-11.4288
▁စိုက်	-11.4291
▁ပြသထားသည်	-11.4294
▁ဆက်လက်ပြုလုပ်	-11.4296
စစ်ဆေး	-11.4299
ရိုက်ချက်	-11.4309
▁ဆည်	-11.4317
ခွ	-11.432
ထွာ	-11.4321
▁လုပ်သင့်	-11.4327
▁အိုင်အာအ	-11.4336
▁မသုံး	-11.4337
ကောင်းမွန်အောင်	-11.4337
၁၃၀	-11.4342
အိမ်	-11.4344
▁ဗော့	-11.4345
▁သံသယများ	-11.4346
ဘွန်း	-11.4352
ကယ်လ်	-11.4352
သွင်းခြင်း	-11.4352
ပြည်	-11.4353
▁အန္တရယ်	-11.4354
▁ငယ်ရွယ်သ	-11.4359
ကျူးလွန်မှု	-11.4363
ကာကွယ်ရေး	-11.4366
ာဒါ	-11.4378
▁ကူးစက်မှု	-11.4378
လှည့်	-11.4378
▁သတ်မှတ်ခဲ့	-11.4386
၁၂	-11.4392
▁ဝီလ်ကီ	-11.4396
▁ဆန်းသစ်	-11.4397
▁ရေပန်းစား	-11.4398
ျောင်း	-11.4401
နွယ်	-11.4404
▁ရေးခဲ့	-11.4412
ချိ	-11.4414
လေ့ရှိ	-11.4416
ရရှိမှု	-11.442
▁ပြောရေး	-11.442
ကျမှု	-11.4431
▁လျှပ်	-11.4435
ားများ	-11.4436
ဦးဆောင်	-11.4438
▁ပြန်ကြားရေး	-11.4443
ကြားခဲ့သည်	-11.4444
▁အထောက်အပံ့ပေး	-11.4444
▁ဒေ	-11.4446
▁၊၊	-11.4449
▁ခိုင်ခံ့	-11.4449
▁အိုင်အာ	-11.4452
လီနာ	-11.4456
ဘရက်	-11.4462
▁လက်ခံထား	-11.4465
ခေါ်ဆောင်သွားခဲ့	-11.4467
▁ထိုးနှက်	-11.4468
လေ့	-11.4468
▁၁ရက်	-11.4471
▁ဂျွန်ဆွ	-11.4471
ဖြူ	-11.4483
▁မထွက်	-11.4485
လုပ်ကိုင်နေ	-11.4493
▁ဆိုပါ	-11.4493
ါတ်	-11.4493
▁မလုပ်ဆောင်	-11.4503
▁ဟယ်လီ	-11.4509
့ဇ်	-11.4511
▁ဂျီဘီ	-11.4514
▁ပျက်	-11.4517
ဆုံးသော	-11.4518
▁ပေါ်ပေါက်ခဲ့	-11.4519
▁အလုပ်လုပ်နေကြ	-11.4525
နမ်ဘ	-11.4526
▁ရမည့်	-11.4532
▁နှင့်ဆက်စပ်	-11.4535
ပြုခဲ့သည်	-11.4537
▁အကောင်	-11.4541
▁ထောင်သား	-11.4548
ပူပြင်းသော	-11.4548
▁လေးလံ	-11.4549
ရမှာဖြစ်	-11.455
ရနိုင်သော	-11.4556
▁ဆုံ	-11.4561
▁ကူညီပေးခဲ့	-11.4561
ဂျယ်	-11.4565
▁အများပြည်သူများ	-11.4567
ထင်ရှားစွာ	-11.4571
ပါဝင်	-11.4577
လုပ်ဆောင်သွားမည်	-11.4578
ဂက်စ်	-11.4583
ပေးထား	-11.4585
▁တင်း	-11.4586
▁အဲလက်	-11.4586
၇၁	-11.459
မရ	-11.4591
န်အန်	-11.4593
▁စုပုံ	-11.4598
▁၁၇၂	-11.46
ထင်	-11.46
▁ခွင့်မပြုခဲ့	-11.4605
င်တွယ်ဖြေရှင်း	-11.4605
ချမ်းသာ	-11.4606
လိဒ်	-11.4607
ဆုံးဖြတ်	-11.4611
▁၆၂	-11.4612
ရီလီ	-11.4612
▁ရည်မှန်းထား	-11.462
မျိုးစုံ	-11.4631
▁နဲ	-11.4633
အလုပ်သမား	-11.4635
▁ပီအာ	-11.4637
▁ပလက်	-11.4639
ပေးမှု	-11.4642
ခံခဲ့ရသည့်	-11.4644
ည့်	-11.4645
ဇဝါ	-11.465
▁ခရော့	-11.466
ရွေ့	-11.4665
▁ဂရန်း	-11.4665
▁ရှီး	-11.4665
ရလဒ်	-11.4669
▁ကရစ်	-11.4671
စာနာထောက်ထားမှု	-11.4672
▁အလားအလာရှိသ	-11.4673
ာဂန်	-11.4675
▁ရယူနိုင်ခဲ့	-11.468
▁ပြဌာန်းထား	-11.4681
ူဒါ	-11.4685
ပေါ	-11.4686
▁ဆာဘ	-11.4686
▁၂၂၀	-11.4688
သမီး	-11.4691
▁ခွင့်ပြုမှု	-11.4691
ဒေးရှ	-11.4693
▁ကန့်သတ်	-11.4695
▁မေရီ	-11.4697
▁အတည်	-11.4707
▁ကြိုတင်ပြင်ဆင်	-11.4709
▁ဈေးဝယ်	-11.471
အက်စ်ကေ	-11.471
ယောင်ဆောင်	-11.4718
▁စောင့်ဆိုင်း	-11.4723
▁သဘောတူခဲ့	-11.4724
သတ်မှတ်ထားသော	-11.4727
နေမှု	-11.4731
▁လန်း	-11.4732
▁အမိန့်ပေးခဲ့	-11.4734
▁တရားစွဲဆိုထား	-11.4735
▁အစီရင်ခံချက်	-11.4737
▁ပေါ်ထွက်လာခဲ့	-11.4737
▁လျှောက်	-11.4741
▁ပျက်စီးစေ	-11.4744
ထောက်ပံ့ပေးနိုင်	-11.4744
ရပ်တည်	-11.4748
▁လှည့်စား	-11.4752
အကောင်းဆုံး	-11.4754
အလှည့်	-11.4755
▁စီစစ်	-11.4758
▁မီးရှို့	-11.4758
ဈေးကွက်	-11.4758
၅၈	-11.476
▁စွပ်စွဲခံခဲ့ရ	-11.4762
ူ့	-11.4764
ကျန်းမာရေး	-11.4767
▁မယ့်	-11.4769
ကော်မတီ	-11.4773
အလယ်ပိုင်း	-11.4775
ကွန်ယက်	-11.4776
▁ပရီ	-11.4777
ဲရီ	-11.4779
၂၀၁၂	-11.478
အခြေပြု	-11.478
ခြေလှမ်း	-11.478
ခုံရုံး	-11.4781
သီချင်း	-11.4786
ွိုင်	-11.4788
▁မည်သူ့ကိုမ	-11.4788
▁တွေးတော	-11.4789
ခန္ဓာ	-11.479
ကြမ်းပြင်	-11.4794
ကြည့်ရှု	-11.4795
▁အဖ	-11.4796
▁ရပ်တန့်မှု	-11.4798
တွေ့ဆုံ	-11.4801
ူမ	-11.4801
▁အမိန့်စာ	-11.4802
ဈေး	-11.4804
▁အခြားသူ	-11.4805
▁ဂျောင်	-11.4807
▁ဒေါသထွက်	-11.4808
ဖော	-11.4811
▁ကွ	-11.4811
ထုတ်လုပ်သူ	-11.4811
ပြည်သူများ	-11.4813
▁ဖော်ပြနေ	-11.4815
▁ကီ	-11.4815
ဆူ	-11.4817
▁ရှာရ	-11.482
▁စည်းမျဥ်း	-11.4821
▁လာဗ	-11.4825
်စတန်	-11.4827
▁ရှိနိုင်	-11.4827
၂၂	-11.4835
▁ယုံကြည်ခဲ့	-11.4835
ပါတီဝင်	-11.4836
စိတ်အားထက်သန်မှု	-11.4839
▁၁၄၀	-11.4843
▁ဘုရားရှိခိုး	-11.4848
▁မသိရပါ	-11.4848
ခေါင်	-11.4849
င်္	-11.4851
ကျင်းပသော	-11.4854
▁အေအမ်	-11.4855
▁အဖမ်း	-11.4857
▁ရပ်ဆိုင်းထား	-11.4865
ခံယူ	-11.4867
▁ပါဝင်ယှဉ်ပြိုင်	-11.4869
သီ	-11.4872
▁လူသိ	-11.4872
လစာ	-11.4872
ခံရသည့်	-11.4872
▁ဝိ	-11.4873
▁မြ	-11.4875
▁၅၃	-11.4875
▁တွန်	-11.4875
▁ကိုင်ဆောင်	-11.4884
▁ဖော်ပြထားခြင်း	-11.4885
့ဒ်	-11.4893
ရသူ	-11.4898
့ဖ်	-11.4899
▁စီအ	-11.4899
▁ရုရှားနိုင်ငံ	-11.49
▁အဆင်မပြေ	-11.4901
ပေမယ့်	-11.4903
▁ဝန်းရံထား	-11.4903
▁မာစီ	-11.4906
▁စတင်မှု	-11.4906
▁ညာ	-11.4906
▁သီတင်း	-11.4907
့ကျန်းမာရေးအဖွဲ့	-11.4914
အမ်ပီ	-11.4915
▁ဝန်ဆောင်	-11.4915
▁အတင်း	-11.4917
▁မာမွတ်	-11.4921
မစ်	-11.4923
ခဲ့ကြပါ	-11.4923
မွန်း	-11.4923
▁ပေးအပ်ခြင်း	-11.4924
▁ဆေးကုသ	-11.4925
▁ပြောနိုင်	-11.4929
▁ရှေ့က	-11.4934
းခဲ့သည်	-11.4936
▁စူ	-11.4937
▁ဟွန်	-11.494
▁ဖြိုချ	-11.4942
▁လျော့ပါး	-11.4944
▁ဆက်လက်ဆောင်ရွက်	-11.4947
▁ဂူဂယ်	-11.4949
လျော့	-11.4949
▁အစုလိုက်	-11.4953
▁တရုတ်ပြည်	-11.4955
▁ဥပဒေနှင့်	-11.4962
▁အားကောင်းလာ	-11.4964
ကျန်	-11.4966
▁ဝူး	-11.4968
ရှိုး	-11.4969
ားရစ်	-11.4974
▁အောင်ပွဲခံ	-11.4977
ဖြေ	-11.4987
▁မိုးခေါင်	-11.4988
▁အဝေးပြေး	-11.4989
▁ရွက်လှေ	-11.4994
▁၃၃၀	-11.4994
▁၁၈၀၀	-11.4994
ာဒင်	-11.4996
နှိပ်စက်ခြင်း	-11.4998
ဒယ်	-11.5003
▁ခေတ်မီ	-11.5003
▁ဘီလီ	-11.5005
▁အစုရှယ်ယာ	-11.5006
▁ပရစ်	-11.5008
▁သူတို	-11.5009
▁နောင်တ	-11.5009
▁အသရေဖျက်	-11.5009
▁အင်တဲ	-11.501
ဝတ်စုံ	-11.5011
ဂျမ်	-11.5013
ေအေ	-11.5013
▁ယိုဖိတ်	-11.5015
ဖာရို	-11.5015
င်းထောက်	-11.5021
▁၂၀၀၀၀	-11.5021
ပက်ခ်	-11.5025
ဟာဗ	-11.5027
▁ရဲတပ်ဖွဲ	-11.5027
အားကောင်းသော	-11.5029
▁ကက်သ	-11.503
▁ဒဘလျူ	-11.503
▁၀မ်း	-11.503
ကော်ပိုရေးရှင်း	-11.5036
က်တည်း	-11.5036
▁ယောကျာ်း	-11.5036
▁အပြုသဘော	-11.5038
ဿ	-11.5039
▁ယူရေနီယ	-11.5041
ျိုင့်	-11.5042
▁ဘူခါ	-11.5044
▁ပန်းချီ	-11.5044
လှောင်ရုံ	-11.5045
▁စစ်မှုထမ်း	-11.5045
▁အန်ဝိုင်အက်	-11.5045
▁ကိုယ့်ကိုယ်ကို	-11.5045
▁သက်ကြီးရွယ်အို	-11.5045
▁သင်္ကာမကင်း	-11.5045
▁အပြေးအလွှား	-11.5045
▁ကွန်မန်ချီ	-11.5045
▁ခုံသမာဓိ	-11.5045
▁ခြောက်လှန့်	-11.5045
▁တိတ်တဆိတ်	-11.5045
▁ထင်ထင်ရှားရှား	-11.5045
▁နားလည်သဘောပေါက်	-11.5045
▁ပေါ်မူတည်	-11.5045
▁လှောင်ပြောင်	-11.5045
▁သက်တော်စောင့်	-11.5045
▁သဲလွန်စ	-11.5045
▁အပလီကေးရှင်း	-11.5045
▁အွန်တေရီယို	-11.5045
▁ဩစတြေလျ	-11.5045
▁၀န်းကျင်	-11.5045
▁ပဋိညာဉ်	-11.5045
▁လိုက်လျောညီထွေ	-11.5045
▁အိမ်နီးနားချင်း	-11.5045
▁ကိုယ်ကျင့်တရား	-11.5045
▁တုတ်ကွေး	-11.5045
▁အမူအရာ	-11.5045
▁ဖယ်မလီ	-11.5045
▁ယောင်္ကျား	-11.5045
▁လက်တလော	-11.5045
▁လွှင့်ထူ	-11.5045
▁အေအိုင်ဒီအက်စ်	-11.5045
▁ဆွေးမြေ့	-11.5045
▁ပန်းပု	-11.5045
▁ယူနီဖောင်း	-11.5045
▁သချိုင်း	-11.5045
▁ကော်လိုရာဒို	-11.5045
▁အမှန်စင်စစ်	-11.5045
▁ပါရဂူ	-11.5045
▁ဖြတ်လုယူခ	-11.5045
▁ရယ်မော	-11.5045
▁ပိုးသတ်ဆေး	-11.5045
▁အပြုအမှု	-11.5045
▁နောက်တစ်ကြိမ်	-11.5045
▁မြန်နှုန်းမြင့်	-11.5045
▁ဝုရတ်	-11.5045
▁ဟိုက်ဒရိုဂျင်	-11.5045
▁ဂျက်ဖရီ	-11.5045
▁ပေါ်လွင်	-11.5045
▁ယာဉ်အသွားအလာ	-11.5045
▁အဆုံးစွန်	-11.5045
▁ချက်ပြုတ်	-11.5045
▁လက်တုံ့ပြန်	-11.5045
▁ကလေးသူငယ်	-11.5046
▁ဘလစ်ဇာ	-11.5046
▁ရေခဲမုန့်	-11.5046
▁ကော်ဖီ	-11.5046
▁မြန်နှုန်း	-11.5046
▁စိုက်ခင်း	-11.5046
▁ဂရစ်ဖင်	-11.5046
▁ဘာကလေ	-11.5046
▁အကြိုဗိုလ်လုပွဲ	-11.5046
▁သံပြိုင်	-11.5046
ရော်ဂျာ	-11.5046
▁မထင်မှတ်	-11.5046
▁ဗိုလ်မှုး	-11.5046
▁တစိတ်တပိုင်း	-11.5046
▁လင်ကွန်း	-11.5046
▁လက်သီး	-11.5046
▁အရင်းမြစ်	-11.5046
▁ရဝမ်ဒါ	-11.5046
▁နယ်ခြား	-11.5046
▁ဖျက်ပစ်	-11.5046
▁တိရိစ္ဆာန်ရုံ	-11.5046
▁ငြင်းခုန်	-11.5046
▁အေပက်	-11.5047
▁ဘက်မလိုက်	-11.5047
▁သတင်းရပ်ကွက်	-11.5047
▁မိုးကြိုး	-11.5047
▁မိုးရွာ	-11.5047
▁ရှည်ကြာ	-11.5047
▁ချစ်ကြည်ရေး	-11.5047
▁ဘိုင်ယန်	-11.5047
▁စက်ကိရိယာ	-11.5047
ရှိနေ	-11.5048
▁စကားပြန်	-11.5048
▁ချက်လက်မှတ်	-11.5048
▁အပူပိုင်းဒေသ	-11.5048
▁သည်းထန်စွာ	-11.5048
▁ဒေတာဘေ့စ်	-11.5048
▁ဂျင်းနား	-11.5048
▁စက်ကွင်း	-11.5048
▁သွင်းကုန်	-11.5048
▁တလွဲ	-11.5049
▁အမှိုက်	-11.5049
▁တောင်ထိပ်	-11.5049
▁ကားနတ်	-11.5049
▁နည်းဥပဒေ	-11.5049
▁ယူရေနီယမ်	-11.5049
▁တိုင်ကြားစာ	-11.5049
▁နော်မန်	-11.505
▁ခရစ်တော်	-11.505
▁မိုက်ခ်	-11.505
▁ဖုန်းဆက်	-11.5051
▁ပြန်ကြည့်	-11.5051
▁ဖူလ်ဟ	-11.5051
▁ဝေတန်ဂ	-11.5051
▁နယ်လ်ဆင်	-11.5051
▁အများပိုင်	-11.5051
▁စူပါမားကတ်	-11.5051
▁ပင်စင်	-11.5051
▁ဝေးလံသော	-11.5051
▁ဖီးလစ်	-11.5051
ပီတာ	-11.5052
▁ဂွန်ဇာလ	-11.5052
▁သြဇာလွှမ်းမိုး	-11.5052
▁လစ်လျူရှု	-11.5052
▁နဲ့ပတ်သတ်	-11.5053
ကိုလိုလားသော	-11.5053
▁အပြုသဘောဆောင်	-11.5053
▁အယ်ကိုင်ဒါ	-11.5053
▁အမည်မဖော်လိုသ	-11.5054
တိုလီ	-11.5054
▁တရားဥပဒေအရ	-11.5054
▁အခွင့်အရေး	-11.5054
▁လွဲပြောင်း	-11.5055
▁ရဲမင်းကြီး	-11.5055
▁ကုန်ကျငွေ	-11.5055
▁ခရစ်ယာန်ဘာသာ	-11.5056
▁အိုင်စီအီး	-11.5057
▁မတ်တပ်	-11.5057
▁အသက်ရှူ	-11.5057
▁ဗယ်လ	-11.5057
▁လာမဲ့	-11.5057
▁လူမည်း	-11.5058
ရေးဆရာ	-11.5059
▁အနိမ့်	-11.5059
▁အော်ပရာ	-11.5059
▁စကိတ်စီး	-11.5059
▁ဗုံးပေါက်ကွဲ	-11.506
▁လေယာဉ်မှုး	-11.5061
▁အပြင်ဖက်	-11.5062
▁၄ဝ	-11.5063
▁အထီး	-11.5063
▁ဂဟေဆက်	-11.5063
▁နေ့ခင်း	-11.5063
▁တိုဘာဂို	-11.5063
▁မှားယွင်းစွာ	-11.5064
▁၂၀၂၀	-11.5064
ဒဗလျူပီ	-11.5065
▁ကိုက်ညီမှုမရှိ	-11.5065
▁နေ့လည်ပိုင်း	-11.5065
▁အေအေပီ	-11.5066
▁လေးလ	-11.5066
▁တစ်သောင်း	-11.5066
▁အစ်မ	-11.5067
▁နောင်တွင်	-11.5067
▁နစ်မြှုပ်	-11.5067
▁ကူးတို့	-11.5068
▁စွဲလမ်း	-11.5068
▁နိုင်ငံ့	-11.5068
▁ကွာဝေး	-11.5069
▁တစ်ဆယ့်ခြောက်	-11.5069
▁အကျဥ်းသား	-11.5069
အမှုန်များ	-11.507
▁ထပ်လောင်းပြော	-11.507
▁အန်ဒရီ	-11.5071
▁ခန့်မှန်းထားပါ	-11.5071
▁ရှိနှင့်ပြီး	-11.5071
▁၇၇၇	-11.5071
▁အိန်ဂျယ်လိစ်	-11.5071
▁ဖယောင်း	-11.5072
▁ဖရန့်ဖာ	-11.5072
▁အန်စာ	-11.5072
▁လွှင့်တင်	-11.5073
▁ဖောက်ခွဲရေး	-11.5073
▁သတ္ထု	-11.5074
▁အက်က	-11.5074
ပီး	-11.5074
▁ညဘက်	-11.5074
မပါဘဲ	-11.5075
▁သယံဇာတ	-11.5076
▁တူးမြောင်း	-11.5076
▁ပင်ဂွင်း	-11.5076
▁ကာလီဖိုးနီးယား	-11.5076
▁သဘာ၀ပတ်ဝန်းကျင်	-11.5076
ိုဘယ်လ်	-11.5076
▁မကြာခင်က	-11.5077
▁ကြည့်ပါ	-11.5077
▁စီရင်ချက်ချမှတ်	-11.5077
▁ရေနံစိမ်း	-11.5077
▁မြန်	-11.5078
▁ကျွမ်းကျင်စွာ	-11.5079
▁အက်ဒမ	-11.5079
▁ယာဥ်တိုက်မှု	-11.508
ရှေ့မှောက်	-11.508
▁အရေးပေါ်အခြေအနေ	-11.508
▁အိုဒီအိုင်	-11.508
▁ထူထပ်	-11.5082
▁ဝမ်းနည်းကြောင်း	-11.5082
အကြံအစည်	-11.5082
▁အတိုက်အခံပါတီ	-11.5082
▁ရုံးခွဲ	-11.5083
ထိုင်	-11.5084
တူဒေး	-11.5087
ဆုံးဖြတ်ချက်	-11.5087
▁အောက်ဘက်	-11.5088
▁မကောင်းသတင်း	-11.5088
ပတ်၀န်းကျင်	-11.5088
▁လီဘာမ	-11.5088
▁လက်တော့	-11.5088
▁တုန့်ပြန်	-11.5089
▁လုပ်ငန်းပိတ်	-11.509
▁ကာဒစ်	-11.509
▁ဇာတ်ညွှန်း	-11.509
▁ဘရိတ်	-11.5091
▁သေနတ်ဖြင့်	-11.5092
▁စွန့်ပစ်ပစ္စည်း	-11.5093
▁ရုံသာ	-11.5093
▁ထင်ဟပ်စေ	-11.5093
▁အစ္စလာမ်ဘာသာ	-11.5093
▁မော်တာ	-11.5093
▁ဖုန်းခေါ်ဆိုမှု	-11.5094
စ္စ	-11.5094
▁အသွားအလာများ	-11.5095
ဖော်ပြထားသည်	-11.5095
▁ပွဲချိန်	-11.5095
▁အကျော်ကြား	-11.5096
လူများ	-11.5097
▁မီးသတ်ကား	-11.5098
▁အဲဒီနေရာ	-11.5099
▁အချစ်	-11.5099
▁ထိန်းထား	-11.5099
▁အပြီးမှာ	-11.5099
▁ကြေးတံဆိပ်	-11.5099
▁ပလ	-11.5099
▁အစ်	-11.5099
ဘတ်စ်	-11.5099
သိမ်းမှု	-11.51
ပြမှု	-11.51
▁ခွဲခြားဆက်ဆံ	-11.5101
▁အုပ်ချူပ်ရေး	-11.5102
▁မိုက်ကယ်လ်	-11.5105
▁ဆွဲတင်	-11.5106
▁ညံ့ဖျင်းသော	-11.5107
▁ရိုးသားသော	-11.5108
ထားဆဲ	-11.5108
ရိုးစွန်း	-11.511
▁ပတ်လည်တွင်	-11.511
လဲဆိုတာ	-11.5112
▁ပတ်သက်မှု	-11.5113
▁စားသောက်	-11.5114
▁လေတိုက်ခတ်	-11.5115
▁ငိုကြွေး	-11.5116
▁လေးနှစ်	-11.5116
▁ဗက်တာ	-11.5116
▁ဘာသာရေးဆိုင်ရာ	-11.5118
အစီအမံ	-11.5119
▁သတ်ခဲ့တယ်	-11.5119
▁ဝါဇီရစ်	-11.512
▁ကွန်ဂို	-11.5121
▁အလေးပေး	-11.5123
▁ပူးပေါင်းပါဝင်	-11.5124
▁ကြံ့ခိုင်	-11.5124
▁အန်အက်စ်	-11.5124
▁ခွက်	-11.5124
▁ဂျူဗ	-11.5125
▁လယ်ကွင်း	-11.5125
▁စတင်လိမ့်မည်	-11.5126
▁ထု	-11.5126
▁ပြင်ဆင်ရေး	-11.5127
▁စတိုး	-11.513
▁ပယ်ရီ	-11.5131
▁ခေါ်ဆောင်ခဲ့	-11.5131
▁ပို့ကုန်	-11.5132
▁ကံကြမ္မာ	-11.5133
▁၁၀၅	-11.5133
▁အော့ဖစ်	-11.5134
▁လမ်းညွှန်မှု	-11.5136
▁ပြန်ပေးဆွဲခြင်း	-11.5137
▁ပေးချေမှု	-11.5139
▁ပို့လွှတ်	-11.514
ယောင်	-11.5141
▁အငွေ့ပျံ	-11.5141
▁သားသမီး	-11.5142
▁အသိအမှတ်ပြုခဲ့	-11.5142
သဏ္ဍာန်	-11.5143
▁ရီရို	-11.5144
▁ဓါးစာ	-11.5145
▁ချန်ထား	-11.5146
▁ဘေလ်	-11.5147
▁ပေါင်းစည်းမှု	-11.515
▁အတော်အသင	-11.5151
▁ယူပီ	-11.5151
သိမ်းခြင်း	-11.5151
▁တိုင်းမ်စ်	-11.5152
▁အင်အားကြီး	-11.5153
▁အင်တ	-11.5155
▁ရိန်း	-11.5155
▁ကာနယ်	-11.5155
▁လွတ်လပ်သည့်	-11.5156
▁စာပေ	-11.5157
▁မီမ	-11.5158
▁တားမြစ်ထားသော	-11.516
▁မှတ်တိုင်	-11.516
▁လုပ်နည်း	-11.5162
ကျင်းပ	-11.5163
▁ရော်ဘင်	-11.5163
ဏ်	-11.5164
▁ဒက်ဘလ	-11.5166
▁ဟုတ်တယ်	-11.5167
ဘရစ်ချ်	-11.5167
▁ငွေသား	-11.5171
▁အိုကွန်န	-11.5174
▁မြင်နိုင်	-11.5177
▁ပေါက်ကြားခဲ့	-11.5178
▁ကျွနုပ်	-11.5178
▁ဂြိုလ်တုပတ်လမ်း	-11.5179
▁ဖျက်ဆီးပစ်	-11.5179
▁ရှင်းလင်းမှု	-11.5181
ဂါးဒ	-11.5183
▁စတက်ဒ	-11.5187
▁အရွေးခံ	-11.5188
▁အန်ဇက်	-11.5189
▁အဆင်မပြေမှု	-11.5191
အဂတိလိုက်စားမှု	-11.5191
စီယပ်	-11.5192
▁ပေးစာ	-11.5192
ပြင်းထန်သော	-11.5192
▁တမီး	-11.5193
▁ဖိအားပေးခံရ	-11.5193
▁ပိတ်ပင်မှု	-11.5193
▁ဝယ်သူ	-11.5194
▁အဝေးပြေးလမ်းမ	-11.5194
▁ဟာဒ်	-11.5196
▁အိပ်စက်	-11.5196
ိုင်ရယ်	-11.5196
နို့	-11.5197
▁ဘန်နီ	-11.52
ေးရှား	-11.5202
▁လူအုပ်	-11.5202
▁ပါဝင်ပတ်သတ်	-11.5203
▁ဆက်၍	-11.5203
▁စစ်ဆေးခဲ့သည်	-11.5205
▁ဖြတ်သွား	-11.5205
▁အပြည့်အစ	-11.5205
▁ငြိမ်းချမ်းမှု	-11.5206
ရိ	-11.5208
▁ပြုလုပ်ရမည်	-11.5215
▁ဝေါလ်	-11.5216
▁အရသာ	-11.5218
▁တိုက်ခတ်ခြင်း	-11.5218
ကန်ချက်	-11.5218
▁တွေ့ရှိရသော	-11.5221
▁သရုပ်ပြ	-11.5225
အက်ဖ်အက်ဖ်	-11.5226
ိုင်းယွန်း	-11.5227
▁ယုံကြည်စိတ်ချ	-11.5228
▁ဘိုဒ	-11.5229
▁ဖိနှိပ်မှု	-11.5229
▁သက်သက်	-11.5229
▁အဓိကထား	-11.5234
▁ထက်ကျော်လွန်	-11.5236
▁မြှင့်တတ်	-11.5236
အုပ်ချုပ်ရေးမှုး	-11.5239
▁သမ္မတနေရာ	-11.5239
▁စတွိ	-11.5241
▁အပြန်	-11.5241
ယူအက်အို	-11.5243
▁အထ	-11.5244
စည်းများ	-11.5247
▁ရောက်လာခဲ့သည်	-11.525
လောင်	-11.525
▁ကိုးကားပြောဆို	-11.5254
▁ဖဲလ်	-11.5254
▁နေရှင်နယ်	-11.5254
▁ကံကောင်း	-11.5257
▁ဆွဲဆောင်မှု	-11.5258
▁ကြာမြင့်စွာ	-11.5258
▁မသိရ	-11.5258
▁အကြံပြုထောက်ခံ	-11.526
▁ကီလို	-11.5263
▁အစီအရင်ခံ	-11.5267
▁ပြန်လည်ချေပ	-11.5267
ဆန့်ကျင်မှု	-11.5267
နိုင်ခြေ	-11.5269
▁ပိတ်ထားခဲ့	-11.5271
▁ပန်းတိုင်	-11.5273
▁ခန်	-11.5275
▁ဆီက	-11.5275
ဗင်	-11.528
ရင်းခွ	-11.5284
တောင်းဆို	-11.5285
▁ဆန်ဒါ	-11.5286
အိတ်စ်အက်စ်	-11.5286
ော့တ်	-11.5289
ပစ်ခတ်မှု	-11.529
▁ကြည်	-11.5292
▁စကော့တ်	-11.5294
်ဖီး	-11.5295
▁ညွှန်ကြားမှု	-11.5296
▁ဖော်ရ	-11.5298
▁သိုး	-11.53
ဝဒ်	-11.5301
ဆင်း	-11.5305
▁ခေါ်သည်	-11.5307
နှစ်ယောက်	-11.5308
▁လျှော့	-11.5309
▁လီန	-11.5309
▁ရင်းနှီးမြှ	-11.5309
▁တစ်ဦးစီ	-11.531
နိုင်သေးပါ	-11.5312
▁ဆိုးလ်	-11.5312
▁ထုတ်ခဲ့	-11.5317
▁ကျောင်းသူ	-11.5317
▁ပျား	-11.5319
▁ဖြစ်တာ	-11.5321
ုပ်ထု	-11.5321
ကျူးလွန်	-11.5322
▁ကင်းလွတ်	-11.5324
ဘတ်ဝဲ	-11.5325
နေလိမ့်မည်	-11.5326
လယ်ပိုင်း	-11.5331
▁ဘိ	-11.5331
▁ကော	-11.5333
▁ရပ်ဆိုင်းခြင်း	-11.5334
▁ဒင်	-11.5334
▁အရှိန်အဟုန်	-11.5335
▁လုယူ	-11.5336
စတီ	-11.5337
▁ဂရေဟ	-11.534
▁ကော်နက်တီ	-11.534
▁သက်ဆိုင်မှု	-11.5341
▁ဟားမတ်	-11.5343
▁ရုံမျှ	-11.5345
▁ဖဲ	-11.5346
ခဲ့သူ	-11.5346
▁ထပ်ပေါင်း	-11.5348
▁မဟုတ်ခဲ့	-11.5348
▁ယောကျား	-11.5353
ာဂါ	-11.5354
▁ဟက်ဒ	-11.5358
▁မရှိပ	-11.536
ေးခဲ့သည်	-11.5361
▁ဆက်လက်ဖြစ်ပေါ်	-11.5367
အသံလွှင့်ဌာန	-11.5368
▁ရွာသွန်း	-11.5369
▁ရိုက်ခတ်မှု	-11.5369
▁အဘယ်	-11.537
▁ပိတ်ဆို့ခဲ့	-11.5372
▁အစပြုခဲ့	-11.5373
ယ်လီ	-11.5376
▁အနည်း	-11.5378
▁ပြောင်းရွှေ့ပေး	-11.5379
ကြွယ်ဝ	-11.5381
၃၇	-11.5381
လေ့လာတွေ့ရှိချက်	-11.5381
▁မိန်း	-11.5383
▁ရီန	-11.5385
▁ကာရာ	-11.5386
▁ဆွဲယူ	-11.5387
အကြား	-11.5388
ထားမှု	-11.5394
▁ပရင့်	-11.5398
▁ပြိုင်ပွဲဝင်	-11.5398
နဲ	-11.5399
▁ဟမ်လင်	-11.54
▁လျော့နည်းစေ	-11.5402
▁ဝါဒီ	-11.5403
▁ပြန်လည်စစ်ဆေး	-11.5403
▁ဌက်	-11.5404
င်တယ်	-11.5407
▁မည်သည့်အရာ	-11.5411
▁သုံးပြီး	-11.5413
▁မှတ်ယူ	-11.5414
▁စာရင်းဝင်	-11.5415
▁သောင်း	-11.5417
▁ကဇာ	-11.5421
▁ထုတ်ပြန်သည်	-11.5425
လုပ်ခဲ့သည်	-11.5428
▁ဝတ်	-11.5429
လုပ်ငန်းရှင်	-11.5429
▁နှောက်ယှက်	-11.5431
▁ရရှိစေ	-11.5432
▁ရီးဒ	-11.5432
▁အိန်ဂျယ်	-11.5436
▁အကြံပေးခဲ့	-11.5438
▁သက်သေပြခဲ့	-11.5446
▁အောက်သို့	-11.5449
▁ဖောက်စ်	-11.5449
မ်အေ	-11.5451
▁အခြေခံ၍	-11.5452
▁ရပိုင်ခွင့်	-11.5456
ီလီယန်	-11.5456
▁ဖြတ်သန်းသွားလာ	-11.5457
▁အေဒ	-11.5461
▁ဘူ	-11.5463
▁ကျူးလွန်မှု	-11.5465
ရီး	-11.5466
▁ရိုက်ခဲ့	-11.5466
ဗလီ	-11.5471
▁မလား	-11.5473
မီး	-11.5475
▁ကွယ်လွန်သွား	-11.5476
အော	-11.5481
ပေါင်းဖ	-11.5486
▁နှိမ်နှင်း	-11.5488
န်းသိမ်းခံထားရသူ	-11.5489
▁ဆက်စ	-11.5489
▁မလိုလား	-11.5489
ဲလာ	-11.549
▁ထည့်သွင်းခဲ့သည်	-11.549
▁ပျံ	-11.5492
▁ချောက်	-11.5497
့ဂျ်	-11.5497
▁ဂျက်ဖာ	-11.5498
▁ဇာတိ	-11.5502
▁ကိုယ်ဝန်ဖျက်ချ	-11.5502
▁ဘန်န	-11.5509
၇၀ဝ	-11.5512
▁တုတ်	-11.5516
▁အီရတ်နိုင်ငံ	-11.5517
▁ဖောက်ခွဲမှု	-11.5519
▁အန်ထ	-11.5519
ဟူး	-11.552
တယ်ဆိုတာ	-11.5521
▁လစ်ဘရ	-11.5521
▁မသွား	-11.5524
▁အချုပ်	-11.5526
ဇွန်	-11.5527
ီမီ	-11.5528
▁ဆာဂျ	-11.5528
▁ခုံ	-11.5529
တ်တာ	-11.553
ဝဏ်	-11.5537
စားခြင်း	-11.5537
တုန်း	-11.5538
▁အတည်ပြုထား	-11.554
ိုတာ	-11.5542
▁အသုံးပြုပြီး	-11.5548
အေအက်စ်	-11.5553
▁အကျိုးအပဲ့	-11.5555
▁အိုင်းစ	-11.5555
▁အယ်လ်ကာ	-11.5555
တ္တုတွင်းလုပ်သား	-11.5557
▁ကိုလင်	-11.556
▁မစ်ချ	-11.556
▁ဆင်းသွား	-11.5563
▁အင်္ကျီ	-11.5563
▁ကနေဒါလူမျိုး	-11.5572
▁ဝက်စ်	-11.5574
မပါသော	-11.5576
▁ဇီလာရ	-11.5577
▁တို့လည်း	-11.5582
▁ထုတ်ပြန်လိုက်	-11.5583
ကိုးကွယ်ယုံကြည်	-11.5583
▁အော်လန်	-11.559
▁တင်ဆက်ခဲ့သည်	-11.5593
အေအက်ဖ်	-11.56
▁အီးအက်စ်	-11.5602
▁ရှာဖွေခဲ့	-11.5603
ရော့ဖ်	-11.5607
▁အတွင်းမှ	-11.5611
▁ပေါက်ကွဲပစ္စည်း	-11.5612
▁ဖြိုဖျက်	-11.5617
▁ဂျီဘီပီ	-11.5618
သင်း	-11.5618
ပစ်ဆ	-11.5619
▁ဗာဂျင်	-11.5623
အိုင်ပီ	-11.5625
▁မနေ	-11.5626
▁ကျန်ရစ်ခဲ့	-11.5627
မှာပင်	-11.563
လပတ်	-11.5631
▁ပေါင်းစပ်မှု	-11.5636
ထားသည့်	-11.5636
▁မောင်းနှင်မှု	-11.5639
ိုင်ပေ	-11.5641
▁ဖစ်	-11.5646
▁ဖို့ဒ်	-11.5648
▁အခြေအနေတွေ	-11.5652
▁ပေါ်လာ	-11.5652
▁ခေါ်တွင်	-11.5652
▁ပေးသည်	-11.5655
▁၂၇၀	-11.5656
▁အသာစီး	-11.5657
▁ပါရှိခဲ့	-11.5658
▁အနာ	-11.566
▁အခိုင်အမာဆိုခဲ့	-11.5661
▁တိုးတက်ခြင်း	-11.5661
တောင်းဆိုမှုများ	-11.5663
▁ပိ	-11.5663
▁ထင်ကြေးပေး	-11.5664
▁ရု	-11.5667
ညီသော	-11.5669
▁တောရိုင်း	-11.5672
န်ပြည်ထောင်စု	-11.5672
အမ်တီ	-11.5673
▁ခဲ့ရသည်	-11.5674
▁ကိုလီမ	-11.5675
▁ဒန်း	-11.5682
▁ပေးဆောင်ရ	-11.5682
▁ပြောပြီး	-11.5682
ကောင်းမွန်သော	-11.5687
ဲမိ	-11.569
ာ့ဂ်	-11.569
လုပ်ငန်းစဥ်	-11.5698
လုပ်ဆောင်ခဲ့သည်	-11.57
▁မော်ရီ	-11.5703
ဒေါင်	-11.5704
▁အသင့်	-11.5704
▁သုံးသော	-11.5706
▁ဆေးလိပ်သောက်သူ	-11.5708
အယ်လ်စီ	-11.5709
▁ကူး	-11.5709
ကွန်ဆာဗေးတစ်ပါတီ	-11.5712
စတ	-11.5714
ထားပါ	-11.5716
▁အကြောင်းပြန်	-11.5717
▁အန်တီအက်စ်	-11.572
▁အီးမေးလ်ပို့	-11.572
▁မာတီ	-11.5721
▁ဘရပ်	-11.5724
▁ပိတ်ပင်ခဲ့	-11.5727
▁သက်သေထွက်ဆို	-11.573
ရိုစလ	-11.5732
▁မက်တ	-11.574
▁ထင်ရှားစေ	-11.5743
▁သားပေါက်	-11.5744
ဆန့်ကျင်	-11.5746
▁လှူဒါန်းမှု	-11.5748
▁ဂရေ	-11.5749
လှုံ့ဆော်	-11.5751
▁ဇင်	-11.5752
▁အထူးသ	-11.576
▁မီချီဂ	-11.5762
▁ဂြိုလ်များ	-11.5763
▁အက်ကွဲ	-11.5769
အိုင်အက်ဖ်	-11.5769
▁နောက်ကြောင်း	-11.5772
▁ကျိုးပဲ့	-11.5772
▁ပြောခဲ့ပြီး	-11.5775
▁ရည်	-11.5776
တီဂါ	-11.5777
▁ခွဲဝေပေး	-11.5779
▁ဝေ့	-11.5784
▁မိတ်ဆက်ပေး	-11.5784
▁ကွာဟချက်	-11.5786
▁နက်ဝေါ့	-11.5786
▁စီရင်ချက်ချခဲ့	-11.5788
▁ဖာ	-11.5789
▁ဒဏ်ရိုက်	-11.5791
▁အမ်စီဂ	-11.5792
▁လက်များ	-11.5797
▁ပြစ်တင်ဝေဖန်	-11.5799
ဂတ်စ်	-11.5803
ခံထား	-11.5804
▁ပိုင်ဆိုင်ခဲ့	-11.581
ီလန်နီ	-11.581
ဗာရာ	-11.5812
▁အမ်ဘီ	-11.5814
ာကာ	-11.5818
ိဒ်	-11.5822
▁ဒဲ	-11.5828
▁ပြုလုပ်လိမ့်မည်	-11.5831
▁ကြည့်နေ	-11.584
▁ထိုသူ	-11.5841
▁ပြတ်သား	-11.5843
ဘယ်လ်	-11.5845
▁သေဆုံးစေ	-11.5846
▁လူကာ	-11.5847
အဆင်	-11.5853
▁ဝင်တိုက်	-11.5853
▁ဖမ်းဆီးခံခဲ့ရ	-11.5853
မိတ်	-11.5854
ရေးသားသူ	-11.5858
▁ထောက်ပံ့သည်	-11.5859
အတတ်	-11.5861
လာကြသည်	-11.5862
▁ဖွဲ့စည်	-11.5863
▁အေအယ်လ်	-11.5863
▁ပက်ထရို	-11.5865
▁အပေါင်းအ	-11.5871
▁ပြိုကွဲ	-11.5872
▁ဟူဂို	-11.5875
▁ဖယ်လ်	-11.588
▁ထော	-11.5889
ပြည့်ဝ	-11.5891
▁အသာ	-11.5895
▁ရေခဲများ	-11.5896
ထုတ်ပြန်ချက်	-11.5899
▁လွန်းပျံယာ	-11.5901
▁ရှိပြီဖြစ်	-11.5901
▁ပိုနည်း	-11.5901
▁ဖွင့်ပေး	-11.5901
ဘ်ဆိုဒ်	-11.591
▁မက်ကီ	-11.5911
▁နိုး	-11.5912
▁ဘယ်အချိန်	-11.5913
၄၀၀	-11.592
▁စတင်သည်	-11.5921
▁ဝန်းရံ	-11.5922
▁စဉ်းစားနေ	-11.5923
▁ကြံ	-11.5925
▁တိမ်းမှောက်	-11.593
▁အန်ဒါ	-11.593
▁ဂျန	-11.5931
▁ပွင့်	-11.5932
ိုင်နား	-11.5933
▁ဖရန်စစ	-11.5936
ရစ်ချ်	-11.5936
▁ရွေးချယ်ခံရ	-11.594
▁စွပ်စွဲခြင်း	-11.5941
▁အီဒင်ဘ	-11.5942
လုပ်ရပ်	-11.5944
ာဆယ်	-11.5945
▁အက်စ်စီ	-11.5948
အီးအို	-11.595
သန်	-11.5953
ခဏတာ	-11.5955
▁သေကြေ	-11.5956
▁မထောက်ခံ	-11.5958
ခဲ့ခြင်းဖြစ်	-11.596
▁၀၈	-11.5965
ိုက်စ်	-11.5966
▁ရွှေ့ပြောင်းခဲ့	-11.5966
▁အလွဲသုံးစား	-11.5969
▁၃၁ရက်	-11.5969
▁ယင်းတို့	-11.597
▁ထွက်လာခဲ့	-11.5971
▁ထောက်ခံသည်	-11.5972
ပါက	-11.5972
▁ချီဘ	-11.5977
ပြောကြားခြင်း	-11.5977
တံတိုင်း	-11.5977
▁လူသ	-11.5978
▁ယု	-11.5979
င်းဒါး	-11.5982
▁ဆန်နီ	-11.5988
တွင်းပိုင်း	-11.5996
▁၇၈	-11.6001
▁ခံစားနေရသူ	-11.6005
▁ကျန်ရစ်ခဲ့သည်	-11.6008
ေါင်း	-11.601
▁ဖရန်စ	-11.6012
င်ဂျာ	-11.6012
▁ဖြစ်ပေါ်လာနိုင်	-11.6013
ဆန့်ကျင်သော	-11.6015
ရှီဘ	-11.6016
နဲ့ဆိုင်	-11.6023
ခန်းမ	-11.6023
့ရှ်	-11.6024
၆၀	-11.6026
▁ရောက်ရှိသွား	-11.6027
▁၁၀ဝ၀ဝ	-11.6027
▁ထွက်ခွါ	-11.6034
▁ဟော်	-11.6036
▁ဘတ်စ်	-11.6037
▁အကြမ်းဖက်သူ	-11.6038
▁တရားစွဲဆိုသူ	-11.6038
▁ကျရောက်ခဲ့	-11.6045
▁ဆိုလာ	-11.6046
▁နေထိုင်ကြ	-11.6046
ဝင်ရောက်ကြည့်ရှု	-11.6048
တဲ့သူ	-11.6049
▁ဝှစ်တ	-11.6049
သာလျှင်	-11.6051
▁ဂွတ်	-11.6053
ထုတ်လုပ်မှု	-11.6057
▁ဟာဒီ	-11.6058
ဆာချူးဆက်	-11.6061
▁ယို	-11.6061
▁ထောက်ပံ့မှုများ	-11.6064
အချက်အလက်	-11.6066
လက်အောက်တွင်	-11.6069
လှုပ်ရှား	-11.6072
အရာတွေ	-11.6073
▁၂၄၀	-11.6076
▁မေရီလန်	-11.6079
▁ဒေါ်	-11.608
▁ခရူး	-11.6081
ရေးသား	-11.6083
▁တိမ်းမှောက်ခဲ့	-11.6084
စေခဲ့တယ်	-11.6085
ီဘီ	-11.6089
ပ်ကီ	-11.6089
ီနော့	-11.6091
▁နေခဲ့	-11.6114
▁သေဆုံးခဲ့ပြီး	-11.6114
ထဲမှ	-11.6117
အက်ဖ်အေ	-11.6118
▁နယူးယော့	-11.6127
▁ရွှံ့	-11.6127
နီယား	-11.6127
ဆေးရုံ	-11.6128
မူကြမ်း	-11.6128
သက်	-11.613
▁မီဂါ	-11.6132
▁မြှင့်တင်ပေး	-11.6137
▁သတင်းယူ	-11.6141
▁အက်စတို	-11.6149
▁ရှုံးနိမ့်ခြင်း	-11.615
▁အာတီ	-11.6152
အဖွဲ့ဝင်များ	-11.6154
ထားပြီး	-11.6156
လည်ပတ်	-11.6158
ဘက်ဒေါ့	-11.6158
ထဲတွင်	-11.6162
၀၆	-11.6163
▁ကွပ်မျက်	-11.6164
▁အန်ဒါဆ	-11.6174
သွားပြီ	-11.6177
ထုတ်ခဲ့	-11.6177
▁ပန်းဝင်	-11.6179
ဒီမာ	-11.6179
▁ထုတ်ပစ်	-11.6185
▁အကျော	-11.6187
▁အဝေးကြည့်	-11.6188
▁ဖြစ်သင့်	-11.619
▁ဖြေရှင်းနိုင်	-11.6199
▁ဘတ်တေ	-11.6207
ပွဲတော်	-11.6208
▁ကောက်ခံ	-11.6214
▁ဝပ်	-11.6216
▁၁၀၉	-11.6221
▁ပြုခြင်း	-11.6223
▁စောစီး	-11.6223
▁သေဒဏ်ပေး	-11.6224
နိုင်ခဲ့ပါ	-11.623
၀၁	-11.6234
ဘုံ	-11.6237
ဗီယာ	-11.6238
ပြေ	-11.6239
▁အသိမှတ်ပြု	-11.6239
▁ထုတ်ပယ်ခဲ့	-11.6239
သတ်မှတ်ခဲ့သည်	-11.6242
ဟူ	-11.6245
▁ဘလိုင်	-11.6247
▁လိ	-11.6258
▁လီယို	-11.6259
▁လစ်ဗ	-11.6263
▁စာဖတ်	-11.6266
ီကန်	-11.6267
▁မိန့်ခွန်းပြော	-11.627
▁ဘာဖြစ်	-11.6274
▁ကြီးကြပ်ကွပ်ကဲ	-11.6277
▁အေတီအ	-11.6283
▁အသုံးမပြု	-11.6285
▁မနှစ်	-11.6286
ိယ	-11.6288
▁ကော်လ	-11.6288
ရပ်ဒ်	-11.6289
▁တစ်ဆ	-11.6296
▁ကလာ	-11.6305
▁ဗဲလ	-11.6308
▁ဂျက်စတ	-11.6308
နိုင်အောင်	-11.6313
▁အသုံးပြုသည်	-11.6317
▁ပီအိုင်အ	-11.6319
ဘေးကင်း	-11.6322
▁ဖုံးအုပ်နေ	-11.6323
▁မိမိကိုယ်	-11.6323
▁လူသားချင်းစာနာ	-11.6327
ိုဏ်းအုပ်ဆရာတော်	-11.6328
အန်တီ	-11.6334
▁ရရှိသူ	-11.6341
▁ဆွတ်ခူး	-11.6346
သုတေသနပညာရှင်	-11.635
▁ရေးဆွဲထား	-11.635
▁လေ့လာနေ	-11.635
▁နေလာ	-11.637
မပေးနိုင်	-11.6373
ြီး	-11.6379
▁ပီရီ	-11.6382
ြ	-11.6393
▁လီယိုနာ	-11.6393
▁၈၄	-11.6395
ိုနန်	-11.6398
ူးလ်	-11.6416
▁သင့်တော်သ	-11.6417
▁ကူညီထောက်ပံ့	-11.642
▁နစ်နာ	-11.6421
▁လမ်းလျောက်	-11.6422
▁ချို့တဲ့	-11.6422
▁ဖမ်းမိခဲ့	-11.6423
▁အကြိတ်အနယ်	-11.6423
▁စမ်းသပ်ခဲ့	-11.6429
▁ဖော်ထုတ်ခဲ့	-11.643
▁ခန့်ခွဲ	-11.6432
ဘရော့	-11.6433
▁ဒုက္ခရောက်	-11.6434
▁ကုန်ဆုံး	-11.6439
ပြောဆိုခြင်း	-11.644
▁ပွတ်တိုက်	-11.6443
▁ကန့်	-11.6446
▁ပြန်ပို့	-11.6448
▁ဇဂ	-11.6448
▁ဆွေးနွေးခဲ့	-11.6451
▁အစွမ်း	-11.6455
အက်က	-11.6459
▁အော်ပရ	-11.6463
စွဲ	-11.6463
းရိုး	-11.6463
▁အိုင်တီ	-11.6464
▁အွန်တ	-11.6464
နိုင်ပါဘူး	-11.6465
▁အင်ဒီယာနာ	-11.6466
▁နိုင်ပါ	-11.6467
▁အကျဉ်းချ	-11.6469
▁မား	-11.6472
▁ပစ်ခတ်မှုများ	-11.6478
▁တာဝါ	-11.6482
▁ထွက်ပေါ်ခဲ့	-11.6485
▁စီနာ	-11.6489
လေကြောင်းဆိုင်ရာ	-11.6491
▁ဖေ	-11.6496
နှင့်အတူ	-11.6498
▁တည်	-11.6499
စေနိုင်သည်	-11.6501
▁ဖုံးကွယ်ထား	-11.6501
ေးခြင်း	-11.6505
အဝန်း	-11.6512
ပြန်လည်သိမ်းဆည်း	-11.6513
▁ရေပေါ်	-11.6514
▁မပြောနိုင်	-11.6515
မွန်တန်	-11.6517
ပေးလိမ့်မည်	-11.6522
▁ပြင်ဆင်နေကြ	-11.6523
ကီလို	-11.6529
နတီ	-11.653
▁ခန့်မှန်း	-11.6531
▁ရင်ဆိုင်ရသည်	-11.6532
မျှော်လင့်ထားသည်	-11.6534
▁ထုတ်ပြန်ထား	-11.6534
▁တီပီ	-11.6537
သိမ်းယူခြင်း	-11.6537
▁ထပ်ဆောင်း	-11.6541
ချိန်ထိ	-11.6546
▁အံ့သြဖွယ်	-11.6547
သွေး	-11.6549
▁ဒိုန	-11.6551
▁တစ်ပိုင်း	-11.6551
▁ဖြစ်လာသော	-11.6552
ကြောင်းအရ	-11.6552
▁ကုန်ဆုံးခဲ့	-11.6555
▁ဝတ်ပြု	-11.6555
▁ခန့်မှန်းထားသည်	-11.6556
▁ထိပ်တိုက်	-11.6556
ပို့ဆောင်ရေး	-11.6559
ထိန်းသိမ်းခံထားရ	-11.6563
ာရ	-11.6563
အက်စ်ဘီ	-11.6567
ဘဝ	-11.6569
ရခဲ့သည်	-11.6572
နာရီဝက်	-11.6573
▁နီကိုလ	-11.6577
▁အားကောင်း	-11.659
▁ဂရက်	-11.6591
ပြန်လည်	-11.6593
▁ရိုဂျ	-11.6598
▁အထက်လွှတ်တော်အမ	-11.66
▁အပြစ်တင်ခဲ့	-11.6602
ရှာမန်	-11.6603
▁၇၀ဝ	-11.6604
▁ဦးဆောင်လမ်းပြ	-11.6604
ဘိုင်	-11.6608
▁ခိုလှုံ	-11.6609
လန်ဒီ	-11.6611
▁ဂျူလီ	-11.6614
အက်စ်ဒီ	-11.6618
▁ပျံသန်းနေ	-11.662
လ်ဘဲ	-11.6621
▁အီလက်ထရွန်	-11.6629
ဝိုက်	-11.6629
▁အေး	-11.663
လက်နက်	-11.6633
▁ပရင်	-11.6634
▁ထောင့်ကန်	-11.6638
▁ကင်မ်	-11.6638
မြှုပ်နှံမှု	-11.6639
▁စိတ်ပျက်ဖွယ်	-11.6652
ပေးနိုင်	-11.6654
▁ပြသထား	-11.6654
▁အေဇာရ	-11.6655
လိမ့်မလဲ	-11.6666
▁တစ်ချိန်တည်းမှာ	-11.6673
▁အေအေ	-11.6677
တိုးတက်	-11.6678
▁ဖော့	-11.6681
▁အဲဒိ	-11.6682
▁အမှတ်ပေး	-11.6684
ံတော်	-11.6686
▁မြင့်တက်လာသည်	-11.6688
▁သိရှိရ	-11.6689
ပညာရပ်	-11.669
▁ဇန်န	-11.6691
အလွန်	-11.6693
စည်းဝေး	-11.6696
▁ဝင်ရောက်လာခဲ့	-11.6697
▁ကင်းဒ	-11.6698
▁သက်ရောက်မှုရှိ	-11.6698
ဒိ	-11.6701
▁ညှိ	-11.6705
▁ရွေးချယ်ခံခဲ့ရ	-11.6707
▁၀ီကီ	-11.6709
ာ့ရီ	-11.6709
အိတ်ချ်အ	-11.6712
အရေအတွက်	-11.6715
နှုတ်ဆက်	-11.6717
ဟတ်စ်	-11.6718
ဆစ်	-11.6721
▁ပြည့်	-11.6721
ဘိုနီ	-11.6723
သဘော	-11.6724
▁၉၄	-11.6724
အိုင်အက်အေ	-11.6726
▁ပြန်လာခဲ့	-11.6726
ှီ	-11.6726
▁မိတ်ဖက်	-11.6727
၄၄	-11.6729
နည်းပညာ	-11.6729
▁နှင့်သက်ဆိုင်သ	-11.6731
▁အိုက	-11.6732
▁စမ်းသပ်ခဲ့သည်	-11.6732
▁ဆူညံ	-11.6736
ကပ်လျက်	-11.6739
ရုပ်ရှင်	-11.6739
▁ဆီတဲ	-11.6739
အိပ်	-11.6741
▁ဖြန့်	-11.6745
စရိတ်	-11.6746
▁သောင်တင်	-11.675
▁ကာတွန်	-11.6751
ကောက်ခံ	-11.6751
▁ကိုက်ညီသည်	-11.6752
ပျက်စီးမှု	-11.6757
▁မွှေနှောက်	-11.6758
ဇယား	-11.6767
လျှော	-11.6767
ရုပ်မြင်သံကြား	-11.6768
စက္ကန့်	-11.6769
▁ဒိုမ	-11.677
အစီအစဥ်	-11.6771
တစ်ရပ်	-11.6772
▁စီပီ	-11.6774
ဲ့သော	-11.6774
မျက်နှာ	-11.6774
သိပ္ပံ	-11.6774
လောင်စာ	-11.6776
ပန်းတိုင်	-11.6776
ဒီပီ	-11.6777
▁၁ဝဝ	-11.6778
▁ဆုံးဖြတ်ခဲ့ကြ	-11.6778
ဘာသာစကား	-11.6778
ဝက်စ်	-11.6779
ပ်ဘ်	-11.6782
ဒေလီ	-11.6783
လောက	-11.6784
အင်္ဂါ	-11.6784
တည်ထောင်သူ	-11.6787
၉၉	-11.6788
ကာဗွန်	-11.6788
▁အယ်လီ	-11.6788
ဘရောင်း	-11.6788
ေါ်	-11.6789
ယောက်ျားလေး	-11.6792
းဦး	-11.6795
အမိန့်	-11.6795
ပီစီ	-11.6796
ါး	-11.6797
ထံ	-11.6797
▁ထုထည်	-11.6798
ကြာမြင့်စွာ	-11.6802
သန့်စင်	-11.6803
သက်ရှင်ကျန်ရစ်သူ	-11.6806
စိုးမိုး	-11.6814
စကွဲ	-11.6814
စုစည်း	-11.6815
▁တယ်လ	-11.6816
တုန့်ပြန်	-11.6819
လုပ်ငန်းစဉ်	-11.682
ပ်ဖ်	-11.6821
မရှိခဲ့	-11.6821
ကော်မရှင်	-11.6827
သင်	-11.6829
မာ့ခ်	-11.683
▁ခန့်မှန်းရ	-11.6834
▁လုယက်	-11.6836
ုချိ	-11.6839
▁အိတ်စ်ပ	-11.684
▁ခရစ်ချ	-11.6843
▁သယ်ဆောင်ခဲ့	-11.6843
▁ပုန်ကန်	-11.6845
ီယမ်	-11.6846
▁ကျေးဇူးတင်ပါ	-11.6848
ရမည်ဖြစ်	-11.6851
▁ဒီမိုကရ	-11.6855
ီအွန်	-11.6859
တော်တဆထိခိုက်မှု	-11.6863
▁အက်စ်အေ	-11.6865
▁အာဖဂန်နစ	-11.6874
အုပ်ချုပ်မှု	-11.6875
▁နာတ	-11.6878
သိရသည်	-11.688
▁အက်စ်တီ	-11.6881
▁ဖိတ်ခေါ်ခဲ့	-11.6881
▁ဂျီပ	-11.6889
▁အမည်တပ်	-11.689
▁အလည်အပတ်	-11.6894
ီဂါ	-11.6898
တဲ	-11.6899
▁ကဲ့သို	-11.6899
စ္စကို	-11.69
▁သုံးစွဲခွင့်	-11.6902
ကားမောင်းသူ	-11.6903
▁ရက်ဂ	-11.6904
▁စွဲဆို	-11.6905
ဝိုင်	-11.6905
ကျဆင်း	-11.6908
▁မက်ဒီ	-11.6909
တစ်ပတ်	-11.691
▁မှတ်ထား	-11.6912
▁နေရာယူ	-11.6915
▁ကွက်	-11.6915
▁အစွန်	-11.6916
နှုတ်	-11.6917
▁အကြံ	-11.6917
ရီနို	-11.6918
▁အလက်စ	-11.6919
▁ရုပ်အလောင်း	-11.692
အပ်သော	-11.6924
▁ကျရှုံးခဲ့	-11.6927
လာပြီး	-11.6931
▁ပြောကြားသော	-11.6933
တစ်နှစ်	-11.6934
မရှိသေးပါ	-11.6935
▁အမြန်လမ်း	-11.6936
ဇယ်	-11.6938
▁ကေဘယ်	-11.6939
ဆိုင်း	-11.6939
▁လမ်းချော်	-11.694
သွားရန်	-11.6943
တာ့ခ်	-11.6944
▁ကော်ရီ	-11.6944
▁အန်စီ	-11.6947
▁ပြိုင်ကား	-11.6949
ဆင်းရဲ	-11.6952
▁၁၅၀၀၀	-11.6954
▁မြင့်မားလာ	-11.6957
▁အရံ	-11.6959
းဗစ်	-11.696
ဖြစ်ပွားရာနေရာ	-11.6962
နေပါ	-11.6967
▁၀၇	-11.6967
ာစကာ	-11.6967
▁အပြာ	-11.6968
▁အက်စ်အယ်	-11.6972
န်နန်	-11.6974
စေ့စပ်	-11.6975
▁အာရုံစူးစိုက်	-11.6977
ာကီ	-11.6977
တာဝါ	-11.6979
▁တရာ	-11.698
သင့်ပါ	-11.6981
▁ကန်ခဲ့	-11.6982
ခါး	-11.6984
မစ်ကလင်	-11.6985
▁ပတ်စီ	-11.6986
▁ဂလက်	-11.6987
▁ထင်ဟပ်	-11.6987
ဦးဆုံး	-11.6989
▁ကော်ပ	-11.6993
လုပ်ကိုင်	-11.6995
ရွား	-11.6995
ုက်	-11.6997
▁၅၀၀၀၀	-11.6999
▁ပျံ့နှံ	-11.6999
▁စွပ်စွဲသည်	-11.7002
စ်ထရီ	-11.7004
ရာမ	-11.7004
▁လျှော့ကျ	-11.7006
ဒီစီ	-11.7006
▁ခေါင်းတိုက်	-11.7007
▁စန်တ	-11.7007
▁လူသေ	-11.7009
အပြောင်း	-11.701
▁ယူဆောင်ခဲ့	-11.7011
▁မွန်းတည့်	-11.7014
▁ခွဲစိတ်ကုသ	-11.7015
▁မျိုးပွား	-11.7016
▁ဟီ	-11.7018
▁အလှ	-11.7019
▁ထောက်ပံ	-11.702
ထိန်းသိမ်းခြင်း	-11.702
သမိုင်း	-11.7021
▁အဓမ္မ	-11.7021
ထည်အ	-11.7023
ဒီယမ်	-11.7024
▁ဖြစ်လာစေ	-11.7024
▁ပီရူး	-11.7026
ူးဂ	-11.7027
▁အပျက်အဆီး	-11.703
▁လေယာဉ်ပျက်	-11.7031
▁ခြုံငုံ	-11.7033
အမည်ရှိ	-11.7036
လာဟိုးမ	-11.7036
▁မရှိသည်	-11.7037
▁ကာလရှည်	-11.7038
ခရစ်	-11.704
▁မိုးတိမ်	-11.7041
▁ဗန်ကူ	-11.7042
▁ပုံနှိပ်ထုတ်	-11.7043
▁ဒဏ္ဍာရီ	-11.7043
▁ကျမ်းကျိန်	-11.7043
လျှော့	-11.7044
▁အပစ်အခတ်	-11.7044
▁ပေါက်ကွဲသံ	-11.7044
▁တည်တံ့	-11.7045
▁အမှားပြင်	-11.7045
▁ဝါသနာ	-11.7045
▁လှေလှော်	-11.7045
▁တည့်တည့်	-11.7045
လုံးလုံးလျားလျား	-11.7045
▁ကမ္ဘာတစ်ဝန်း	-11.7045
▁ကျမ်းသစ္စာ	-11.7045
▁ခဲယမ်းမီးကျောက်	-11.7045
▁ဂူဂလီယယ်မြူ	-11.7045
▁ဆေးဘက်အကူ	-11.7045
▁တောင်သူလယ်သမား	-11.7045
▁ထရန်နစ်စတြီး	-11.7045
▁ဒီပလိုမာ	-11.7045
▁နှိုင်းယှဥ်	-11.7045
▁ပစ္စတို	-11.7045
▁ပရိဘောဂ	-11.7045
▁ပြန်လည်တည်ထောင်	-11.7045
▁ဖြည့်စွက်ချက်	-11.7045
▁ဘရားဇီး	-11.7045
▁မိန့်ခွန်း	-11.7045
▁မှေးမှိန်	-11.7045
▁ရေပူစမ်း	-11.7045
▁လူစည်ကား	-11.7045
▁ဝလ်လစ	-11.7045
▁ဝီကီးနယူးစ်	-11.7045
▁သင့်လျှော်	-11.7045
▁သတင်းရင်းမြစ်	-11.7045
▁အကိုင်းအခက်	-11.7045
▁အကြွင်းမဲ့	-11.7045
▁အတိအလင်း	-11.7045
▁အပူတပြင်း	-11.7045
▁ဆိုးဆိုးဝါးဝါး	-11.7045
▁နှလုံးသွေးကြော	-11.7045
▁မူဂျာဟစ်	-11.7045
▁အတုအယောင်	-11.7045
▁ဂွာတီမာလာ	-11.7045
▁ညီအကို	-11.7045
▁ဒေသန္တရ	-11.7045
▁မှတ်တမ်းမှတ်ရာ	-11.7045
▁အကာအရံ	-11.7045
▁အဝတ်အထည်	-11.7045
▁ချိုးဖေါက်	-11.7045
▁ရည်စူး	-11.7045
▁လေကြာင်း	-11.7045
▁ဆုပေးပွဲ	-11.7045
▁ဘက်တော်သား	-11.7045
▁ကျေအေး	-11.7045
▁မီးတောက်မီးလျှံ	-11.7045
▁မော်ကွန်းတိုက်	-11.7045
▁သားအိမ်ပြင်ပ	-11.7045
▁ကတ္တရာ	-11.7045
▁ကွမ်ပလက်စ်	-11.7045
▁နယ်ချဲ့	-11.7045
▁လိမ္မော်	-11.7045
▁ဟွန်ဒူးရပ်စ်	-11.7045
▁အာဆင်နယ်	-11.7045
▁ဘရူဇဲ	-11.7045
▁လာဘ်ထိုး	-11.7045
▁ဝါယာကြိုး	-11.7045
▁သွင်ပြင်လက္ခဏာ	-11.7045
▁ဝေါဟာရ	-11.7045
▁ကယ်လ်ဗင်	-11.7045
▁သဘာ၀ဘေးအန္တရာယ်	-11.7045
▁အစဥ်အလာ	-11.7045
▁တွန်းလှန်	-11.7045
▁ငွေတောင်းခံလွှာ	-11.7045
▁ကြီးစိုး	-11.7045
▁ပန်းချီဆရာ	-11.7045
▁သီသီ	-11.7045
▁အလျှော့ပေး	-11.7045
▁အိုက်စ်လန်	-11.7045
▁ကိုလမ်ဘီယာ	-11.7045
▁ပြည်ဝင်ခွင့်	-11.7045
▁မက်ဗီဒက်	-11.7045
▁ကြည့်ရှု	-11.7045
▁မျိုးချစ်	-11.7045
▁အဖြူရောင်	-11.7045
▁ဗင်စ့်	-11.7045
▁အနီးစပ်ဆုံး	-11.7045
▁သံချပ်ကာ	-11.7045
▁အစာအိမ်	-11.7046
▁အစုစပ်	-11.7046
▁သိပ်မကြာခင်	-11.7046
▁မောင်းသူမဲ့	-11.7046
▁အန်းဒရိုက်	-11.7046
▁မက်ကစီကို	-11.7046
▁အန်အေအက်ဒီအေကျူ	-11.7046
▁ပျောက်ကင်း	-11.7046
▁၅ဒဿမ	-11.7046
▁ကွာရီယို	-11.7046
▁အသံလှိုင်း	-11.7046
▁ဖယ်ကတ်	-11.7046
▁ရှုံးထွက်	-11.7046
▁ကောလာဟလ	-11.7046
▁လက်ဖြောင့်	-11.7046
ပြောင်းလဲရေးဝါဒီ	-11.7046
▁ရိုဒရီဂို	-11.7046
▁ရွံ့	-11.7046
▁ညွန်ပြ	-11.7046
▁ဖိုင်တွဲ	-11.7046
▁ဆိုရှယ်	-11.7047
ဇာကွ	-11.7047
▁အာရုံခံ	-11.7047
▁စာသင်ကျောင်း	-11.7047
▁ရေခဲထု	-11.7047
▁အလုပ်ခွင်	-11.7047
▁အိုင်အက်စ်ပီ	-11.7047
ဝိခ်	-11.7047
▁ပရိုတွန်	-11.7047
▁လမ်းခုလ	-11.7047
▁ဆဲလ်ဖုန်း	-11.7047
▁ဘန်စတန်	-11.7047
▁အလယ်ဗဟို	-11.7047
▁ယာဥ်တန်း	-11.7047
▁ဥမင်လိုဏ်ခ	-11.7047
▁ကြွက်သား	-11.7047
▁တိမ်တိုက်	-11.7047
▁ဒဏ္ဍာရီလာ	-11.7047
▁အမိန့်အာဏာ	-11.7047
▁ဆေးခြောက်	-11.7047
▁အဖိုးတန်	-11.7047
▁မိတ်ကပ်	-11.7047
▁ဓါတ်အားပေး	-11.7047
▁လက်စွဲ	-11.7047
▁မြင်းစီး	-11.7048
▁ခွဲထုတ်	-11.7048
▁ဝေလနယ်	-11.7048
၀တ်စုံ	-11.7048
▁ပရောဖက်	-11.7048
▁သတ်ပစ်	-11.7048
▁ပရီမီယာ	-11.7048
▁လူနာတင်ကား	-11.7048
▁အနှစ်ချုပ်	-11.7049
▁ခရစ်စတိုဖာ	-11.7049
▁အငြင်းပွားစရာ	-11.7049
▁ပေါက်ကွဲသံကြီး	-11.7049
▁နံနက်ခင်း	-11.7049
▁ရေးဗား	-11.7049
▁ပိုမိုလွယ်ကူ	-11.7049
▁ပိုလီယို	-11.7049
▁လေ့ကျင့်ခန်း	-11.7049
▁ဘလက်ခ်	-11.705
▁အယ်ဘမ်	-11.705
▁ဝမ်းနည်းစရာ	-11.705
▁ကွင်းစ်လန်း	-11.705
▁ဒဏ်ကြေးငွေ	-11.705
▁ပပျောက်	-11.705
▁တိရစ္ဆာန်ရုံ	-11.705
လာ့ခ်	-11.705
▁တတိယအကြိမ်	-11.705
▁ဒေ့ဗ်	-11.705
▁အံ့ဩဖွယ်ရာ	-11.705
▁အိပ်ချ်ဒီ	-11.705
ယူအက်စ်ဂျီအက်စ်	-11.7051
▁မညီမျှ	-11.7051
▁ထပ်မံဖြည့်စွက်	-11.7051
▁ဖီဗာ	-11.7051
▁မက်စ်ဒ	-11.7052
့များ	-11.7052
▁ပေါင်းထည့်	-11.7052
▁ဘလိုချ	-11.7052
▁အိုလာဟို	-11.7053
▁စတီးလ်	-11.7053
▁နှလုံးရောဂါ	-11.7053
▁ပုတ်ထုတ်	-11.7053
▁ပြောင်းလဲပစ်	-11.7053
▁အင်ဒီးစ်	-11.7053
▁အားသာချက်	-11.7054
▁တလျှောက်လုံး	-11.7054
▁အထင်က	-11.7054
▁အငြင်း	-11.7054
▁အကျယ်တ	-11.7054
▁ပြစ်ဒဏ်ချခြင်း	-11.7054
စီစဉ်ညွှန်ကြားသူ	-11.7055
▁မာယာ	-11.7055
▁သူခိုး	-11.7055
▁ဘာဖ်ဖ	-11.7055
▁ကွမ်တန်	-11.7056
▁အသက်ကယ်	-11.7056
▁ဖုန်	-11.7056
▁နေ့စွဲ	-11.7056
▁မီးဘေး	-11.7056
▁လိုဏ်ခေါင်း	-11.7056
▁အိုမက်	-11.7056
▁လမ်းခရီး	-11.7057
▁၇၄၇	-11.7057
▁ဝင်သွားခဲ့	-11.7057
▁ဆေးရုံတက်	-11.7057
▁ပိုပေါ့	-11.7057
▁အိတ်ချ်၅	-11.7057
▁ပါဝင်ဆောင်ရွက်	-11.7057
▁အပြုံး	-11.7057
ပိုလီတန်	-11.7058
▁မာခ်	-11.7058
▁ဘရိုင်ရန်	-11.7058
▁ဒေတာ	-11.7058
▁ထိုးသွင်းခြင်း	-11.7058
▁ဝမ်းဘဲ	-11.7059
▁မာစတာ	-11.7059
▁လော်ရာ	-11.7059
▁နောက်တွဲ	-11.706
▁သက်ဝင်	-11.706
▁ဂေးလက်	-11.7061
▁နှင်းကျတာ	-11.7061
▁စောစောပိုင်း	-11.7061
▁ပြုလုပ်ထားသော	-11.7061
▁ဖျက်ချ	-11.7062
▁ရှဲ	-11.7062
▁ဖရန်ကို	-11.7062
နိုင်ဖွယ်ရှိ	-11.7062
▁မျောက်	-11.7062
▁ဘရူနို	-11.7062
▁စမ်းသပ်ခန်း	-11.7062
▁လက်ယာ	-11.7062
▁ပြည့်စုံစွာ	-11.7063
▁ဆန်းရှိ	-11.7063
တွေ့ခဲ့ရသည်	-11.7063
▁မတည်ငြိမ်	-11.7063
▁နယူးယောက်မြို့	-11.7064
▁အိုင်စီအေအ	-11.7064
▁ဂျင်မ်	-11.7064
▁ဖမ်းဆီးရမိ	-11.7064
▁ကွန်ဗ	-11.7064
▁အတွင်းက	-11.7065
အိုအီး	-11.7065
▁လွှတ်	-11.7065
ဘက်တီးရီးယားပိုး	-11.7065
▁အဘိ	-11.7066
ဗုံး	-11.7066
▁စခန်းချ	-11.7066
▁သုတ်သင်	-11.7067
▁မိုက်ကရိုချစ်ပ်	-11.7067
▁တော်ရွန်	-11.7067
▁၅၅၅	-11.7068
▁စေးလ်	-11.7069
▁ဥပဒေပြုအမတ်	-11.7069
▁နီကိုလာ	-11.7069
▁စစ်ဖက်	-11.707
▁ကောလင်း	-11.707
ပရိယာယ်	-11.707
ပေါ်လန့်	-11.707
▁ဂရိနိုင်ငံ	-11.707
▁ရမ်	-11.7071
▁ရရှိခဲ့ပြီး	-11.7071
ကိုင်ဒါ	-11.7071
▁ရီယို	-11.7071
▁ရှိနေသော်လည်း	-11.7072
▁ဆူဇန်	-11.7072
▁လက်ခံယုံကြည်	-11.7073
▁အခြေခံကျသော	-11.7073
ခရီးသည်တင်လေယာဉ်	-11.7073
ံပု	-11.7073
▁နျူကလီယ	-11.7073
▁ဖူကူ	-11.7074
▁ထုပ်	-11.7074
▁ရှေးဦး	-11.7075
ငွေများ	-11.7075
▁စည်းလုံးမှု	-11.7075
▁သက်ကြီး	-11.7075
▁မောနင်း	-11.7076
▁၃၀၀၀	-11.7077
▁နက်ခ်	-11.7077
▁စုပ်ယူ	-11.7077
▁မြန်ဆန်	-11.7077
▁သန်မာ	-11.7078
▁စစ်ပြန်	-11.7078
▁ဟိုလို	-11.7079
▁စရိုက်	-11.7079
▁လုံခြုံစွာ	-11.7079
▁အသုံးအ	-11.708
▁အခိုးခံရ	-11.708
▁ကိုးကားချက်	-11.708
▁အချိန်ပြည့်	-11.7081
▁ပွင့်လင်းမြင်သာ	-11.7081
▁သင်္ချိုင်း	-11.7081
▁ကွာခြားမှု	-11.7082
▁မင်္ဂလာ	-11.7082
▁ဧရာမ	-11.7083
▁တိမ်းစောင်း	-11.7083
▁ကျန်ရှိနေသေးသော	-11.7083
▁အပေါင်စာချုပ်	-11.7083
▁ကြေးစား	-11.7083
▁ကမ့်ဘဲလ်	-11.7083
▁မထွက်ခွာ	-11.7083
▁သဘာဝဘေး	-11.7084
ဆက်ဆာ	-11.7084
မခံရ	-11.7085
▁၁၄၉	-11.7085
▁အတောတွင်း	-11.7085
▁ဆာကာရှ	-11.7085
▁နံပတ်	-11.7087
▁မျိုးဆက်သစ်	-11.7087
▁တစ်သိန်း	-11.7088
▁ဘာရီချ	-11.7089
▁ဝင်တိုက်မိ	-11.7089
▁ဒွန်း	-11.7089
▁လက်ထက်	-11.709
ဝန်း	-11.709
▁မမှန်ကန်သော	-11.709
ာစီနီ	-11.7091
▁ဓာတုပစ္စည်း	-11.7091
▁ရေဆိုး	-11.7091
▁ဘွိုင်း	-11.7091
▁မြေကြီး	-11.7093
▁ညစာစား	-11.7093
▁နိမိတ်	-11.7094
▁ကိုင်ရို	-11.7094
▁ရာဇဝတ်သား	-11.7095
▁ရာဇာ	-11.7095
▁ပစ်ပေးသူ	-11.7096
▁အိမ်တွင်း	-11.7096
▁ဘလိတ်	-11.7096
▁ထရင်း	-11.7097
▁တက်ရောက်ရန်	-11.7098
့ဗ်	-11.7098
▁အလတ်စ	-11.7098
▁မစတင်	-11.7099
▁ရဲကား	-11.7099
▁အကျိုးရလဒ်	-11.7099
▁အခိုင်မာပြောဆို	-11.71
▁ခေါ်သ	-11.71
▁ချဒ်	-11.7102
▁ဂျပန်အသင်း	-11.7102
▁အပေါ်ယံ	-11.7102
▁အိပ်ရာ	-11.7103
▁နှစ်ထောင်	-11.7104
▁၀န်ထမ်း	-11.7104
▁မကောင်းမှု	-11.7105
▁ချီတာ	-11.7105
▁ဖရိ	-11.7105
▁ဗလာ	-11.7106
▁အလင်းတန်း	-11.7106
▁မတူညီတဲ့	-11.7107
ယာဥ်	-11.7107
▁ဖြစ်စဥ်	-11.7107
▁လာအို	-11.7107
လိုလားသူ	-11.7108
▁အော်ပရေး	-11.7109
▁တူးဖော်ရေး	-11.7109
▁ဆိုခွင့်	-11.711
▁ရိုဘ	-11.711
သွားလမ်း	-11.7111
▁လေးနက်သော	-11.7111
ထိတ်လန့်ဖွယ်	-11.7111
၀၇	-11.7112
▁ပေါက်ကြားမှု	-11.7112
▁အီရစ်	-11.7113
အရေးအခင်း	-11.7113
▁ခံနေရ	-11.7113
ဆွဲခြင်း	-11.7115
▁အဖျား	-11.7116
▁ဘက်လိုက်မှု	-11.7116
▁သတိထားမိ	-11.7116
▁အီရီ	-11.7116
ထင်ရှား	-11.7117
▁ရည်ညွန်း	-11.7117
▁ပရိုင်း	-11.7118
▁အခွင့်	-11.7119
▁ကစားကွက်	-11.7119
▁ပိုမိုများပြား	-11.7119
ဘူဇ	-11.712
▁၁နာရီ	-11.712
▁အိပ်ခ်ျ	-11.7121
▁ဖမ်းဆီးရမိခဲ့	-11.7122
▁ချီတက်ဆန္ဒပြ	-11.7122
▁မဲဆွယ်မှု	-11.7123
▁ထရန်စ်	-11.7125
▁ရှာနာ	-11.7126
စေ့စပ်ညှိနှိုင်း	-11.7126
▁လေယာဥ်ပျက်ကျ	-11.7127
▁အဆုံးသတ်နိုင်	-11.7127
▁ပတ်စ	-11.7129
▁ပစ်သတ်ခံခဲ့ရ	-11.7129
▁မက်ဆာ	-11.713
ဆိုသည်	-11.713
▁စိန်	-11.7132
▁ဂစ်ဘ်	-11.7135
▁ဖောက်	-11.7135
▁အပ်နှင်း	-11.7136
▁ကြပ်မတ်	-11.7138
ကွဲ	-11.7142
▁ကျင့်ဝတ်	-11.7143
▁ဂျက်ဆန်	-11.7143
▁ပျက်စီးသွားသည်	-11.7143
▁တိုးပွားမှု	-11.7143
▁နှင်းကျနေ	-11.7143
▁ပြတ်တောက်ခဲ့	-11.7144
▁ကြုံရ	-11.7144
▁ရေလှိုင်း	-11.7145
▁သင်ကြားရေး	-11.7145
▁ဆင်းရဲမွဲတေမှု	-11.7145
▁ကွဲလွဲ	-11.7145
ဆီကျူ	-11.7146
▁စုစည်းထားသော	-11.7146
ကာတာ	-11.7149
▁၀န်ကြီးဌာန	-11.7149
အိုင်အက်စ်အက်စ်	-11.715
▁ဘောန	-11.7151
ဆက်ခံသူ	-11.7152
အစည်း	-11.7153
ိတ်စိတ်အမွှာမွှာ	-11.7154
▁စုံထောက်	-11.7154
▁၁၀၊	-11.7154
ကင်းမဲ့	-11.7154
▁အနာဂ	-11.7155
▁လျင်	-11.7155
▁ခေါက်	-11.7158
▁လိုဒီ	-11.7159
▁ပျားရည်	-11.716
▁ကွန်တီ	-11.7162
▁ဖြောင့်	-11.7163
န်းဒါး	-11.7164
▁ဟစ်ဝဲ	-11.7164
▁ဟောပြောချက်	-11.7164
▁ဝီကီဘွတ်	-11.7165
စည်းကမ်း	-11.7165
▁ရရှိဖို့	-11.7167
▁ချောင်	-11.7168
▁ပါကင်	-11.7169
▁အောက်မှ	-11.7171
▁အမြီး	-11.7171
▁သင်ယူမှု	-11.7172
▁ယူနိုင်	-11.7172
▁အေမီ	-11.7172
တစ်ချက်	-11.7174
▁ဒီအမ်	-11.7176
▁နာကျင်ခြင်း	-11.7176
▁ဒိ	-11.7178
▁ထွက်ပြေးလွတ်မြ	-11.7179
▁ဝေးလ	-11.7179
▁ပြောင်းလဲစေ	-11.7184
▁ငြင်းဆိုခြင်း	-11.7185
▁လတ်ဆတ်	-11.7186
▁တားဆီးပိတ်ဆို့	-11.7187
ရှုခင်း	-11.7187
▁ရန်လိုသော	-11.7188
▁ပြန်ဖွင့်	-11.719
▁ပီရာ	-11.7191
၃၆	-11.7191
▁ဓါတ်ပုံဆရာ	-11.7191
▁အထင်ကြီး	-11.7195
▁မြို့နယ်	-11.7195
▁တိုးမြင့်လာ	-11.7195
▁ဓား	-11.7196
▁မြှင့်တက်	-11.7197
▁ခွဲခြားခြင်း	-11.7198
▁လူစီ	-11.7199
▁ရုပ်တု	-11.7199
▁ရှိသော်ငြားလည်း	-11.7199
အုပ်ချုပ်ခွင့်	-11.7201
ပ်ရောဂါ	-11.7204
▁လော့ခ်	-11.7205
▁လွဲချော်ခဲ့	-11.7205
▁ဆွေးနွေးပြောဆို	-11.7205
▁ပျောက်ဆုံးမှု	-11.7207
▁ကူညီမှု	-11.7208
▁နက်ရှိုင်းသော	-11.721
▁စစ်ဆေးခံ	-11.7215
▁ဘာလင်	-11.7215
က်ထရီ	-11.7218
▁ရေပန်း	-11.722
ီဇာ	-11.7221
▁နိုင်ဂျာ	-11.7226
▁လွှဲပြောင်းယူ	-11.7226
▁တစ်ဝိုက်	-11.7226
▁အိုင်အန်	-11.7228
▁ဂဏန်း	-11.7229
▁အန်တ	-11.7232
▁ညစ်ညမ်းသော	-11.7233
၈၆	-11.7234
▁၇၃	-11.7235
တော်ကြာ	-11.7236
နိုင်း	-11.7237
▁နိုဗယ်	-11.7237
▁အက်ရ	-11.7239
ရမ်းပ	-11.724
▁၀င်ရောက်	-11.724
▁သရုပ်ပြမှု	-11.7241
▁၇၉	-11.7241
▁ဖြန့်ဝေမှု	-11.7242
န့်	-11.7242
▁ပစ်မှတ်ထားခဲ့	-11.7243
ဗရီ	-11.7247
▁မယုံကြည်နိုင်	-11.7248
▁အိန္ဒိယလူမျိုး	-11.7248
နိ	-11.7249
▁လွယ်လွယ်	-11.7249
▁စီစဉ်ထားခဲ့	-11.7249
▁အန်အက်စ်ဒဗလ	-11.7249
▁အစည်းအ	-11.7251
▁အလုပ်လက်မဲ့ဖြစ်	-11.7254
▁မျှော်မှန်းချက်	-11.7255
ချီဂန်	-11.7256
ဘုရင်စနစ်	-11.7256
▁ကျရှုံးမှု	-11.7257
▁စကြဝ	-11.7257
▁အမ်ကေအ	-11.7258
▁အက်အေ	-11.7259
▁ကွဲပြားနေ	-11.7259
ီရယ်	-11.7259
နေသူ	-11.7261
မေးနီးယား	-11.7263
▁ဒီအေ	-11.7263
▁ဗုံးဖောက်ခွဲမှု	-11.7264
▁ပျက်ကျခြင်း	-11.7268
▁စက်ဝိုင်း	-11.7268
▁နှစ်ရပ်	-11.7268
လိုပဲ	-11.7269
▁ကစားချိန်	-11.7271
▁အပြစ်ကင်း	-11.7271
▁ဖြစ်ပေါ်လာခဲ့	-11.7271
▁မိန့်	-11.7271
▁ဆရာဝန်တွေ	-11.7272
▁အဝိုင်း	-11.7272
▁လှုံဆော်မှု	-11.7274
ရဒ်	-11.7275
▁ထရန့်	-11.7278
▁လုပ်ကိုင်နေ	-11.7279
▁ကပ်ဘေး	-11.728
လွှား	-11.7281
လောက်သည့်	-11.7282
▁ရာဇ	-11.7282
▁လူနေ	-11.7283
▁သတင်းပို့ချက်	-11.7284
▁မရှင်းလင်း	-11.7284
▁ပြဌာန်းခဲ့	-11.7284
▁လိုအပ်မည်	-11.7288
▁မြေပေါ်	-11.7289
▁လျ	-11.7291
လင်ဂါ	-11.7295
▁ဖြုတ်ချခဲ့	-11.7297
▁ဆန္ဒပြခဲ့ကြ	-11.7301
ပေးရမယ်	-11.7301
▁မှတ်သားခဲ့	-11.7302
ဆတ်	-11.7304
▁ကွဲပြားခြားနားသ	-11.7305
▁အပြစ်တင်ဝေဖန်	-11.7305
▁နိဂုံးချုပ်	-11.7306
က်သော	-11.7308
▁ရေနံစည်	-11.7308
▁ပြောရ	-11.7312
▁ရှုံးခဲ့သည်	-11.7315
▁စကားပြောနေ	-11.7315
▁ရိုက်ယူခဲ့	-11.7315
မိန့်	-11.7317
ဒီတီ	-11.7318
▁ဘရောက်	-11.7318
▁ဆိုချ	-11.7318
▁ဖြစ်နေတယ်	-11.7319
▁အောင်မြင်အောင်	-11.7321
ော်တာ	-11.7322
▁ဒိုင်ယာရီ	-11.7323
▁မရှိတော့	-11.7325
▁ရန်ပွဲ	-11.7326
နှင့်ပက်သက်	-11.7329
▁စတန်းဖို့	-11.733
ည်းမျဉ်းစည်းကမ်း	-11.733
▁ဖြစ်မယ်	-11.7332
▁ယူဆောင်သွား	-11.7333
▁ရေးသားသူ	-11.7335
▁ရစ်ဂျ်	-11.7337
ရူ	-11.7337
▁လူမျိုးစုများ	-11.7337
▁မကိုက်ညီ	-11.7338
▁ရွေးကောက်ပွဲဝင်	-11.7338
▁ဝီကီသတင်းဋ္ဌာန	-11.7343
နီဖာ	-11.7348
▁စာကြောင်း	-11.735
▁မိုင်လင်	-11.7352
▁ဂျော်	-11.7355
▁ယခုချိန်	-11.7358
▁ခွဲထား	-11.7358
▁ထရန်	-11.7361
▁ကတိပြုခဲ့	-11.7361
▁ဘလွန်းဘ	-11.7362
င်ဒါ	-11.7368
ကြိုးပမ်းမှု	-11.7371
▁အားပေးထောက်ခံ	-11.7375
▁အိုင်း	-11.7379
▁ခိုင်းစေ	-11.7381
▁လုပ်အားပေး	-11.7382
▁အမည်တွင်	-11.7387
ီကီ	-11.7388
▁မယ်လာ	-11.7389
▁တစ်ယောက်စီ	-11.739
အနည်းစု	-11.739
▁ပုပ်	-11.7392
းအုပ်ဆရာ	-11.7392
စိမ်း	-11.7392
▁တရ	-11.7395
▁စီမံနိုင်ခဲ့	-11.7397
ပက်	-11.7398
င်ဆာ	-11.7398
ထရို	-11.7401
▁ဂျေပီ	-11.7402
▁တည်ရှိသ	-11.7405
▁လောင်ကျွမ်းခဲ့	-11.7405
ချခြင်း	-11.7408
▁ဘရော့	-11.741
ရှင်းလင်းရေး	-11.7412
ပျော်ရွှင်မှု	-11.7414
▁ရမယ်	-11.7416
ဆန်းဒါး	-11.7417
▁တေး	-11.7418
▁ဘာသာဝင်	-11.7419
▁ကိုကင်း	-11.742
ဂရက်ဖ	-11.7422
တွဒ်	-11.7422
▁ဆယ့်နှစ်	-11.7423
▁ဆန့်	-11.7424
သကဲ့သို့	-11.7427
▁ကာ့ဒ်	-11.7427
▁ဟာပါ	-11.743
လာမှု	-11.7434
▁၎င်းတို့ကို	-11.7435
စေပြီး	-11.7436
▁တက်ကြွလှုပ်ရှား	-11.7437
ဒီနီ	-11.7439
▁ဆူဆ	-11.744
န်ကန်	-11.744
ဘူ	-11.744
လီယန်	-11.7443
ပါလီမန်လွှတ်တော်	-11.7444
▁တရားစွဲချက်	-11.7444
▁စီးနင်းမှု	-11.7444
▁အဆောင်	-11.7447
၁၉၆၉	-11.745
▁ဂျက်စ်	-11.7451
▁ဂျီပီ	-11.7454
သားတွေ	-11.7456
ကိုလည်း	-11.7457
▁ဘီအမ်ဂျ	-11.7457
▁သေချာမှု	-11.7459
သွားပါ	-11.7465
▁ဂိုးမ	-11.7465
▁လှုံ့ဆော်ခြင်း	-11.7465
လိုနီ	-11.7466
▁လမ်းမက	-11.7466
▁ဆင်းသက်ရန်	-11.7469
စွမ်း	-11.747
▁ထိုစဉ်	-11.7471
▁ပေးဆောင်ရမည်	-11.7474
▁ပြီးခဲ့သ	-11.7475
ပုဒ်မ	-11.7475
ယ်လီဗေး	-11.7476
▁နှစ်ဘက်	-11.7481
▁တိုင်တန်း	-11.7483
▁အရည်အချင်းရှိ	-11.7483
▁အစဥ်	-11.7487
▁တစ်ကိုယ်ရေ	-11.7489
▁ဒေသခံတွေ	-11.749
စ်ယာ	-11.7492
လု	-11.7494
ဂျွန်	-11.7496
ခုထိ	-11.7498
▁ဒရာ	-11.7498
▁သင့်	-11.7499
▁ဝစ်က	-11.7503
ရသေးသော	-11.7505
▁မာရေး	-11.7505
လွယ်ကူ	-11.7505
သေးသော	-11.7506
စလာ	-11.7507
ကျင်းပခဲ့သည်	-11.7508
▁စိတ်ချရသ	-11.7512
▁အောင်နိုင်သူ	-11.7513
ားစ်	-11.7521
▁သတိပေးမှု	-11.7521
▁ဒရိုင်	-11.7522
▁လက်ခံနိုင်	-11.7523
▁ပါတီနိုလိ	-11.7526
▁ပစ်ခတ်ခဲ့ကြ	-11.7527
▁စစ်ရေးပြ	-11.7528
▁ပစ်က	-11.7531
တူညီမျှ	-11.7535
▁မင်	-11.7544
▁၀ယ်	-11.7547
▁ကု	-11.7553
▁တစ	-11.7553
၂၀ဝ	-11.7555
▁ဆာဖ	-11.7556
▁သတိပေးထား	-11.7556
ဂိတ်	-11.7557
▁ရောင်ခြည်	-11.7561
▁ခံစားခဲ့	-11.7568
▁အိုင်အက်	-11.7569
▁ဒိုနယ်	-11.7571
▁စတတ်	-11.7573
ကြည့်ရန်	-11.7576
▁ထောက်လှမ်း	-11.7581
အကြောင်းအရင်း	-11.7584
▁ကုလသမ္	-11.7585
▁ဂျိုးဇ	-11.7585
▁တားဆီးခြင်း	-11.759
▁အေရီ	-11.7591
▁မှီခိုနေ	-11.7592
ရီကာ	-11.7596
▁ခါး	-11.76
▁အီဗန်	-11.7601
▁ပါဝင်လာ	-11.7603
▁စာများ	-11.7604
▁ဘီလ	-11.7606
ားချိန်	-11.7616
▁အက်ဖ်စီ	-11.7618
▁စမ်းသပ်စစ်ဆေး	-11.7621
▁လိုက်ရှာ	-11.7622
▁အကြံပြုချက်များ	-11.7624
လုပ်ထားသော	-11.7624
▁ဘရွန်	-11.7626
▁ကျွ	-11.7627
▁တွေ့ကြုံခဲ့ရ	-11.7629
▁ဟမ်း	-11.763
▁အော်ရ	-11.7632
▁ဂေါ်	-11.7633
▁သနား	-11.7633
▁စဉ်က	-11.7634
တာက	-11.7636
▁လာကြ	-11.7636
ဒဗလျူဘီ	-11.7639
▁ကက်စ	-11.7641
▁ရေးထိုး	-11.7646
ရမလဲ	-11.7647
▁လျှ	-11.7648
▁အိုတဝ	-11.765
၇၀၀	-11.7651
▁ရှောင်ကြဉ်	-11.7651
သတင်းဋ္ဌာန	-11.7655
▁ရိုက်ကူးခဲ့	-11.7655
▁စိုးရိမ်ခဲ့	-11.7655
▁မထီမဲ့မြင်	-11.7656
သတ်	-11.7658
▁ဖီလ	-11.7664
ပြုမှု	-11.7664
▁တက်လာ	-11.7665
▁ကြိုးကိုင်	-11.767
▁မက်ဆီက	-11.7684
ိတ်စ်	-11.7685
▁အားစိုက်	-11.7688
▁အဆိုပြုထားသ	-11.7688
▁၉၈	-11.7695
ဝင်ရောက်ခွင့်	-11.7696
▁ပျံသန်းလာ	-11.7699
▁နှစ်ဆယ့်တစ်	-11.7702
ဆီဗန်	-11.7702
▁ဒိုရ	-11.7703
▁အိုတို	-11.7703
▁သတိပြုမိခဲ့	-11.7704
▁တွေ့ကြုံနေရ	-11.7705
▁ပေးဆောင်ခဲ့	-11.7708
▁သင့်တော်မှု	-11.7719
ဂီနီ	-11.7719
▁ရှာနေ	-11.7721
▁လွတ်ပေး	-11.7727
▁ကြမ်းတမ်းစွာ	-11.7727
က်ပီ	-11.7729
ဗိုရို	-11.7734
▁ဂျီအိုပ	-11.7742
▁စုံစမ်းနေ	-11.7742
▁၀၀	-11.7749
▁ဟစ်	-11.7751
ခံရလိမ့်မည်	-11.7752
▁မှန်းဆ	-11.7755
▁စကားပြောဆို	-11.7761
းကပ်	-11.7761
▁လည်ပတ်နေ	-11.7763
စ်ဘီ	-11.7764
မှာမဟုတ်	-11.7764
▁ပိတ်လိုက်	-11.7766
▁စတက်	-11.7768
▁လေ့လာသုံးသပ်	-11.7773
▁ရူးပ	-11.7773
ဘောလုံးကို	-11.7777
▁ကာရေး	-11.7778
▁ဟောဝပ်	-11.7778
တင်သင်္ဘော	-11.7781
▁တားမြစ်ပိတ်ပင်	-11.7789
▁ကတ်သလ	-11.7797
▁အီလီ	-11.7797
▁ရှိနေပါ	-11.78
▁ထားသည့်	-11.7801
▁နှစ်သစ်က	-11.7801
▁ရန်းစ်	-11.7802
၃၀ဝ	-11.7802
▁စစ်သားတွေ	-11.7802
်ကန်း	-11.7804
တီး	-11.7806
▁ကယ်တင်ခဲ့သည်	-11.7808
▁စိုးရိမ်နေကြ	-11.7811
ပီးဒီးယား	-11.7814
ပျံသန်းမှု	-11.7816
ပြီးသားဖြစ်	-11.7824
ဆုံ	-11.7825
▁မော်ရ	-11.7826
▁အမိန့်ချမှတ်	-11.7829
ွေး	-11.7833
▁ဘရီ	-11.7837
▁ဟူစတ	-11.7837
▁ြဖစ်	-11.7838
▁၁၄၈	-11.7839
ပယ်	-11.7843
▁အီကွေ	-11.7844
ဉီး	-11.7844
▁လိုင်	-11.7846
ရှိတယ်	-11.7853
ဘက်မှ	-11.7853
▁မန	-11.7854
ပူးပေါင်း	-11.7855
ထုတ်ပြန်ကြေညာခဲ့	-11.7859
▁မာကို	-11.7859
အားပေးသူ	-11.7861
▁အိန်ဂျလ	-11.7863
▁ပျောက်ကွယ်	-11.7865
▁လွှင့်	-11.7866
▁ကျွန်ုပ်တို့ကို	-11.7868
မိုကရေစီပါတီဝင်	-11.7877
▁အဆုံးသတ်ခြင်း	-11.7878
နေပုံ	-11.7878
▁ဂု	-11.7879
▁စတူး	-11.7882
▁ဘီအ	-11.7883
▁လူငယ်လေ	-11.7883
▁ဂါန	-11.7885
ထိအောင်	-11.7885
ပဲလ်	-11.7886
▁စစ်ဆေးချက်	-11.7892
▁ဖော်ပြပါ	-11.7892
▁အမှုစစ်ဆေး	-11.7892
▁အပြင်ထွက်	-11.7894
▁စာရင်းပြုစု	-11.7896
ဝဲ	-11.7896
▁ရင်ဆိုင်ရနိုင်	-11.7896
▁ထိန်းချုပ်ခြင်း	-11.7907
မေး	-11.7908
ွင့်	-11.7909
▁ထူထောင်မှု	-11.791
▁အက်စ်ထရ	-11.7911
ီတန်	-11.7911
ဇန်	-11.7911
ှောင်	-11.7914
▁သယ်ဆောင်လာခဲ့	-11.7916
▁သေဆုံးစေခဲ့	-11.7917
▁တရားသေလွှတ်	-11.7925
နေခဲ့ကြ	-11.7925
ဆီကို	-11.7925
▁ကျဆင်းနေ	-11.7928
▁ရရှိနေ	-11.7939
▁ထောက်ပံ့ပေးခဲ့	-11.7939
▁လျော့ချနိုင်	-11.794
ဘား	-11.794
ာက	-11.7941
ခံရပြီး	-11.7947
▁ကန့်ကွက်ချက်	-11.7947
▁မြုပ်	-11.7948
▁အပြစ်ပေးမှု	-11.7956
▁အေအ	-11.7957
အိုင်ဘီ	-11.7958
▁ပီအက်စ်	-11.7959
▁ဂရစ်	-11.7959
▁အစီရင်ခံထား	-11.796
▁လူးဝ	-11.7963
▁ဒယ်နီ	-11.7963
ဟော့	-11.7966
ထောက်ထား	-11.7967
▁အိုအက်စ်	-11.7968
▁ဆင်းသက်လာခဲ့	-11.7969
▁နေမကောင်း	-11.7974
▁၁၈၉	-11.7975
▁သက်	-11.7975
▁စောင့်ရှောက်ရေး	-11.7978
▁တပ်မ	-11.7982
အင်ဂျ	-11.7988
▁အမှုဖွင့်	-11.799
ထောက်ခံ	-11.7991
▁သေခြင်း	-11.7991
▁လွှတ်ခဲ့	-11.7992
ဆန်သော	-11.7992
▁ဗြိတိန်လူမျိုး	-11.7994
▁မရည်ရွယ်	-11.7995
ခါစ	-11.7996
▁ဗန်နီ	-11.7999
▁အကျိုးဆက်ဖြစ်	-11.8002
▁လျော့ချခဲ့	-11.8008
▁တက်စ	-11.8009
▁ပေးပို့မှု	-11.8009
စွယ်	-11.801
▁ပျံသန်းခဲ့	-11.801
ကမ္ဘာစစ်	-11.8011
▁ပါရှ	-11.8012
လာတယ်	-11.8022
▁မလဲ	-11.8023
စုများ	-11.8025
▁အိုင်အေ	-11.8037
စီရင်ချက်	-11.8039
လိုက်ပြီဖြစ်	-11.8041
ဲရစ်	-11.8044
ဘာဂါ	-11.8049
▁ရှေ့ဆက်သွား	-11.8053
စရာကောင်း	-11.8065
▁အပြောင်းအလဲများ	-11.8068
▁မရှိကြ	-11.8069
▁နှင်းများ	-11.8075
မြန်	-11.8078
ကော	-11.8078
▁စိတ်မကောင်း	-11.8079
၅၁	-11.8081
▁ကာလာ	-11.8086
ဝန်ဆောင်မှု	-11.8091
▁သူ့ကိုယ်	-11.8096
▁မြင့်တက်နေ	-11.8096
င်ဂီ	-11.8096
▁ပို့ဆောင်ပေးခဲ့	-11.8104
ပ်ဝန်း	-11.8104
▁ဘောလ်	-11.8105
▁ကြီးကျယ်	-11.8105
▁ကောက်ချ	-11.8106
▁ဘေးထွက်	-11.8107
▁ပါလ	-11.8119
ိန်	-11.812
ကစားနည်း	-11.812
န်ဇာ	-11.8121
တကာ	-11.8122
▁ရောင်းဝယ်	-11.8122
တိုနီ	-11.8126
▁ဂေ	-11.8133
ဟင်း	-11.8134
▁ဟီလ	-11.8138
▁ရမှတ်များ	-11.814
လာမည်	-11.8141
▁ဖွင့်ခဲ့	-11.8146
▁အရေးနိမ့်	-11.8147
▁အင်န	-11.8151
▁အစီရင်ခံခြင်း	-11.8152
▁ခံယူခဲ့	-11.8153
လာစေသည်	-11.8153
ပြောခြင်း	-11.8158
▁ယူရိုငွေ	-11.8159
ပေးမည်	-11.8161
▁ပြစ်ဒဏ်စီရင်ခ	-11.8163
▁စင်တင်	-11.8166
▁ဒဏ်ရာရရှိသူ	-11.8169
▁ဒန်ဗ	-11.8169
▁ပီတာစဘ	-11.817
▁မွန်ဘ	-11.8171
▁သုံးသပ်ခဲ့သည်	-11.8171
ထည်	-11.8172
▁ဆာဗ	-11.8181
▁ကိုယ်စားပြုထား	-11.8182
▁အကဲဖြတ်မှု	-11.8182
▁မေ့	-11.8183
▁နှိုင်းယှဉ်ခဲ့	-11.8184
▁အပြား	-11.8185
ခေါက်	-11.8188
▁စွ	-11.8189
▁ကန်သွင်း	-11.8191
▁ပြုလုပ်ခဲ့ကြ	-11.8194
▁ရွှေတံဆိပ်	-11.8195
▁ပြုလုပ်နိုင်	-11.8195
▁ပြုလုပ်သည်	-11.8198
▁စလစ်	-11.8201
▁ဒက်စ်	-11.8202
▁တာဝန်ယူခဲ့သည်	-11.8207
းဘက်	-11.821
အားထုတ်မှု	-11.8213
▁စတင်၍	-11.8215
ယ်ဆယ်ရေးသမားများ	-11.8222
▁ထိန်းသိမ်းမှု	-11.8223
ိုးနှုန်း	-11.8225
ဂရက်	-11.8228
▁ပိုင်ဆိုင်ထား	-11.8235
▁ပျောက်ဆုံးခဲ့	-11.8236
▁ငွေချေးသူ	-11.8236
ပူး	-11.8245
စစ်ဆေးခြင်း	-11.8252
ဖွင့်ခဲ့သည်	-11.8253
ီးနီး	-11.8257
▁ကယ်လို	-11.8268
စီအက်စ်	-11.8268
▁ဟူး	-11.827
▁ဗွ	-11.8273
တ်များ	-11.8274
တပ်ဆင်ထား	-11.8276
▁တောင်းဆိုထားသည်	-11.8277
ဘိုး	-11.8278
▁နှစ်လ	-11.8285
န်းများ	-11.8286
▁ပြဌာန်းခဲ့သည်	-11.8287
▁အမေရိကန်လူမျိုး	-11.8289
ကြားချက်	-11.8294
ပြပွဲ	-11.8294
နွယ်ဖ	-11.8296
▁ဆန့်ကျင်ဖက်	-11.8298
▁မစ်ဆ	-11.83
တင်ပြခဲ့သည်	-11.8308
ကီရာ	-11.831
▁နှစ်ပွဲ	-11.8312
▁ဂါလံ	-11.8316
▁အချိန်ကြာ	-11.8317
ုရု	-11.832
ာရင်	-11.8321
အထိမ်းအမှတ်	-11.8323
▁ဘရူ	-11.8325
ရုရှား	-11.8327
▁မောင်	-11.8331
င	-11.8333
ပူးပေါင်းဆောင်ရွ	-11.8334
အပ်ဖ်	-11.8338
▁အသိပေးခဲ့	-11.834
ော်ဗစ်	-11.834
▁တံဆိပ်ခတ်	-11.834
▁ထွက်ပြေးခဲ့	-11.8347
တလဲလဲ	-11.8349
▁အလွဲသုံးစားပြု	-11.8353
▁သက်မွေး	-11.8354
▁ဘရစ်စ	-11.8358
လိုက်ရ	-11.8364
ူဆီ	-11.8364
ရိုက်စ်	-11.8367
်လန်း	-11.8373
စာစောင်	-11.8375
▁မဟုတ်ခဲ့ပါ	-11.8375
▁တိုးတက်စေ	-11.8375
းပုံအခြေခံဥပဒေ	-11.8376
▁မသင့်လျော်	-11.838
▁ဘု	-11.8381
န်းမင်း	-11.8381
ာဇာ	-11.8382
▁ဖန်းတီး	-11.8387
▁အဆိုပြုခဲ့	-11.839
▁တယ်လီ	-11.8395
န်မြို့	-11.8403
▁နှစ်ဦးစလ	-11.8404
ဂျူ	-11.8405
▁အက်စတ	-11.8406
▁ဒါဖ	-11.8408
ီအို	-11.8409
▁ဖြေရှင်းခြင်း	-11.8409
ရောင်း	-11.841
▁ဝစ်သ်အော	-11.8412
▁သွင်းခဲ့	-11.8414
ခန့်အပ်	-11.8419
▁ဂါး	-11.842
▁ဥပဒေပြုရေး	-11.8422
▁ရုပ်ပိုင်း	-11.8423
▁လွ	-11.843
ကြိုးစား	-11.8434
▁ထုတ်ဝေဖြန့်ချီ	-11.8442
လူကြီးများ	-11.8443
▁မေးမြန်းထား	-11.8444
▁ကူးစက်ခံခဲ့ရ	-11.8444
▁ရူပီ	-11.8444
▁မလေးမစား	-11.8445
ဆက်တ	-11.8448
ိုင်ဘီ	-11.8453
▁အထက်တန်းကျ	-11.8456
ရခဲ့	-11.8457
▁လွန်းပျံ	-11.8457
၅၆	-11.8459
ထောက်ပံ့	-11.8459
တန်ရူး	-11.8464
▁ရှမ်	-11.8466
▁ပြောကြားထား	-11.8466
▁မာရီယို	-11.8467
ကွန်ပျူတာ	-11.8467
▁ဘာလို့	-11.8473
ိုရမ်ဆ	-11.8475
▁လေ့လာခဲ့	-11.8476
▁မရနိုင်ပါ	-11.8479
▁ထုတ်ပယ်ခဲ့သည်	-11.8479
စတက်	-11.8482
မ်မာ	-11.8484
ဂျီးရီးယား	-11.8484
ရောက်ရှိ	-11.8486
▁အေစီအ	-11.8487
▁ကတ်စ	-11.8489
ရွယ်	-11.849
ပဲဖြစ်	-11.849
▁အပ်	-11.8495
▁ရွ	-11.8496
ထားရ	-11.8497
မပြုခဲ့	-11.8499
အောင်မြင်မှု	-11.8503
▁လွတ်မြောက်လာ	-11.8503
▁ဟောလီ	-11.8507
▁မျှော်လင့်နေကြ	-11.8509
▁ပြီးစီးခဲ့	-11.8511
▁မိတ်ဆက်ခဲ့	-11.8513
ရာဂျက်	-11.852
▁ချာ	-11.8522
▁ဘိုရ	-11.8525
ေဆ	-11.8528
နည်းသော	-11.8537
▁ဟစ်ဂင်	-11.8538
▁ဝင်ခွင့်ပြု	-11.8539
▁ဖျက်ဆီးခံခဲ့ရ	-11.8542
ပေါလ်	-11.8544
▁ပုံပေါ်သည်	-11.8545
▁ရန်လို	-11.8546
နိုင်ငံလုံး	-11.8549
သဘာဝ	-11.8549
▁ဝါးတား	-11.8556
▁ငွေတောင်းခံ	-11.8557
▁အိုင်ဗ	-11.8558
ထိခိုက်မှု	-11.8559
▁၈၉	-11.8564
ချမှတ်	-11.8565
▁အလုပ်မလုပ်	-11.8566
▁သုံးသပ်သူ	-11.8569
▁သဲက	-11.8571
▁အထဲမှ	-11.8571
ယု	-11.8573
▁တစ်ချိန်	-11.8573
▁အန်ဒရ	-11.8575
တီထွင်မှု	-11.8578
▁ရွာသွန်းခဲ့	-11.858
▁မျှော်လင့်နေ	-11.8588
▁ငြင်းဆိုချက်	-11.8588
▁လက်မထပ်ရသေး	-11.8589
နိမ့်	-11.8591
ဗေလ	-11.8591
▁သေစေနိုင်	-11.8593
ကြပေ	-11.8601
ကြေးဖောင်းပွမှု	-11.8601
▁စုရုံးခဲ့	-11.8608
ရှလစ်	-11.8608
▁တိုက်ခိုက်ခံရ	-11.8615
▁ကြီးစွာ	-11.8617
မှုဆိုင်ရာ	-11.8619
▁ပြောင်းလဲလာ	-11.8622
တွ	-11.863
▁ထောက်ခံပေး	-11.8632
▁ကန့်သတ်မှု	-11.8633
ဂယ်	-11.8637
တမ်	-11.8638
ရှုပ်ထွေး	-11.8643
▁ဘိုအ	-11.8643
ကြေငြာခဲ့သည်	-11.8648
▁ဖရန်	-11.865
ဝင့်	-11.865
▁ဟီးလ	-11.866
▁အေဝမ်းဂျ	-11.8661
နိုင်ငံခြားရေး	-11.8666
▁ဝါဂ	-11.8667
▁မစ်ရှ	-11.8669
▁ရွေ့ဆိုင်းခဲ့	-11.8669
▁ပြောင်းလည်း	-11.867
ကာလို	-11.867
▁ဘတ်စ်က	-11.867
ဖြစ်စေပါ	-11.8672
▁စပစ်	-11.8673
▁တားမြစ်ထားသည်	-11.8675
▁၉၁	-11.8681
▁တာတိုပြေး	-11.8683
▁အေဇ	-11.8683
▁ကျန်နေ	-11.8687
▁ကျခံ	-11.8689
▁အင	-11.8689
▁စီမံခဲ့	-11.869
ကြီးစွာ	-11.8693
▁ရေနံတင်	-11.8694
▁၁၆၅	-11.8696
▁ဒါတွေ	-11.8699
▁လက်ထပ်ခဲ့	-11.87
၉၁	-11.87
အပြား	-11.8703
▁ဒီက	-11.8703
ရာဘင်	-11.8704
▁အိန်ဂျ	-11.8706
ခဲ့ကြရသည်	-11.8713
▁ချယ်န	-11.872
ာ့ခ်	-11.8722
▁နေချိန်	-11.8723
▁ပျက်စီးစေခဲ့	-11.8731
ပီအက်စ်	-11.8734
▁တင်ထားခဲ့	-11.8735
▁မပြည့်စုံ	-11.8737
▁ရှိမည်	-11.8737
▁ချန်ဒရ	-11.8737
အားပေး	-11.8739
▁ဖော်ပြခဲ့ပါ	-11.8742
နှစ်ဆယ်	-11.875
ထိုက်	-11.8751
▁အမည်ပေးထား	-11.8753
ီမွန်	-11.8753
▁ရှာဖွေနေပါ	-11.8755
▁ကြီးမြတ်	-11.8758
▁လိုက်သည်	-11.8759
လုပ်သား	-11.8765
▁ဝေဖန်ခံခဲ့ရ	-11.8767
▁မတ်စ်	-11.8768
ဆင်ဖြည့်စွက်ချက်	-11.8768
▁အာဖဂန်န	-11.877
▁ဘရစ်ဘ	-11.8771
အိုအက်စ်စီ	-11.8771
▁ကြားခဲ့ရ	-11.8785
ခံလိုက်ရ	-11.8786
▁မပြော	-11.879
▁ပိုမိုမြင့်မား	-11.8793
ာမန်	-11.8804
▁ဂျော်ဂျီ	-11.8805
▁ကြာသည်	-11.8811
ဒရီ	-11.8815
အရာများ	-11.8823
ဒူး	-11.8823
▁အင်ဒ	-11.8824
းနစ်	-11.8825
တနီ	-11.8827
▁ပေါက်ကွဲစေသော	-11.8833
ခံထားရသည်	-11.8833
▁လက်ဖ	-11.8834
ဆယ့်ခုနှစ်	-11.8841
▁ပက်ခ	-11.8847
▁မက်ခ်	-11.8848
▁ကျော်သွား	-11.8848
ဝိုင်အီ	-11.8853
ကူညီမှု	-11.8856
ပြီဖြစ်	-11.8856
မျော	-11.8856
▁ဘာတီ	-11.8859
▁ရှာဖွေနေကြ	-11.8861
▁ဖြစ်မြောက်	-11.8862
▁သွန်	-11.8862
အမေရိကန်	-11.8864
တက်ခ	-11.8864
▁အိမ်ယာ	-11.8868
▁ဂျွန်ဆ	-11.8869
▁ဖိတ်ကြား	-11.8875
▁သယ်ဆောင်ခဲ့သည်	-11.8878
▁၄၀ဝ၀	-11.8878
ညွှန်ကြား	-11.8881
▁ကြမ်း	-11.8881
▁မင်နီ	-11.8884
ကာကွယ်ရေးဝန်ကြီး	-11.8888
▁အဆင်	-11.8889
လေဆိပ်	-11.8893
ဆက်ဆံ	-11.8896
ခေါ်	-11.8898
▁အီရ	-11.8903
▁ကန်ဒ	-11.8911
▁ကာရိုး	-11.8912
▁တွေးမိ	-11.8913
▁အစ္စရေးလူမျိုး	-11.8915
အမ	-11.8916
က်ချာ	-11.8918
ဖြစ်ခဲ့ပါ	-11.8918
တိုးပွားလာခြင်း	-11.8918
▁မက်ဟ	-11.8923
▁တည်းဖြတ်ခြင်း	-11.8928
▁သင်ကြားပေးခဲ့	-11.8929
▁၁၁၂	-11.893
▁ညွှန်ပြနေ	-11.8932
▁ဇာတ်	-11.8941
▁၁၀၂	-11.8941
ပိုလီ	-11.8949
▁ချပ်	-11.8955
▁နေနိုင်	-11.896
▁ကိုက်ညီမှု	-11.8966
▁စေနိုင်	-11.8967
▁ထိန်းထားနိုင်	-11.8973
စ်ကတ်	-11.8976
ပါသည့်	-11.898
▁သူမက	-11.8982
ယန်း	-11.8983
ည်းရုံးလှုံ့ဆော်	-11.8985
▁ကူညီခဲ့	-11.8988
ဝင်ရောက်	-11.8988
▁မာဂျ	-11.899
ဆန္ဒပြ	-11.8991
ရိပ်	-11.8994
တိတ်	-11.9
ရမည့်	-11.9005
ံုး	-11.9005
ညှိနှိုင်း	-11.9008
▁သတ္တိ	-11.9009
ဖြစ်ပွားခဲ့သည်	-11.9017
▁ေသာ	-11.9018
အလို	-11.9022
▁အန်ဂို	-11.9022
ီနီ	-11.9024
▁သုံးခဲ့	-11.9026
ကုသမှု	-11.9027
▁မဝင်	-11.9027
▁ဝီလ်	-11.9029
▁တင်ပြထားခဲ့	-11.903
▁ဖတ်ကြား	-11.903
▁ချိုင်	-11.9032
▁အရာရာ	-11.9035
▁အေပီ	-11.9039
ဂရီလ်	-11.9042
▁ဆန်တို	-11.9042
▁ဟော့စ်	-11.9043
ီယူ	-11.9045
ဖျက်ဆီး	-11.9047
ဘိုင်း	-11.9048
▁ကိုရမ်ကျမ်း	-11.9049
▁တခဏ	-11.9052
်လယ်	-11.9053
▁ပြင်း	-11.9056
နီးပါး	-11.9057
ဆိုခွင့်ရှိသူ	-11.906
ီမော	-11.9064
▁နားလည်ခဲ့	-11.9066
▁ဟက်ဆ	-11.9066
▁ဆိုလိုတာ	-11.9071
▁မန်ဒ	-11.9073
▁နေရာတွင်	-11.9074
ာဟူး	-11.9078
▁ရိုက်ခဲ့သည်	-11.9081
မုန့်	-11.9088
ဗဲလ်	-11.9093
ထုတ်လုပ်	-11.9093
▁ထုတ်ပေးခဲ့	-11.9101
▁မွေးဖွားခဲ့သည်	-11.9102
မှန်ကန်မှု	-11.9103
လက်နက်များ	-11.9104
ဗီးန	-11.9106
▁မဆင်မခြင်	-11.9106
ထိန်းသိမ်းထား	-11.9108
ရှေ့	-11.9108
▁တိုင်ပ	-11.9108
▁ကြုံတွေ့ခဲ့	-11.9109
▁အပြစ်ရှာ	-11.9111
▁ဒေါင်း	-11.9112
▁ဖြစ်ပေါ်နိုင်	-11.9113
ီးစ်	-11.9118
၀က်	-11.912
▁မကောင်း	-11.912
ဘက်ဆိုင်ရာ	-11.9129
▁ဘေ့	-11.9129
▁ခန့်အပ်ခဲ့	-11.9136
▁ရောဂါဖြစ်ပွား	-11.9137
▁လုံခြုံစိတ်ချ	-11.914
ီအန်း	-11.914
ဒဏ်ရာများ	-11.914
▁ဗုံးဖောက်ခွဲ	-11.9141
▁ရီနော	-11.9141
ဖမ်း	-11.9145
▁အချိုး	-11.9148
ရေးသမားများ	-11.9149
ရယ်လ်	-11.9158
စီန	-11.9159
▁ပါပူ	-11.9159
ုဒါ	-11.9159
ပိုင်ရှင်	-11.916
▁လေထဲ	-11.9161
▁ဂျွန်န	-11.9161
▁မေးခွန်းထုတ်ခဲ့	-11.9161
စီပီ	-11.9162
ဂီရ	-11.9166
ပ်ပီ	-11.9167
အချို့	-11.9168
စ်ဖ်	-11.9171
စစ်တမ်း	-11.9182
ကျွမ်းကျင်သူ	-11.9183
မြင်သာ	-11.9185
▁အလ်	-11.9187
ဂရမ်	-11.9188
▁ဇမ်	-11.9192
အန္တရာယ်	-11.9193
ံ့	-11.9194
▁လစ်	-11.9196
ပတ်ဝန်းကျင်	-11.9196
ငွေ့	-11.9197
ဖြစ်ပျက်	-11.9197
ဟိတ်	-11.9198
▁စေတနာ့	-11.9198
▁တီဂျီ	-11.9201
လမ်းမ	-11.9201
၄၀ဝ	-11.9206
▁ဘီတယ်	-11.9208
ီကြူ	-11.921
▁၄င်းက	-11.9211
ရာဇ	-11.9211
ပြည်ထဲရေးဝန်ကြီး	-11.9214
သုတေသန	-11.9216
အဖြစ်အပျက်	-11.9216
▁ဖြန့်ဝေခဲ့	-11.9217
▁ဒမ်	-11.9223
ဖလား	-11.9224
▁ထမ်းဆောင်ခဲ့	-11.9224
ြပ	-11.9224
့စား	-11.9227
ဝတ္တရား	-11.923
အိုဘားမား	-11.9231
▁လူကြိုက်	-11.9236
တပြိုင်နက်	-11.9238
▁ခြိမ်းခြောက်ခံ	-11.9238
င်မရာ	-11.9238
▁စီရင်မှု	-11.9239
စမ်းသပ်	-11.9241
အနေနဲ့	-11.9242
▁တောင်တက်	-11.9242
တ်ခြင်း	-11.9242
▁ြပ	-11.9243
▁အကောင်အထည်	-11.9246
ကွေ	-11.9247
▁အမ်စီက	-11.9247
အနား	-11.9248
▁စကင်	-11.9248
▁ဘက်စ်	-11.9248
ဈေးနှုန်း	-11.9249
ဖော်ပြချက်	-11.9251
ဒီရော့	-11.9252
အာမခံပစ္စည်းများ	-11.9252
ထပ်ခါ	-11.9253
န်ဒီ	-11.9254
▁ဘိုန	-11.9254
နီးကပ်	-11.9255
ရေးသမား	-11.9257
▁ကြည့်	-11.9258
အကြီးအကဲ	-11.9258
အတွဲ	-11.9259
▁တားဆီးထား	-11.9261
သတ်ဖြတ်မှု	-11.9263
လီမာ	-11.9263
▁သွန်ဆ	-11.9264
▁နောက်ဘက်	-11.9264
တင်ဆက်သူ	-11.9267
ဒီဂရီ	-11.9268
▁လိုပက်	-11.9268
သဘောထား	-11.9268
▁ပါဝင်ခဲ့တယ်	-11.9268
အာရုံစိုက်	-11.927
တစ်ဝက်	-11.927
မုန်းတီး	-11.9273
ထက်ပို	-11.9274
ကိစ္စရပ်	-11.9275
ဥက္ကဋ္ဌ	-11.9275
လိုက်လျော	-11.9275
ကော်ပ	-11.9275
ရန်ပုံငွေ	-11.9277
▁ပြောဆိုထား	-11.9278
ထရန့်	-11.9279
စကြဝ	-11.9279
တိုန	-11.9281
၂၀၁၃	-11.9281
ဘွဲ့	-11.9283
ဟေဂ	-11.9283
ဝင်ရိုးစွန်း	-11.9286
မဲပေးသူ	-11.9287
လူ့အခွင့်အရေး	-11.9287
ကွန်ရက်	-11.9288
ဆန်ဒါ	-11.9288
ဗီဇာ	-11.9288
ဧက	-11.9288
နှောင်းပိုင်း	-11.9289
လမ်းစဉ်	-11.9291
လျှပ်စစ်	-11.9292
အစည်းအ	-11.9292
အမြင့်	-11.9293
▁စိတ်ပညာ	-11.9293
▁မဟုတ်သူ	-11.9294
ရှယ်	-11.9294
သုံးစွဲမှု	-11.9296
သုံးဆယ်	-11.9298
အကွာ	-11.93
ပြစ်မှု	-11.9301
ခြောက်သွေ့	-11.9301
ဒီမိုကရေစီ	-11.9302
▁တဲလ်	-11.9303
ဟောက်	-11.9304
ပီဂျီ	-11.9305
▁နယူကလ	-11.9306
ကျယ်ပြန့်သော	-11.9306
အေးရှ	-11.9306
ပြတ်တောက်မှု	-11.9307
ခွေး	-11.9308
▁ချွတ်ယွင်း	-11.9308
လှေ	-11.931
▁တိုက်ခိုက်ခဲ့ကြ	-11.931
ီးနပ်	-11.9311
▁သေဆုံးခဲ့ကြ	-11.9316
အခန်း	-11.9318
▁ဆန့်ကျင်သ	-11.932
မြှင့်တင်	-11.9321
လေးစား	-11.9321
ဝယ်ယူ	-11.9323
အယ်လ	-11.9324
▁ဟဇ	-11.9326
▁ဖွင့်လှစ်ထား	-11.9326
ရပ်နား	-11.9327
ခံရနိုင်	-11.9327
▁ချယ်	-11.9328
▁ဒိုင်ဗာ	-11.933
ူးကလီးယား	-11.933
ခံရမည်	-11.9331
ပါဝင်သော	-11.9333
▁ပြန်မပေး	-11.9335
မွေးမြူရေးခြံ	-11.9337
ေးလီးယား	-11.9339
▁ကြာမည်	-11.9339
လက်ခံ	-11.9341
▁ပေါ့ဆ	-11.9341
ခ့ဲ	-11.9343
▁အရေးပါသည်	-11.9343
က်ရှ်	-11.9344
နှင့်ဆက်စပ်	-11.9345
▁ပြုလုပ်ခဲ့ပြီး	-11.9346
ာဒို	-11.9346
ဂျူး	-11.9346
▁ဂျီနီ	-11.9349
▁ဖေ့ဘ	-11.935
▁ဆာလ်	-11.9353
ဖေါ့	-11.9355
▁သံသယရှိသည်	-11.9356
ဘမ်	-11.9358
▁ထောက်ပံ့ပေးသူ	-11.9358
▁လျက်ရှိ	-11.9359
ထောင့်	-11.9359
▁ရောဂါကူးစက်	-11.9359
အမည်	-11.9361
ရွေးကောက်ပွဲများ	-11.9365
ပါရီ	-11.9368
အဆုံး	-11.9369
အဝိုင်း	-11.9372
▁ဂတိ	-11.9374
▁ဝှစ်	-11.9375
ဗိုလ်မှူး	-11.9377
န်မင်း	-11.9377
▁ရစ်ချ	-11.9378
မလေး	-11.9382
မျှော်	-11.9387
မတော်တဆမှု	-11.9387
▁စခရ	-11.9388
▁အိုမ	-11.9388
▁မြေပြို	-11.9389
တဲ့အခါ	-11.9391
▁ထောက်ခံမဲ	-11.9397
▁၁၆၀၀	-11.9399
အာရ်အို	-11.94
▁လုပ်ဆောင်မည်	-11.9401
န်နန	-11.9404
▁အပစ်အခတ်ရပ်စဲရ	-11.9405
လိခ်	-11.9406
ဆိုဒ်	-11.9407
ိုးတက်ကောင်းမွန်	-11.9407
▁ဗန်န	-11.9408
ခြင်းမရှိခဲ့	-11.941
▁ပြင်းပြ	-11.9411
▁ကျသွား	-11.9411
လိုက်ပါ	-11.9413
လှိုင်း	-11.9414
ုံစမ်းထောက်လှမ်း	-11.9414
▁ဟက်တ	-11.9414
က်ဆိုင်	-11.9414
ဟ်	-11.9415
၃ဝ	-11.9415
တ်တီ	-11.9416
▁ချက်ဗ	-11.9416
▁ဂျူလီယာ	-11.9417
▁စတင်မိတ်ဆက်	-11.9419
ယောက်မြောက်	-11.9421
ဌက်	-11.9421
▁ခိုးယူခဲ့	-11.9421
ဟောင်းများ	-11.9421
▁ဟိုက်ဒ	-11.9423
အသိုင်းအဝိုင်း	-11.9423
▁နှင်းလျှောစီး	-11.9424
▁လှိုင်းလုံး	-11.9424
▁၄၅၀၀	-11.9427
▁မသန်စွမ်းသူ	-11.9428
ဖင်	-11.9428
▁အမှတ်တံဆိပ်	-11.943
▁ကြေငြာထား	-11.943
▁မာဖီ	-11.9432
▁ဂရုပြု	-11.9436
▁သုံးစွဲနိုင်	-11.9437
▁အချို	-11.9442
▁စိုးရိမ်စ	-11.9445
▁ထိန်ချန်	-11.9446
အကျိုးဆက်	-11.9446
▁နောက်ပြီး	-11.9448
▁ရွက်လွှင့်	-11.9451
▁မသန်စွမ်း	-11.9453
▁မြောက်မြား	-11.946
▁လူထုသဘောထား	-11.946
▁မက်စီ	-11.9463
▁တိုတောင်း	-11.9464
ော့ဘ်	-11.9465
▁သစ္စာ	-11.9468
ူဂျာ	-11.9469
နန်	-11.9473
▁ဓားပြ	-11.9476
▁ကြေကွဲ	-11.9479
ဂျိ	-11.948
▁အီလီနွို	-11.948
▁လွှမ်း	-11.9481
လက်မှတ်ရေးထိုး	-11.9484
▁နစ်နာမှု	-11.9485
ျူးကျော်ဝင်ရောက်	-11.9488
ကော့ဆ	-11.9489
▁ထင်ကြေး	-11.949
▁ဆုံးရှုံ	-11.949
▁ဇာဟ	-11.9491
အသွင်	-11.9492
▁၎င်းက	-11.9495
လတ်လတ်	-11.9498
ီးယန်း	-11.9498
▁ဇီ	-11.9498
ကျော်ကြားသူများ	-11.9498
▁အားလုံးသော	-11.9498
▁၀က်	-11.9499
းတန်း	-11.9503
မျိုးစိတ်	-11.9504
မချင်း	-11.9504
▁ဂဲ	-11.9504
▁ထွက်ခွာလာ	-11.9504
▁အံ့ဩဖွယ်	-11.9504
▁ဒဗလျူဒဗလျူအ	-11.9504
▁အချက်အချာ	-11.9505
▁ခပ်	-11.9506
ယမ်	-11.9507
▁အစ္စလမ်	-11.9507
ဒဲလက်	-11.9508
ထူ	-11.9509
ဟူစိန်	-11.951
▁ကုန်ထုတ်	-11.9511
စစ်တပ်	-11.9511
▁အထူးပြု	-11.9513
အရောင်းဆိုင်	-11.9514
▁အသွင်ပြောင်း	-11.9515
မ့်	-11.9517
▁ကိုက်	-11.9518
လင်းတန်း	-11.952
▁အထိတ်တလန့်	-11.9523
အမတ်များ	-11.9527
▁ဖြစ်ကောင်း	-11.9529
▁ကျန်ရှိနေသေး	-11.9531
▁ပါဝင်ခဲ့ကြ	-11.9534
▁မူပိုင်	-11.9535
▁ဝန်ဆောင်မ	-11.9535
ရုတ်တရက်လ	-11.9535
▁စူပါမားက	-11.9536
▁၂ဝ၁	-11.9537
ာဘတ်	-11.9537
▁မက္ကဆီက	-11.9537
▁အော့စ်	-11.9538
▁ပျ	-11.9538
ဲဗင်း	-11.954
▁မိုးသည်းထန်	-11.954
▁အခြေခံအ	-11.954
▁ဘူခ	-11.9541
န်လုံအိမ်	-11.9542
▁လက်ဝါးက	-11.9544
ိုမေနီ	-11.9544
▁ဖောရ	-11.9544
▁ဟော်လီ	-11.9544
▁ဝီကီပီးဒီ	-11.9545
▁လျှောက်လွှာ	-11.9545
▁ရာဇဝင်	-11.9545
▁စံပြ	-11.9545
ဖြာထွက်ရောင်ခြည်	-11.9545
ဝမ်းမြောက်ဝမ်းသာ	-11.9545
▁အတင်းအဓမ္မ	-11.9545
နယ်စည်းမခြား	-11.9545
▁နှုတ်ခွန်းဆက်	-11.9545
▁ဖြည်းဖြည်း	-11.9545
▁ဘေးအန္တရ	-11.9545
▁မျက်မမြင်	-11.9545
▁သင်္ချာ	-11.9545
▁အနိုင်အရှုံး	-11.9545
▁အလုံပိတ်	-11.9545
မီဖလူး	-11.9545
ရိုင်းတိရိစ္ဆာန်	-11.9545
▁`	-11.9545
▁ကင်ဂျုံအ	-11.9545
▁ကွန်ပျုတာ	-11.9545
▁ချေးငှား	-11.9545
▁စိန့်အင်ဒရူး	-11.9545
▁ဆန်ဖရန်စစ	-11.9545
▁တက်တက်ကြွကြွ	-11.9545
▁တစ်သီးပုဂ္ဂလ	-11.9545
▁ထိခိုက်နစ်နာ	-11.9545
▁ထူးခြားဆန်းသစ်သ	-11.9545
▁ပန်ဆီဗေးနီးယား	-11.9545
▁ပလန်းနက်အောက်	-11.9545
▁ပြတ်ပြတ်သားသား	-11.9545
▁ဗိသုကာ	-11.9545
▁မကြုံစဖူး	-11.9545
▁ရေငုတ်သင်္ဘော	-11.9545
▁ရေဒီယိုသတ္တိကြွ	-11.9545
▁ရေဗက္ကာ	-11.9545
▁အတိုင်ပင်ခံ	-11.9545
▁အနုကြမ်းစီး	-11.9545
▁အနှောက်အယှက်	-11.9545
▁ဥရုဂွေး	-11.9545
စောက်ရှောက်	-11.9545
ပေးအားမြှောက်ပြု	-11.9545
▁ချဥ်းကပ်	-11.9545
▁စပွန်ဆာ	-11.9545
▁ပွဲဉီးထွက်	-11.9545
▁ရိုးရိုးသားသား	-11.9545
▁လိုလိုလားလား	-11.9545
▁လှောင်အိမ်	-11.9545
▁ဝိတိုရိယ	-11.9545
▁သက်ဦးဆံပိုင်	-11.9545
▁သေမှုသေခင်း	-11.9545
▁အိုက်စလန်	-11.9545
တက်ရုံးဆင်းချိန်	-11.9545
▁ချင့်ချိန်	-11.9545
▁ထူးကဲ	-11.9545
▁ဘေးဒုက္ခ	-11.9545
▁ယူဂိုဆလ	-11.9545
▁ရုတ်တရတ်	-11.9545
▁ရှေးအကျဆုံး	-11.9545
▁လူစားထိုး	-11.9545
▁အခိုက်အတ	-11.9545
▁ဦးထုပ်	-11.9545
▁ဆင်းရဲနွမ်းပါး	-11.9545
▁စိုထိုင်း	-11.9545
▁နယူးမောင့်	-11.9545
▁နှစ်သိမ့်	-11.9545
▁သူနာပြု	-11.9545
▁မည်သူမည်ဝါ	-11.9545
▁တိုင်ဖွန်း	-11.9545
▁တံတွေး	-11.9545
▁ဘရွန်ကို့စ်	-11.9545
▁ရှဲလ	-11.9545
▁သတိမေ့	-11.9545
▁အစီအစဥ်ဆွဲထား	-11.9545
▁စန်းတော့စ	-11.9545
▁မာလာဝီ	-11.9545
▁ရှုံးနိမ့်ခဲ့	-11.9545
▁၀တ်ဆင်	-11.9545
▁ဒေးလီး	-11.9545
▁နေ့တစ်နေ့	-11.9545
▁နှုတ်ခမ်း	-11.9545
▁ရီပတ်ဗလီက	-11.9545
▁နို၀င်ဘာ	-11.9545
▁မိုဇမ်ဘ	-11.9545
▁လေဖိအားနည်း	-11.9545
▁လှော်ခတ်	-11.9545
▁ခြေစမ်း	-11.9545
▁လက်ကမ်းစာစောင်	-11.9545
▁ဂျာမေက	-11.9545
▁လောင်းကစား	-11.9545
င့်ပွင့်လင်းလင်း	-11.9545
▁ဂွတ်ဝင်း	-11.9545
▁အင်မတန်	-11.9545
▁မက်သရူး	-11.9545
▁စောင့်မျှော်	-11.9545
▁ဘာလူစက	-11.9545
▁ယိုဂျာကာတာ	-11.9545
▁ကယ်ရိုလိုင်း	-11.9545
▁ပုံသဏ္ဌာန်	-11.9545
▁ရိုးရာဓလေ့	-11.9545
▁စာတမ်းဖတ်	-11.9545
▁ပရိုတိန်း	-11.9545
▁ဗုံးဖေါက်ခွဲ	-11.9545
▁သမားရိုးကျ	-11.9545
▁ကိုယ်ကျိုး	-11.9545
▁အကြမ်းဖျဉ်း	-11.9545
▁အမျိုသား	-11.9545
စပ်လျဥ်း	-11.9545
▁အမိုးအကာ	-11.9545
စိုက်ပျိုးခန်း	-11.9545
▁တူရိယာ	-11.9546
▁ထုပ်ပိုး	-11.9546
ပြေးညီ	-11.9546
▁တစ်စတစ်စ	-11.9546
▁အေးဆေး	-11.9546
ွိုင်နွ	-11.9546
▁ဥမင်လှို	-11.9546
န္တာရ	-11.9546
▁အမဲရောင်	-11.9546
▁ပါလိုမာ	-11.9546
▁ရုပ်သံလွှင့်	-11.9546
▁ရေနံချက်စက်ရုံ	-11.9546
▁အရေးအကြီးဆုံး	-11.9546
▁ဒမတ်စကတ်	-11.9546
▁အမဲသား	-11.9546
▁ရေဆိုးထုတ်	-11.9546
▁အိမ်ခြံမြေ	-11.9546
▁ကွန်ဒုံး	-11.9546
▁ဒါဏ်ငွေ	-11.9546
▁မောက်ဆာ	-11.9546
▁သေကြေပျက်စီး	-11.9546
ဘေးထွက်ဆိုးကျိုး	-11.9546
▁နှစ်တစ်ရာ	-11.9546
▁တိုရန်တို	-11.9546
▁မျက်နှာဖုံးစွပ်	-11.9546
▁ရောဂါခုခံ	-11.9546
▁ဒဗလျူအမ်အေကျူ	-11.9546
▁ထုံးစံအတိုင်း	-11.9546
▁၆ဒဿမ	-11.9546
▁ထာဝရ	-11.9546
▁ဒေါင်းလုပ်	-11.9546
▁စိတ်ချယုံကြည်	-11.9546
▁ရှေးခေတ်	-11.9546
▁ဒီရေတော	-11.9546
▁ပါဝင်ဆင်နွှဲ	-11.9546
▁နောက်ကလိုက်	-11.9546
▁လျှော့နည်း	-11.9546
▁သေနတ်ကိုင်	-11.9546
▁ခင်မင်	-11.9546
▁ပံု	-11.9546
▁အာဏာခွဲဝေ	-11.9546
▁အာကာသယာဥ်မှူး	-11.9546
▁ဘာမင်ဟ	-11.9546
▁အပိုင်စီး	-11.9546
▁ဇာတ်ရုပ်	-11.9546
▁ချယ်လ်စီး	-11.9546
▁သဲသောင်	-11.9546
▁ကုန်သည်ကြီးများ	-11.9546
▁ဘေးလွတ်ရာ	-11.9546
▁ဟားဗတ်	-11.9546
▁ဘူးခွံ	-11.9546
ချဲ့စက်	-11.9546
▁သန္တာ	-11.9546
▁တမင်တကာ	-11.9546
▁စက်လှေ	-11.9546
▁လျှပ်စီး	-11.9546
▁စီအာအေ	-11.9546
▁ဂျွန်ကယ်ရီ	-11.9546
▁ဝင်းလက်	-11.9546
▁အထင်အ	-11.9547
▁တက်တူး	-11.9547
▁မက်စေ့	-11.9547
▁စိတ်ဓါတ်ကျ	-11.9547
▁လည်ချောင်း	-11.9547
▁ဆိုးရွားလှ	-11.9547
▁ဘက်ဂဒက်	-11.9547
▁အထင်ရှားဆုံး	-11.9547
▁လက်လျှော့	-11.9547
▁ရယ်စရာ	-11.9547
▁ထကြွ	-11.9547
▁လျှပ်စစ်သံလိုက်	-11.9547
ထက်မြက်	-11.9547
▁အချုပ်ခန်း	-11.9547
▁အရက်သေ	-11.9547
▁ကမ်းမြ	-11.9547
▁၅၀ဝ၀	-11.9547
▁မျက်နှာမူ	-11.9547
▁တညီတညွ	-11.9547
▁ပြိုင်ဘက်ကင်း	-11.9547
▁မလိုက်နာ	-11.9547
▁ရိုးရိုး	-11.9547
▁အဖြေရှာ	-11.9547
▁သုည	-11.9547
▁တစ်ဖက်သတ်	-11.9547
▁လောင်ဂျီ	-11.9547
▁ကထိက	-11.9548
▁ခွဲခြမ်း	-11.9548
▁တရားပြိုင်	-11.9548
▁ဆိုက်ဘေးရီးယ	-11.9548
▁ပေါ့ပါး	-11.9548
▁တွင်းတူး	-11.9548
▁ပိုလျှံငွေ	-11.9548
▁ပါတနာ	-11.9548
▁လူသိများသည်	-11.9548
▁အပစ်ခံရ	-11.9548
▁အိုလန်ပစ်	-11.9548
▁စာရင်းဇယား	-11.9548
▁ဘုတ်ပြား	-11.9548
▁စင်စစ်	-11.9548
▁နောက်ပြောင်	-11.9548
▁ခါ့လူမျိုး	-11.9549
▁ချွတ်ယွင်းချက်	-11.9549
▁မိတ်လိုက်	-11.9549
▁အဖွဲအစည်း	-11.9549
▁ဇာချ	-11.9549
▁အိချ်	-11.9549
▁တွဲဘက်	-11.9549
▁ပိုသေးငယ်သ	-11.9549
▁အမိန့်ချခဲ့သည်	-11.9549
▁ရှေးရိုး	-11.9549
▁အညွန်း	-11.9549
▁ပေါင်းကူး	-11.9549
▁ကျုပ်တို့	-11.9549
▁တိုင်းတစ်ပါး	-11.9549
▁ဘယ်ဂျီယန်	-11.9549
▁တက်စ်မေးနီးယား	-11.9549
▁ဘဏ္ဍရေး	-11.9549
▁ရှီယိုက်	-11.955
▁အတိုချုပ်	-11.955
▁ညွန်ကြားချက်	-11.955
▁ဓာတ်ခွဲ	-11.955
▁ဂေါ်ဒွန်	-11.955
▁ရှိနေဆဲ	-11.955
နှင်းသ	-11.955
▁ကုန်တွဲ	-11.955
▁ဆယ့်လေး	-11.955
▁အမှတ်လက္ခဏာ	-11.955
ထက်ထိ	-11.955
▁ရေပိုက်	-11.955
▁လမ်းရထား	-11.955
▁မြင်ချင်	-11.955
▁သွင်းဂိုး	-11.955
▁မိုက်ကရိုဆော့	-11.955
▁လေယာဉ်အမှုထမ်း	-11.955
▁ဖြစ်ဟန်တူ	-11.955
▁ဥရောပအမြင်	-11.955
အခွန်ဘဏ္ဍာ	-11.9551
ုဏ်	-11.9551
▁ဂုဏ်ယူစရာ	-11.9551
▁ဒုတိယကမ္ဘာစစ်	-11.9551
▁စည်းမျဉ်းဥပဒေ	-11.9551
[...]
